{
  "version": "1.0",
  "truncation": null,
  "padding": null,
  "added_tokens": [
    {
      "id": 0,
      "content": "[UNK]",
      "single_word": false,
      "lstrip": false,
      "rstrip": false,
      "normalized": false,
      "special": true
    },
    {
      "id": 1,
      "content": "[PAD]",
      "single_word": false,
      "lstrip": false,
      "rstrip": false,
      "normalized": false,
      "special": true
    },
    {
      "id": 2,
      "content": "[BOS]",
      "single_word": false,
      "lstrip": false,
      "rstrip": false,
      "normalized": false,
      "special": true
    },
    {
      "id": 3,
      "content": "[EOS]",
      "single_word": false,
      "lstrip": false,
      "rstrip": false,
      "normalized": false,
      "special": true
    }
  ],
  "normalizer": {
    "type": "Sequence",
    "normalizers": [
      {
        "type": "NFD"
      },
      {
        "type": "Lowercase"
      },
      {
        "type": "StripAccents"
      }
    ]
  },
  "pre_tokenizer": {
    "type": "Whitespace"
  },
  "post_processor": null,
  "decoder": null,
  "model": {
    "type": "BPE",
    "dropout": null,
    "unk_token": "[UNK]",
    "continuing_subword_prefix": null,
    "end_of_word_suffix": null,
    "fuse_unk": false,
    "byte_fallback": false,
    "ignore_merges": false,
    "vocab": {
      "[UNK]": 0,
      "[PAD]": 1,
      "[BOS]": 2,
      "[EOS]": 3,
      "!": 4,
      "\"": 5,
      "#": 6,
      "$": 7,
      "%": 8,
      "&": 9,
      "'": 10,
      "(": 11,
      ")": 12,
      "*": 13,
      "+": 14,
      ",": 15,
      "-": 16,
      ".": 17,
      "/": 18,
      "0": 19,
      "1": 20,
      "2": 21,
      "3": 22,
      "4": 23,
      "5": 24,
      "6": 25,
      "7": 26,
      "8": 27,
      "9": 28,
      ":": 29,
      ";": 30,
      "<": 31,
      "=": 32,
      ">": 33,
      "?": 34,
      "@": 35,
      "[": 36,
      "\\": 37,
      "]": 38,
      "^": 39,
      "_": 40,
      "`": 41,
      "a": 42,
      "b": 43,
      "c": 44,
      "d": 45,
      "e": 46,
      "f": 47,
      "g": 48,
      "h": 49,
      "i": 50,
      "j": 51,
      "k": 52,
      "l": 53,
      "m": 54,
      "n": 55,
      "o": 56,
      "p": 57,
      "q": 58,
      "r": 59,
      "s": 60,
      "t": 61,
      "u": 62,
      "v": 63,
      "w": 64,
      "x": 65,
      "y": 66,
      "z": 67,
      "{": 68,
      "|": 69,
      "~": 70,
      "¡": 71,
      "£": 72,
      "¯": 73,
      "°": 74,
      "´": 75,
      "·": 76,
      "º": 77,
      "½": 78,
      "×": 79,
      "ø": 80,
      "ł": 81,
      "ʖ": 82,
      "ʘ": 83,
      "ε": 84,
      "θ": 85,
      "σ": 86,
      "φ": 87,
      "ω": 88,
      "д": 89,
      "щ": 90,
      "ل": 91,
      "٩": 92,
      "۶": 93,
      "ಠ": 94,
      "ಥ": 95,
      "ง": 96,
      "༼": 97,
      "༽": 98,
      "ლ": 99,
      "ᄈ": 100,
      "ᄋ": 101,
      "ᄎ": 102,
      "ᅥ": 103,
      "ᅨ": 104,
      "ᅳ": 105,
      "ᆨ": 106,
      "ᆫ": 107,
      "ᵔ": 108,
      "‍": 109,
      "‎": 110,
      "‐": 111,
      "‑": 112,
      "–": 113,
      "—": 114,
      "‘": 115,
      "’": 116,
      "“": 117,
      "”": 118,
      "„": 119,
      "•": 120,
      "…": 121,
      "′": 122,
      "‸": 123,
      "‼": 124,
      "‿": 125,
      "€": 126,
      "∀": 127,
      "∇": 128,
      "∩": 129,
      "≦": 130,
      "≧": 131,
      "⊂": 132,
      "⊃": 133,
      "⌒": 134,
      "⌣": 135,
      "⏱": 136,
      "⑩": 137,
      "─": 138,
      "━": 139,
      "┌": 140,
      "┏": 141,
      "┐": 142,
      "┓": 143,
      "┗": 144,
      "┛": 145,
      "┬": 146,
      "┻": 147,
      "╬": 148,
      "╯": 149,
      "▀": 150,
      "□": 151,
      "▽": 152,
      "◇": 153,
      "○": 154,
      "◎": 155,
      "●": 156,
      "◔": 157,
      "◕": 158,
      "◠": 159,
      "◡": 160,
      "☀": 161,
      "☂": 162,
      "☆": 163,
      "☔": 164,
      "☕": 165,
      "☘": 166,
      "☜": 167,
      "☝": 168,
      "☞": 169,
      "☠": 170,
      "☢": 171,
      "☹": 172,
      "☺": 173,
      "♀": 174,
      "♂": 175,
      "♥": 176,
      "♪": 177,
      "♻": 178,
      "⚪": 179,
      "⚫": 180,
      "⚰": 181,
      "⚽": 182,
      "⛄": 183,
      "✅": 184,
      "✊": 185,
      "✌": 186,
      "✨": 187,
      "✿": 188,
      "❄": 189,
      "❌": 190,
      "❓": 191,
      "❣": 192,
      "❤": 193,
      "➡": 194,
      "⬛": 195,
      "⭐": 196,
      "。": 197,
      "〆": 198,
      "つ": 199,
      "へ": 200,
      "゛": 201,
      "゜": 202,
      "ゝ": 203,
      "ェ": 204,
      "エ": 205,
      "オ": 206,
      "キ": 207,
      "コ": 208,
      "タ": 209,
      "ッ": 210,
      "ツ": 211,
      "ノ": 212,
      "ヘ": 213,
      "ホ": 214,
      "ム": 215,
      "メ": 216,
      "ラ": 217,
      "レ": 218,
      "ロ": 219,
      "ヮ": 220,
      "・": 221,
      "ー": 222,
      "ヽ": 223,
      "ㅂ": 224,
      "一": 225,
      "丶": 226,
      "丿": 227,
      "二": 228,
      "屮": 229,
      "彡": 230,
      "皿": 231,
      "益": 232,
      "自": 233,
      "": 234,
      "": 235,
      "": 236,
      "": 237,
      "︵": 238,
      "﹏": 239,
      "﻿": 240,
      "！": 241,
      "＃": 242,
      "（": 243,
      "）": 244,
      "＊": 245,
      "－": 246,
      "／": 247,
      "；": 248,
      "＠": 249,
      "＼": 250,
      "＾": 251,
      "＿": 252,
      "｀": 253,
      "ａ": 254,
      "ｏ": 255,
      "ｔ": 256,
      "ｕ": 257,
      "ｖ": 258,
      "～": 259,
      "｡": 260,
      "･": 261,
      "ﾉ": 262,
      "ﾐ": 263,
      "ﾟ": 264,
      "￣": 265,
      "￥": 266,
      "🇨": 267,
      "🇫": 268,
      "🇬": 269,
      "🇮": 270,
      "🇳": 271,
      "🇴": 272,
      "🇷": 273,
      "🇸": 274,
      "🌈": 275,
      "🌊": 276,
      "🌎": 277,
      "🌜": 278,
      "🌞": 279,
      "🌟": 280,
      "🌠": 281,
      "🌴": 282,
      "🌸": 283,
      "🌹": 284,
      "🌺": 285,
      "🌿": 286,
      "🍀": 287,
      "🍄": 288,
      "🍅": 289,
      "🍆": 290,
      "🍉": 291,
      "🍋": 292,
      "🍌": 293,
      "🍑": 294,
      "🍒": 295,
      "🍓": 296,
      "🍔": 297,
      "🍦": 298,
      "🍩": 299,
      "🍫": 300,
      "🍭": 301,
      "🍰": 302,
      "🍷": 303,
      "🍸": 304,
      "🍹": 305,
      "🍺": 306,
      "🍻": 307,
      "🍾": 308,
      "🎂": 309,
      "🎃": 310,
      "🎄": 311,
      "🎅": 312,
      "🎆": 313,
      "🎉": 314,
      "🎊": 315,
      "🎥": 316,
      "🎩": 317,
      "🎵": 318,
      "🎶": 319,
      "🎼": 320,
      "🏆": 321,
      "🏋": 322,
      "🏖": 323,
      "🏝": 324,
      "🏧": 325,
      "🏴": 326,
      "🏻": 327,
      "🏼": 328,
      "🏽": 329,
      "🏾": 330,
      "🏿": 331,
      "🐇": 332,
      "🐈": 333,
      "🐉": 334,
      "🐍": 335,
      "🐔": 336,
      "🐝": 337,
      "🐟": 338,
      "🐬": 339,
      "🐮": 340,
      "🐰": 341,
      "🐱": 342,
      "🐳": 343,
      "🐶": 344,
      "🐷": 345,
      "🐻": 346,
      "🐼": 347,
      "🐾": 348,
      "👀": 349,
      "👋": 350,
      "👌": 351,
      "👍": 352,
      "👏": 353,
      "👑": 354,
      "👧": 355,
      "👩": 356,
      "👮": 357,
      "👯": 358,
      "👱": 359,
      "👴": 360,
      "👶": 361,
      "👸": 362,
      "👹": 363,
      "👺": 364,
      "👻": 365,
      "👼": 366,
      "👽": 367,
      "💀": 368,
      "💁": 369,
      "💃": 370,
      "💄": 371,
      "💇": 372,
      "💊": 373,
      "💋": 374,
      "💑": 375,
      "💒": 376,
      "💓": 377,
      "💔": 378,
      "💕": 379,
      "💖": 380,
      "💗": 381,
      "💙": 382,
      "💚": 383,
      "💛": 384,
      "💜": 385,
      "💞": 386,
      "💣": 387,
      "💤": 388,
      "💥": 389,
      "💦": 390,
      "💩": 391,
      "💪": 392,
      "💯": 393,
      "💵": 394,
      "💶": 395,
      "💸": 396,
      "📜": 397,
      "📺": 398,
      "🔑": 399,
      "🔝": 400,
      "🔥": 401,
      "🔫": 402,
      "🔴": 403,
      "🕵": 404,
      "🕷": 405,
      "🖐": 406,
      "🖕": 407,
      "🖤": 408,
      "🗺": 409,
      "😀": 410,
      "😁": 411,
      "😂": 412,
      "😃": 413,
      "😄": 414,
      "😅": 415,
      "😆": 416,
      "😇": 417,
      "😈": 418,
      "😉": 419,
      "😊": 420,
      "😋": 421,
      "😌": 422,
      "😍": 423,
      "😎": 424,
      "😏": 425,
      "😐": 426,
      "😑": 427,
      "😒": 428,
      "😓": 429,
      "😔": 430,
      "😕": 431,
      "😖": 432,
      "😗": 433,
      "😘": 434,
      "😙": 435,
      "😚": 436,
      "😛": 437,
      "😜": 438,
      "😝": 439,
      "😞": 440,
      "😟": 441,
      "😠": 442,
      "😡": 443,
      "😢": 444,
      "😣": 445,
      "😤": 446,
      "😥": 447,
      "😧": 448,
      "😨": 449,
      "😩": 450,
      "😪": 451,
      "😫": 452,
      "😬": 453,
      "😭": 454,
      "😮": 455,
      "😯": 456,
      "😰": 457,
      "😱": 458,
      "😲": 459,
      "😳": 460,
      "😴": 461,
      "😵": 462,
      "😶": 463,
      "😷": 464,
      "😸": 465,
      "😹": 466,
      "😺": 467,
      "😻": 468,
      "😼": 469,
      "😽": 470,
      "🙀": 471,
      "🙁": 472,
      "🙂": 473,
      "🙃": 474,
      "🙄": 475,
      "🙆": 476,
      "🙇": 477,
      "🙈": 478,
      "🙉": 479,
      "🙊": 480,
      "🙋": 481,
      "🙌": 482,
      "🙍": 483,
      "🙎": 484,
      "🙏": 485,
      "🚀": 486,
      "🚣": 487,
      "🚬": 488,
      "🚱": 489,
      "🛌": 490,
      "🤐": 491,
      "🤑": 492,
      "🤒": 493,
      "🤓": 494,
      "🤔": 495,
      "🤕": 496,
      "🤖": 497,
      "🤗": 498,
      "🤘": 499,
      "🤙": 500,
      "🤝": 501,
      "🤞": 502,
      "🤟": 503,
      "🤡": 504,
      "🤢": 505,
      "🤣": 506,
      "🤤": 507,
      "🤦": 508,
      "🤧": 509,
      "🤨": 510,
      "🤩": 511,
      "🤪": 512,
      "🤫": 513,
      "🤬": 514,
      "🤭": 515,
      "🤮": 516,
      "🤯": 517,
      "🤴": 518,
      "🤵": 519,
      "🤷": 520,
      "🤸": 521,
      "🤼": 522,
      "🥁": 523,
      "🥂": 524,
      "🥃": 525,
      "🥇": 526,
      "🥒": 527,
      "🥕": 528,
      "🥗": 529,
      "🥝": 530,
      "🥞": 531,
      "🥪": 532,
      "🥰": 533,
      "🥳": 534,
      "🥵": 535,
      "🥶": 536,
      "🦄": 537,
      "🦊": 538,
      "🦌": 539,
      "🦐": 540,
      "🧒": 541,
      "🧓": 542,
      "🧘": 543,
      "🧙": 544,
      "🧡": 545,
      "🧺": 546,
      "th": 547,
      "an": 548,
      "in": 549,
      "ou": 550,
      "re": 551,
      "the": 552,
      "to": 553,
      "at": 554,
      "on": 555,
      "er": 556,
      "ll": 557,
      "me": 558,
      "is": 559,
      "it": 560,
      "ing": 561,
      "you": 562,
      "or": 563,
      "ar": 564,
      "he": 565,
      "st": 566,
      "le": 567,
      "and": 568,
      "ha": 569,
      "en": 570,
      "no": 571,
      "be": 572,
      "ve": 573,
      "se": 574,
      "ay": 575,
      "ic": 576,
      "as": 577,
      "so": 578,
      "wi": 579,
      "ke": 580,
      "we": 581,
      "ro": 582,
      "es": 583,
      "li": 584,
      "ho": 585,
      "go": 586,
      "al": 587,
      "for": 588,
      "ed": 589,
      "ac": 590,
      "id": 591,
      "ne": 592,
      "bu": 593,
      "of": 594,
      "et": 595,
      "all": 596,
      "lo": 597,
      "that": 598,
      "wh": 599,
      "do": 600,
      "are": 601,
      "..": 602,
      "ch": 603,
      "am": 604,
      "co": 605,
      "ad": 606,
      "gh": 607,
      "will": 608,
      "ld": 609,
      "ri": 610,
      "ok": 611,
      "su": 612,
      "ly": 613,
      "ab": 614,
      "ti": 615,
      "now": 616,
      "but": 617,
      "have": 618,
      "out": 619,
      "ver": 620,
      "what": 621,
      "can": 622,
      "ry": 623,
      "ju": 624,
      "ght": 625,
      "ie": 626,
      "one": 627,
      "la": 628,
      "with": 629,
      "my": 630,
      "not": 631,
      "day": 632,
      "jo": 633,
      "mar": 634,
      "some": 635,
      "ould": 636,
      "im": 637,
      "ir": 638,
      "mo": 639,
      "ye": 640,
      "she": 641,
      "te": 642,
      "know": 643,
      "na": 644,
      "don": 645,
      "ter": 646,
      "ma": 647,
      "ge": 648,
      "was": 649,
      "ant": 650,
      "if": 651,
      "od": 652,
      "her": 653,
      "thing": 654,
      "sh": 655,
      "de": 656,
      "just": 657,
      "ah": 658,
      "ally": 659,
      "un": 660,
      "fe": 661,
      "ther": 662,
      "they": 663,
      "ink": 664,
      "any": 665,
      "about": 666,
      "like": 667,
      "au": 668,
      "ate": 669,
      "wor": 670,
      "end": 671,
      "this": 672,
      "ra": 673,
      "pe": 674,
      "there": 675,
      "than": 676,
      "ia": 677,
      "whe": 678,
      "fi": 679,
      "pp": 680,
      "how": 681,
      "ce": 682,
      "get": 683,
      "up": 684,
      "tom": 685,
      "ine": 686,
      "...": 687,
      "your": 688,
      "see": 689,
      "pl": 690,
      "ion": 691,
      "bo": 692,
      "think": 693,
      "ack": 694,
      "want": 695,
      "nt": 696,
      "time": 697,
      "mi": 698,
      "did": 699,
      "!!": 700,
      "ta": 701,
      "ice": 702,
      "our": 703,
      "ent": 704,
      "ick": 705,
      "sa": 706,
      "ill": 707,
      "ind": 708,
      "car": 709,
      "gre": 710,
      "ks": 711,
      "el": 712,
      "good": 713,
      "pro": 714,
      "lu": 715,
      "art": 716,
      "mu": 717,
      "nd": 718,
      "po": 719,
      "going": 720,
      "way": 721,
      "gu": 722,
      "very": 723,
      "ur": 724,
      "yes": 725,
      "ple": 726,
      "com": 727,
      ":)": 728,
      "yeah": 729,
      "ss": 730,
      "sure": 731,
      "need": 732,
      "rom": 733,
      "con": 734,
      "ber": 735,
      "ex": 736,
      "has": 737,
      "file": 738,
      "too": 739,
      "ga": 740,
      "ris": 741,
      "from": 742,
      "come": 743,
      "ck": 744,
      "work": 745,
      "ol": 746,
      "haha": 747,
      "per": 748,
      "got": 749,
      "hi": 750,
      "well": 751,
      "really": 752,
      "anna": 753,
      "row": 754,
      "file_": 755,
      "may": 756,
      "him": 757,
      "ru": 758,
      "his": 759,
      "would": 760,
      "new": 761,
      "che": 762,
      "ven": 763,
      "ound": 764,
      "let": 765,
      "ess": 766,
      "ard": 767,
      "ni": 768,
      "when": 769,
      "wee": 770,
      "pre": 771,
      "oh": 772,
      "meet": 773,
      "af": 774,
      "ide": 775,
      "us": 776,
      "mon": 777,
      "qu": 778,
      "by": 779,
      "ace": 780,
      "ny": 781,
      "other": 782,
      "them": 783,
      "thanks": 784,
      "red": 785,
      "il": 786,
      "br": 787,
      "then": 788,
      "right": 789,
      "ation": 790,
      "fr": 791,
      "look": 792,
      "should": 793,
      "ca": 794,
      "read": 795,
      "ct": 796,
      "orrow": 797,
      "ite": 798,
      "ph": 799,
      "fo": 800,
      "av": 801,
      "ty": 802,
      "ina": 803,
      "ble": 804,
      "gr": 805,
      "week": 806,
      "night": 807,
      "why": 808,
      "fu": 809,
      "ive": 810,
      "take": 811,
      "wa": 812,
      "tomorrow": 813,
      "act": 814,
      "ian": 815,
      "xt": 816,
      "pho": 817,
      "joh": 818,
      "more": 819,
      "sp": 820,
      "dan": 821,
      "great": 822,
      "back": 823,
      "hel": 824,
      "where": 825,
      "lie": 826,
      "bet": 827,
      "chris": 828,
      "home": 829,
      "had": 830,
      "pet": 831,
      "does": 832,
      "could": 833,
      "part": 834,
      "john": 835,
      "ja": 836,
      "love": 837,
      "much": 838,
      "every": 839,
      "cau": 840,
      "om": 841,
      "photo": 842,
      "tal": 843,
      "after": 844,
      "ste": 845,
      "ong": 846,
      "off": 847,
      "maybe": 848,
      "sor": 849,
      "happ": 850,
      "lly": 851,
      "hey": 852,
      "today": 853,
      "cause": 854,
      "ous": 855,
      "king": 856,
      "something": 857,
      "been": 858,
      "man": 859,
      "who": 860,
      "sed": 861,
      "je": 862,
      "wo": 863,
      "lis": 864,
      "wait": 865,
      "ale": 866,
      "make": 867,
      "ment": 868,
      "mat": 869,
      "ts": 870,
      "pa": 871,
      "ig": 872,
      "ough": 873,
      "call": 874,
      "say": 875,
      "jan": 876,
      "ked": 877,
      "ann": 878,
      "last": 879,
      "ff": 880,
      "pau": 881,
      "sam": 882,
      "wn": 883,
      "min": 884,
      "next": 885,
      "still": 886,
      "kate": 887,
      "der": 888,
      "won": 889,
      "ica": 890,
      "here": 891,
      "even": 892,
      "sorry": 893,
      "??": 894,
      "cy": 895,
      "ys": 896,
      "ara": 897,
      "mber": 898,
      "ut": 899,
      "ready": 900,
      "because": 901,
      "fri": 902,
      "didn": 903,
      "buy": 904,
      "wat": 905,
      "ep": 906,
      "fin": 907,
      "tell": 908,
      "ought": 909,
      "year": 910,
      "pat": 911,
      "lia": 912,
      "ers": 913,
      "friend": 914,
      "help": 915,
      "cho": 916,
      "place": 917,
      "jack": 918,
      "sto": 919,
      "mary": 920,
      "stu": 921,
      "cl": 922,
      "lol": 923,
      ";)": 924,
      "try": 925,
      "ass": 926,
      "ast": 927,
      "peter": 928,
      "ure": 929,
      "oo": 930,
      "son": 931,
      "ag": 932,
      "mes": 933,
      "tion": 934,
      "nice": 935,
      "able": 936,
      "file_photo": 937,
      "jen": 938,
      "ich": 939,
      "fran": 940,
      "alex": 941,
      "dy": 942,
      "lot": 943,
      "ting": 944,
      "mike": 945,
      "tr": 946,
      "ving": 947,
      "mis": 948,
      "har": 949,
      "over": 950,
      "lat": 951,
      "were": 952,
      "rest": 953,
      "feel": 954,
      "only": 955,
      "wants": 956,
      "ople": 957,
      "ish": 958,
      "people": 959,
      "paul": 960,
      "char": 961,
      "aga": 962,
      "ser": 963,
      "ning": 964,
      "ley": 965,
      "ci": 966,
      "coming": 967,
      "doesn": 968,
      "lf": 969,
      "cu": 970,
      "tha": 971,
      "du": 972,
      "ans": 973,
      "sy": 974,
      "better": 975,
      "mm": 976,
      "sho": 977,
      "ase": 978,
      "give": 979,
      "ben": 980,
      "bit": 981,
      "bro": 982,
      "talk": 983,
      "ways": 984,
      "thank": 985,
      "em": 986,
      "mark": 987,
      "mor": 988,
      "send": 989,
      "ies": 990,
      "fir": 991,
      "proble": 992,
      "find": 993,
      "cou": 994,
      "tra": 995,
      "again": 996,
      "problem": 997,
      "ange": 998,
      "bar": 999,
      "pm": 1000,
      "ity": 1001,
      "gan": 1002,
      "anything": 1003,
      "dis": 1004,
      "already": 1005,
      "hell": 1006,
      "mic": 1007,
      "da": 1008,
      "andy": 1009,
      "fore": 1010,
      "app": 1011,
      "late": 1012,
      "tonight": 1013,
      "party": 1014,
      "start": 1015,
      "book": 1016,
      "les": 1017,
      "vin": 1018,
      "ask": 1019,
      "ach": 1020,
      "mad": 1021,
      "fine": 1022,
      "play": 1023,
      "ort": 1024,
      "hope": 1025,
      "bre": 1026,
      "oli": 1027,
      "bab": 1028,
      "vis": 1029,
      "always": 1030,
      "fun": 1031,
      "guys": 1032,
      "long": 1033,
      "ary": 1034,
      "also": 1035,
      "ell": 1036,
      "tor": 1037,
      "di": 1038,
      "ason": 1039,
      "mean": 1040,
      "please": 1041,
      "ster": 1042,
      "watch": 1043,
      "fre": 1044,
      "jane": 1045,
      "cool": 1046,
      "dre": 1047,
      "irl": 1048,
      "their": 1049,
      "10": 1050,
      "dr": 1051,
      "gif": 1052,
      "sound": 1053,
      "int": 1054,
      "xd": 1055,
      "lit": 1056,
      "cour": 1057,
      "idea": 1058,
      "ger": 1059,
      "lau": 1060,
      "girl": 1061,
      "ner": 1062,
      "pen": 1063,
      "happen": 1064,
      "before": 1065,
      "first": 1066,
      "stay": 1067,
      "around": 1068,
      "ev": 1069,
      "ang": 1070,
      "tim": 1071,
      "bring": 1072,
      "days": 1073,
      "never": 1074,
      "vi": 1075,
      "ten": 1076,
      "tle": 1077,
      "hour": 1078,
      "thought": 1079,
      "jim": 1080,
      "check": 1081,
      "its": 1082,
      "via": 1083,
      "!!!": 1084,
      "tru": 1085,
      "soon": 1086,
      "reme": 1087,
      "guess": 1088,
      "wr": 1089,
      "course": 1090,
      "lind": 1091,
      "len": 1092,
      "30": 1093,
      "pr": 1094,
      ":(": 1095,
      "bad": 1096,
      "okay": 1097,
      "yet": 1098,
      "meeting": 1099,
      "care": 1100,
      "ba": 1101,
      "ka": 1102,
      "iz": 1103,
      "sha": 1104,
      "which": 1105,
      "oney": 1106,
      "sent": 1107,
      "ren": 1108,
      "most": 1109,
      "rick": 1110,
      "later": 1111,
      "doing": 1112,
      "weekend": 1113,
      "spe": 1114,
      "pare": 1115,
      "ful": 1116,
      "self": 1117,
      "sar": 1118,
      "adam": 1119,
      "jess": 1120,
      "pic": 1121,
      "tri": 1122,
      "pu": 1123,
      "pick": 1124,
      "ose": 1125,
      "anne": 1126,
      "sounds": 1127,
      "ob": 1128,
      "job": 1129,
      "happy": 1130,
      "ash": 1131,
      "vic": 1132,
      "geor": 1133,
      "mom": 1134,
      "sarah": 1135,
      "lea": 1136,
      "frank": 1137,
      "tic": 1138,
      "que": 1139,
      "bert": 1140,
      "emi": 1141,
      "remember": 1142,
      "ses": 1143,
      "same": 1144,
      "old": 1145,
      "par": 1146,
      "sat": 1147,
      "anda": 1148,
      "ms": 1149,
      "two": 1150,
      "ually": 1151,
      "frid": 1152,
      "everything": 1153,
      "ise": 1154,
      "best": 1155,
      "danie": 1156,
      "down": 1157,
      "fa": 1158,
      "gg": 1159,
      "cor": 1160,
      "andre": 1161,
      "gon": 1162,
      "james": 1163,
      "josh": 1164,
      "rob": 1165,
      "hu": 1166,
      "month": 1167,
      "christ": 1168,
      "dav": 1169,
      "isa": 1170,
      "though": 1171,
      "ak": 1172,
      "ft": 1173,
      "matt": 1174,
      "nor": 1175,
      "vie": 1176,
      "jake": 1177,
      "din": 1178,
      "might": 1179,
      "ps": 1180,
      "looking": 1181,
      "scho": 1182,
      "told": 1183,
      "kid": 1184,
      "emma": 1185,
      "seen": 1186,
      "ton": 1187,
      "gonna": 1188,
      "bir": 1189,
      "mas": 1190,
      "mind": 1191,
      "lor": 1192,
      "lan": 1193,
      "ious": 1194,
      "david": 1195,
      "liz": 1196,
      "rent": 1197,
      "greg": 1198,
      "jac": 1199,
      "wed": 1200,
      "actually": 1201,
      "ily": 1202,
      "school": 1203,
      "nat": 1204,
      "room": 1205,
      "nothing": 1206,
      "ile": 1207,
      "hen": 1208,
      "harry": 1209,
      "kind": 1210,
      "sim": 1211,
      "kim": 1212,
      "join": 1213,
      "friday": 1214,
      "inv": 1215,
      "dad": 1216,
      "morning": 1217,
      "visit": 1218,
      "bill": 1219,
      "dif": 1220,
      "nick": 1221,
      "went": 1222,
      "tur": 1223,
      "ona": 1224,
      "xx": 1225,
      "file_gif": 1226,
      "monica": 1227,
      "little": 1228,
      "said": 1229,
      "ted": 1230,
      "show": 1231,
      "yester": 1232,
      "dec": 1233,
      "cer": 1234,
      "clo": 1235,
      "inte": 1236,
      "fred": 1237,
      "ody": 1238,
      "yesterday": 1239,
      "ding": 1240,
      "utes": 1241,
      ":-": 1242,
      "cle": 1243,
      "lla": 1244,
      "gether": 1245,
      "carol": 1246,
      "linda": 1247,
      "ear": 1248,
      "io": 1249,
      "ouse": 1250,
      "together": 1251,
      "minutes": 1252,
      "george": 1253,
      "aren": 1254,
      "under": 1255,
      "keep": 1256,
      "probab": 1257,
      "ken": 1258,
      "alice": 1259,
      "tty": 1260,
      "max": 1261,
      "file_other": 1262,
      "daniel": 1263,
      "probably": 1264,
      "20": 1265,
      "ow": 1266,
      "ap": 1267,
      "san": 1268,
      "mum": 1269,
      "few": 1270,
      "count": 1271,
      "joe": 1272,
      "interest": 1273,
      "hael": 1274,
      "hahaha": 1275,
      "cre": 1276,
      "laura": 1277,
      "fect": 1278,
      "lar": 1279,
      "things": 1280,
      "eat": 1281,
      "inter": 1282,
      "land": 1283,
      "wanna": 1284,
      "big": 1285,
      "cat": 1286,
      "getting": 1287,
      "emily": 1288,
      "mart": 1289,
      "free": 1290,
      "birth": 1291,
      "supp": 1292,
      "waiting": 1293,
      "thy": 1294,
      "needs": 1295,
      "drink": 1296,
      "done": 1297,
      "house": 1298,
      "soph": 1299,
      "os": 1300,
      "stand": 1301,
      "lucy": 1302,
      "many": 1303,
      "money": 1304,
      "nes": 1305,
      "wanted": 1306,
      "martha": 1307,
      "satur": 1308,
      "jenny": 1309,
      "sin": 1310,
      "sur": 1311,
      "med": 1312,
      "pay": 1313,
      "bri": 1314,
      "thinking": 1315,
      "haven": 1316,
      "ama": 1317,
      "working": 1318,
      "ire": 1319,
      "ward": 1320,
      "quite": 1321,
      "ric": 1322,
      "julia": 1323,
      "heard": 1324,
      "less": 1325,
      "saturday": 1326,
      "port": 1327,
      "joy": 1328,
      "left": 1329,
      "birthday": 1330,
      "den": 1331,
      "?!": 1332,
      "line": 1333,
      "ya": 1334,
      "dinner": 1335,
      "rive": 1336,
      "cent": 1337,
      "dar": 1338,
      "men": 1339,
      "mia": 1340,
      "exact": 1341,
      "sue": 1342,
      "ron": 1343,
      "hanna": 1344,
      "....": 1345,
      "stuff": 1346,
      "ky": 1347,
      "bob": 1348,
      "rac": 1349,
      "saw": 1350,
      "lisa": 1351,
      "olivia": 1352,
      "ever": 1353,
      "sit": 1354,
      "cam": 1355,
      "lle": 1356,
      "leave": 1357,
      "sis": 1358,
      "age": 1359,
      "happened": 1360,
      "beth": 1361,
      "perfect": 1362,
      "maria": 1363,
      "luke": 1364,
      "phone": 1365,
      "tina": 1366,
      "fuck": 1367,
      "jeff": 1368,
      "ance": 1369,
      "friends": 1370,
      "exactly": 1371,
      "wal": 1372,
      "ild": 1373,
      "michael": 1374,
      "agre": 1375,
      "zy": 1376,
      "aa": 1377,
      "sle": 1378,
      "ture": 1379,
      "side": 1380,
      "bor": 1381,
      "sun": 1382,
      "hear": 1383,
      "fam": 1384,
      "eve": 1385,
      "pretty": 1386,
      "body": 1387,
      "cas": 1388,
      "dor": 1389,
      "food": 1390,
      "hello": 1391,
      "found": 1392,
      "steve": 1393,
      "bl": 1394,
      "anyway": 1395,
      "fli": 1396,
      "ancy": 1397,
      "belie": 1398,
      "someone": 1399,
      "ticke": 1400,
      "dian": 1401,
      "christmas": 1402,
      "looks": 1403,
      "true": 1404,
      "jacob": 1405,
      "nu": 1406,
      "henry": 1407,
      "die": 1408,
      "tu": 1409,
      "wow": 1410,
      "made": 1411,
      "robert": 1412,
      "office": 1413,
      "luck": 1414,
      "gina": 1415,
      "having": 1416,
      "busy": 1417,
      "kelly": 1418,
      "quest": 1419,
      "use": 1420,
      "comp": 1421,
      "andra": 1422,
      "amy": 1423,
      "miss": 1424,
      "lt": 1425,
      "sid": 1426,
      "else": 1427,
      "ip": 1428,
      "dress": 1429,
      "andrew": 1430,
      "shit": 1431,
      "lad": 1432,
      "such": 1433,
      "another": 1434,
      "live": 1435,
      "acy": 1436,
      "ava": 1437,
      "worry": 1438,
      "cra": 1439,
      "parent": 1440,
      "believe": 1441,
      "dam": 1442,
      "into": 1443,
      "life": 1444,
      "evening": 1445,
      "ee": 1446,
      "tt": 1447,
      "war": 1448,
      "forgot": 1449,
      "dont": 1450,
      "guy": 1451,
      "tori": 1452,
      ":/": 1453,
      "nie": 1454,
      "helen": 1455,
      "phi": 1456,
      "both": 1457,
      "hannah": 1458,
      "karen": 1459,
      "times": 1460,
      "tre": 1461,
      "jam": 1462,
      "serious": 1463,
      "susan": 1464,
      "hard": 1465,
      "away": 1466,
      "vide": 1467,
      "air": 1468,
      "parents": 1469,
      "game": 1470,
      "class": 1471,
      "years": 1472,
      "fer": 1473,
      "amanda": 1474,
      "turn": 1475,
      "des": 1476,
      "plan": 1477,
      "swe": 1478,
      "zo": 1479,
      "ated": 1480,
      "put": 1481,
      "bought": 1482,
      "lin": 1483,
      "15": 1484,
      "zing": 1485,
      "sleep": 1486,
      "um": 1487,
      "diffe": 1488,
      "head": 1489,
      "pping": 1490,
      "rachel": 1491,
      "00": 1492,
      "ject": 1493,
      "mend": 1494,
      "set": 1495,
      "ita": 1496,
      "lou": 1497,
      "mp": 1498,
      "martin": 1499,
      "ible": 1500,
      "jason": 1501,
      "those": 1502,
      "eric": 1503,
      "offe": 1504,
      "unch": 1505,
      "rose": 1506,
      "omg": 1507,
      "ago": 1508,
      "recom": 1509,
      "these": 1510,
      "everyone": 1511,
      "must": 1512,
      "jessica": 1513,
      "text": 1514,
      "recommend": 1515,
      "eas": 1516,
      "ana": 1517,
      "far": 1518,
      "change": 1519,
      "za": 1520,
      "kevin": 1521,
      "cla": 1522,
      "!!!!": 1523,
      "cont": 1524,
      "win": 1525,
      "dave": 1526,
      "number": 1527,
      "ating": 1528,
      "date": 1529,
      "family": 1530,
      "op": 1531,
      "while": 1532,
      "flo": 1533,
      "jose": 1534,
      "move": 1535,
      "barb": 1536,
      "post": 1537,
      "kids": 1538,
      "ign": 1539,
      "ier": 1540,
      "gest": 1541,
      "ations": 1542,
      "rich": 1543,
      "enjoy": 1544,
      "train": 1545,
      "gy": 1546,
      "stop": 1547,
      "stre": 1548,
      "ele": 1549,
      "enough": 1550,
      "hours": 1551,
      "sara": 1552,
      "worri": 1553,
      "ited": 1554,
      "lyn": 1555,
      "mr": 1556,
      "rence": 1557,
      "isn": 1558,
      "least": 1559,
      "mine": 1560,
      "vers": 1561,
      "nancy": 1562,
      "ney": 1563,
      "mail": 1564,
      "net": 1565,
      "sophie": 1566,
      "cha": 1567,
      "aron": 1568,
      "ither": 1569,
      "sick": 1570,
      "sug": 1571,
      "patrick": 1572,
      ":*": 1573,
      "gab": 1574,
      "nic": 1575,
      "cook": 1576,
      "picture": 1577,
      "wer": 1578,
      "amazing": 1579,
      "key": 1580,
      "movie": 1581,
      "trip": 1582,
      "jay": 1583,
      "thom": 1584,
      "understand": 1585,
      "clu": 1586,
      "tony": 1587,
      "each": 1588,
      "present": 1589,
      "eva": 1590,
      "kat": 1591,
      "exam": 1592,
      "tickets": 1593,
      "coffe": 1594,
      "thur": 1595,
      "sally": 1596,
      "different": 1597,
      "mall": 1598,
      "str": 1599,
      "paula": 1600,
      "ist": 1601,
      "person": 1602,
      "ction": 1603,
      "unti": 1604,
      "seems": 1605,
      "pris": 1606,
      "name": 1607,
      "bye": 1608,
      "lunch": 1609,
      "sandra": 1610,
      "bella": 1611,
      "charlie": 1612,
      "being": 1613,
      "watching": 1614,
      "ler": 1615,
      "ather": 1616,
      "oup": 1617,
      "brian": 1618,
      "betty": 1619,
      "weeks": 1620,
      "once": 1621,
      "ryan": 1622,
      "patric": 1623,
      "since": 1624,
      "coffee": 1625,
      "order": 1626,
      "video": 1627,
      "plann": 1628,
      "hmm": 1629,
      "ital": 1630,
      "yep": 1631,
      "erry": 1632,
      "thomas": 1633,
      "sk": 1634,
      "ence": 1635,
      "anyone": 1636,
      "toria": 1637,
      "ions": 1638,
      "run": 1639,
      "patricia": 1640,
      "ctor": 1641,
      "leo": 1642,
      "break": 1643,
      "hed": 1644,
      "nata": 1645,
      "diana": 1646,
      "usu": 1647,
      "whole": 1648,
      "own": 1649,
      "shopping": 1650,
      "open": 1651,
      "talking": 1652,
      "wonder": 1653,
      "awe": 1654,
      "sive": 1655,
      "poss": 1656,
      "ot": 1657,
      "test": 1658,
      "bed": 1659,
      "suggest": 1660,
      "ling": 1661,
      "town": 1662,
      "agree": 1663,
      "zoe": 1664,
      "form": 1665,
      "rough": 1666,
      "cial": 1667,
      "ank": 1668,
      "victoria": 1669,
      "plans": 1670,
      "called": 1671,
      ":-)": 1672,
      "took": 1673,
      "noah": 1674,
      "project": 1675,
      "gi": 1676,
      "bru": 1677,
      "oked": 1678,
      "piz": 1679,
      "wish": 1680,
      "girls": 1681,
      "gen": 1682,
      "ald": 1683,
      "hand": 1684,
      "used": 1685,
      "ket": 1686,
      "defin": 1687,
      "icu": 1688,
      "bs": 1689,
      "sth": 1690,
      "lucas": 1691,
      "dia": 1692,
      "simon": 1693,
      "awesome": 1694,
      "blo": 1695,
      "lic": 1696,
      "beau": 1697,
      "until": 1698,
      "top": 1699,
      "oscar": 1700,
      "ison": 1701,
      "loe": 1702,
      "vo": 1703,
      "almost": 1704,
      "ces": 1705,
      "wear": 1706,
      "asked": 1707,
      "fiona": 1708,
      "surpris": 1709,
      "iam": 1710,
      "case": 1711,
      "ella": 1712,
      "mate": 1713,
      "super": 1714,
      "terry": 1715,
      "spend": 1716,
      "aw": 1717,
      "dd": 1718,
      "hun": 1719,
      "cond": 1720,
      "grace": 1721,
      "sweet": 1722,
      "met": 1723,
      "liam": 1724,
      "cked": 1725,
      "res": 1726,
      "real": 1727,
      "sunday": 1728,
      "val": 1729,
      "pizza": 1730,
      "kar": 1731,
      "stan": 1732,
      "pt": 1733,
      "att": 1734,
      "boy": 1735,
      "si": 1736,
      "chloe": 1737,
      "without": 1738,
      "expen": 1739,
      "ones": 1740,
      "lily": 1741,
      "william": 1742,
      "mel": 1743,
      "works": 1744,
      "pect": 1745,
      "lish": 1746,
      "tw": 1747,
      "brad": 1748,
      "cal": 1749,
      "city": 1750,
      "ethan": 1751,
      "couple": 1752,
      "through": 1753,
      "gail": 1754,
      "hate": 1755,
      "ror": 1756,
      "sing": 1757,
      "holi": 1758,
      "dog": 1759,
      "fav": 1760,
      "news": 1761,
      "wasn": 1762,
      "trying": 1763,
      "flight": 1764,
      "hor": 1765,
      "god": 1766,
      "pete": 1767,
      "definite": 1768,
      "feeling": 1769,
      "likes": 1770,
      "concer": 1771,
      "prepare": 1772,
      "ggie": 1773,
      "taking": 1774,
      "???": 1775,
      "funny": 1776,
      "wrong": 1777,
      "ins": 1778,
      "mother": 1779,
      "osed": 1780,
      "definitely": 1781,
      "months": 1782,
      "sean": 1783,
      "helle": 1784,
      "interesting": 1785,
      "supposed": 1786,
      "claire": 1787,
      "12": 1788,
      "dri": 1789,
      "ashley": 1790,
      "sal": 1791,
      "half": 1792,
      "megan": 1793,
      "noon": 1794,
      "julie": 1795,
      "came": 1796,
      "write": 1797,
      "sister": 1798,
      "hair": 1799,
      "monday": 1800,
      "kit": 1801,
      "charles": 1802,
      "lena": 1803,
      "thinks": 1804,
      "aving": 1805,
      "alan": 1806,
      "point": 1807,
      "arrive": 1808,
      "asses": 1809,
      "deal": 1810,
      "phil": 1811,
      "expensive": 1812,
      "sie": 1813,
      "endy": 1814,
      "joseph": 1815,
      "abi": 1816,
      "leaving": 1817,
      "bus": 1818,
      "organ": 1819,
      "group": 1820,
      "nina": 1821,
      "colle": 1822,
      "eu": 1823,
      "jill": 1824,
      "ssed": 1825,
      "wine": 1826,
      "fort": 1827,
      "child": 1828,
      "high": 1829,
      "fast": 1830,
      "chang": 1831,
      "finish": 1832,
      "michelle": 1833,
      "beer": 1834,
      "started": 1835,
      "iting": 1836,
      "listen": 1837,
      "view": 1838,
      "ame": 1839,
      "cks": 1840,
      "wouldn": 1841,
      "juli": 1842,
      "barbara": 1843,
      "sen": 1844,
      "wendy": 1845,
      "tired": 1846,
      "grand": 1847,
      "agnes": 1848,
      "eng": 1849,
      "rible": 1850,
      "face": 1851,
      "mit": 1852,
      "ross": 1853,
      "rie": 1854,
      "expect": 1855,
      "says": 1856,
      "baby": 1857,
      "caroline": 1858,
      "lost": 1859,
      "company": 1860,
      "dur": 1861,
      "raid": 1862,
      "hh": 1863,
      "myself": 1864,
      "partment": 1865,
      "glad": 1866,
      "cold": 1867,
      "antha": 1868,
      "tely": 1869,
      "ils": 1870,
      "samantha": 1871,
      "jenn": 1872,
      "oliver": 1873,
      "pass": 1874,
      "mmer": 1875,
      "cur": 1876,
      "ole": 1877,
      "mus": 1878,
      "bas": 1879,
      "mer": 1880,
      "vice": 1881,
      "llie": 1882,
      "igh": 1883,
      "nathan": 1884,
      "maya": 1885,
      "victor": 1886,
      "rant": 1887,
      "black": 1888,
      "easy": 1889,
      "planning": 1890,
      "possible": 1891,
      "clean": 1892,
      "doro": 1893,
      "drive": 1894,
      "ree": 1895,
      "hes": 1896,
      "afraid": 1897,
      "mir": 1898,
      "ola": 1899,
      "sco": 1900,
      "reci": 1901,
      "roy": 1902,
      "doctor": 1903,
      "study": 1904,
      "lee": 1905,
      "shop": 1906,
      "ifer": 1907,
      "dear": 1908,
      "marg": 1909,
      "tel": 1910,
      "natalie": 1911,
      "during": 1912,
      "bi": 1913,
      "vel": 1914,
      "couldn": 1915,
      "jerry": 1916,
      "ze": 1917,
      "cannot": 1918,
      "ird": 1919,
      "bla": 1920,
      "dou": 1921,
      "det": 1922,
      "lip": 1923,
      "alright": 1924,
      "aret": 1925,
      "ball": 1926,
      "arch": 1927,
      "early": 1928,
      "beauti": 1929,
      "van": 1930,
      "uni": 1931,
      "anymore": 1932,
      "gin": 1933,
      "isy": 1934,
      "tried": 1935,
      "thurs": 1936,
      "donna": 1937,
      "playing": 1938,
      "online": 1939,
      "wedding": 1940,
      "decid": 1941,
      "cus": 1942,
      "bur": 1943,
      "ds": 1944,
      "ates": 1945,
      "broke": 1946,
      "richard": 1947,
      "small": 1948,
      "lilly": 1949,
      "near": 1950,
      "joan": 1951,
      "interested": 1952,
      "ched": 1953,
      "oooo": 1954,
      "jor": 1955,
      "wel": 1956,
      "jennifer": 1957,
      "nope": 1958,
      "second": 1959,
      "asking": 1960,
      "finally": 1961,
      "aurant": 1962,
      "walk": 1963,
      "ila": 1964,
      "restaurant": 1965,
      "kris": 1966,
      "lon": 1967,
      "ical": 1968,
      "cine": 1969,
      "dent": 1970,
      "thew": 1971,
      "beautiful": 1972,
      "molly": 1973,
      "appo": 1974,
      "afternoon": 1975,
      "hur": 1976,
      "till": 1977,
      "ruth": 1978,
      "email": 1979,
      "vick": 1980,
      "exc": 1981,
      "margaret": 1982,
      "rid": 1983,
      "lain": 1984,
      "als": 1985,
      "summer": 1986,
      "maggie": 1987,
      "dorothy": 1988,
      "ith": 1989,
      "forget": 1990,
      "making": 1991,
      "abigail": 1992,
      "amelia": 1993,
      "fan": 1994,
      "acc": 1995,
      "crazy": 1996,
      "inst": 1997,
      "ves": 1998,
      "rain": 1999,
      "tracy": 2000,
      "honey": 2001,
      "thx": 2002,
      "thats": 2003,
      "cost": 2004,
      "contact": 2005,
      "annie": 2006,
      "11": 2007,
      "dude": 2008,
      "concert": 2009,
      "either": 2010,
      "spo": 2011,
      "team": 2012,
      "jackie": 2013,
      "gabri": 2014,
      "vor": 2015,
      "yo": 2016,
      "meg": 2017,
      "yourself": 2018,
      "dro": 2019,
      "kyle": 2020,
      "gary": 2021,
      "tally": 2022,
      "lear": 2023,
      "daisy": 2024,
      "alone": 2025,
      "brother": 2026,
      "liked": 2027,
      "ments": 2028,
      "messa": 2029,
      "thursday": 2030,
      "lling": 2031,
      "marie": 2032,
      "import": 2033,
      "promis": 2034,
      "cr": 2035,
      "june": 2036,
      "joanna": 2037,
      "gue": 2038,
      "-)": 2039,
      "world": 2040,
      "appoint": 2041,
      "ced": 2042,
      "ral": 2043,
      "sty": 2044,
      "classes": 2045,
      "kay": 2046,
      "weather": 2047,
      "law": 2048,
      "totally": 2049,
      "ette": 2050,
      "lay": 2051,
      "song": 2052,
      "bel": 2053,
      "outside": 2054,
      "question": 2055,
      "ition": 2056,
      "ont": 2057,
      "boss": 2058,
      "ray": 2059,
      "station": 2060,
      "avail": 2061,
      "sad": 2062,
      "logan": 2063,
      "lovely": 2064,
      "important": 2065,
      "recent": 2066,
      "grat": 2067,
      "stead": 2068,
      "jimmy": 2069,
      "jamie": 2070,
      "bast": 2071,
      "ween": 2072,
      "close": 2073,
      "mid": 2074,
      "tv": 2075,
      "uel": 2076,
      "rece": 2077,
      "finis": 2078,
      "trans": 2079,
      "ellie": 2080,
      "pped": 2081,
      "upid": 2082,
      "flat": 2083,
      "ring": 2084,
      "stupid": 2085,
      "hasn": 2086,
      "gotta": 2087,
      "eli": 2088,
      "ery": 2089,
      "add": 2090,
      "mal": 2091,
      "somewhere": 2092,
      "cake": 2093,
      "angela": 2094,
      "special": 2095,
      "seriously": 2096,
      "sub": 2097,
      "exp": 2098,
      "peri": 2099,
      "worries": 2100,
      "decided": 2101,
      "jon": 2102,
      "rad": 2103,
      "season": 2104,
      "ident": 2105,
      "gra": 2106,
      "ouch": 2107,
      "cky": 2108,
      "cuss": 2109,
      "cinema": 2110,
      "suz": 2111,
      "imag": 2112,
      "ately": 2113,
      "wednes": 2114,
      "aaron": 2115,
      "makes": 2116,
      "lotte": 2117,
      "charlotte": 2118,
      "larry": 2119,
      "damn": 2120,
      "scar": 2121,
      "talked": 2122,
      "available": 2123,
      "band": 2124,
      "pack": 2125,
      "dead": 2126,
      "congrat": 2127,
      "music": 2128,
      "cri": 2129,
      "pri": 2130,
      "wis": 2131,
      "teac": 2132,
      "hone": 2133,
      "instead": 2134,
      "caron": 2135,
      "jere": 2136,
      "gar": 2137,
      "ved": 2138,
      "prof": 2139,
      "poor": 2140,
      "cute": 2141,
      "park": 2142,
      "pan": 2143,
      "hotel": 2144,
      "adri": 2145,
      "sometimes": 2146,
      "indy": 2147,
      "deta": 2148,
      "blu": 2149,
      "dra": 2150,
      "yea": 2151,
      "discuss": 2152,
      "solu": 2153,
      "moment": 2154,
      "event": 2155,
      "ize": 2156,
      "wednesday": 2157,
      "link": 2158,
      "inde": 2159,
      "light": 2160,
      "offer": 2161,
      "problems": 2162,
      "diff": 2163,
      "owen": 2164,
      "cli": 2165,
      "asha": 2166,
      "gets": 2167,
      "front": 2168,
      "tues": 2169,
      "low": 2170,
      "consid": 2171,
      "gave": 2172,
      "choose": 2173,
      "ons": 2174,
      "stin": 2175,
      "honest": 2176,
      "ul": 2177,
      "ade": 2178,
      "knows": 2179,
      "hm": 2180,
      "yup": 2181,
      "games": 2182,
      "prefer": 2183,
      "jean": 2184,
      "cel": 2185,
      "liza": 2186,
      "teacher": 2187,
      "account": 2188,
      "bon": 2189,
      "ight": 2190,
      "rather": 2191,
      "cele": 2192,
      "store": 2193,
      "books": 2194,
      "door": 2195,
      "main": 2196,
      "nda": 2197,
      "ges": 2198,
      "tory": 2199,
      "hosp": 2200,
      "whatever": 2201,
      "list": 2202,
      "water": 2203,
      "recently": 2204,
      "kill": 2205,
      "uu": 2206,
      "therine": 2207,
      "brand": 2208,
      "gift": 2209,
      "load": 2210,
      "apartment": 2211,
      "cis": 2212,
      "lier": 2213,
      "ki": 2214,
      "weird": 2215,
      "log": 2216,
      "shir": 2217,
      "tommy": 2218,
      "buying": 2219,
      "vious": 2220,
      "pend": 2221,
      "seeing": 2222,
      "matthew": 2223,
      "comes": 2224,
      "photos": 2225,
      "paper": 2226,
      "finished": 2227,
      "jas": 2228,
      "reason": 2229,
      "star": 2230,
      "comple": 2231,
      "worried": 2232,
      "euro": 2233,
      "usual": 2234,
      "50": 2235,
      "melis": 2236,
      "ham": 2237,
      "hahah": 2238,
      "club": 2239,
      "english": 2240,
      "manag": 2241,
      "nicole": 2242,
      "melissa": 2243,
      "table": 2244,
      "gym": 2245,
      "fil": 2246,
      "carl": 2247,
      "street": 2248,
      "difficu": 2249,
      "cindy": 2250,
      "rek": 2251,
      "sel": 2252,
      "catch": 2253,
      "details": 2254,
      "ali": 2255,
      "tain": 2256,
      "patty": 2257,
      "pub": 2258,
      "welcome": 2259,
      "hospital": 2260,
      "fit": 2261,
      "earlier": 2262,
      "tuesday": 2263,
      "becky": 2264,
      "deb": 2265,
      "longer": 2266,
      "vicky": 2267,
      "lled": 2268,
      "lying": 2269,
      "rebe": 2270,
      "holly": 2271,
      "mag": 2272,
      "jeremy": 2273,
      "three": 2274,
      "safe": 2275,
      "bart": 2276,
      "hop": 2277,
      "busin": 2278,
      "marri": 2279,
      "short": 2280,
      "box": 2281,
      "babe": 2282,
      "fair": 2283,
      "veron": 2284,
      "fix": 2285,
      "ruby": 2286,
      "ideas": 2287,
      "tay": 2288,
      "tie": 2289,
      "unk": 2290,
      "eliza": 2291,
      "board": 2292,
      "card": 2293,
      "clara": 2294,
      "dylan": 2295,
      "beat": 2296,
      "white": 2297,
      "invited": 2298,
      "blue": 2299,
      "smi": 2300,
      "remind": 2301,
      "road": 2302,
      "amber": 2303,
      "favour": 2304,
      "imagine": 2305,
      "ute": 2306,
      "asks": 2307,
      "cheap": 2308,
      "business": 2309,
      "cant": 2310,
      "difficult": 2311,
      "taylor": 2312,
      ";-)": 2313,
      "saying": 2314,
      "pictures": 2315,
      "pi": 2316,
      "neigh": 2317,
      "laure": 2318,
      "chedu": 2319,
      "syl": 2320,
      "brenda": 2321,
      "option": 2322,
      "ane": 2323,
      "gram": 2324,
      "fully": 2325,
      "essa": 2326,
      "danny": 2327,
      "watched": 2328,
      "boring": 2329,
      "steven": 2330,
      "missed": 2331,
      "price": 2332,
      "borrow": 2333,
      "derek": 2334,
      "knew": 2335,
      "yy": 2336,
      "ship": 2337,
      "children": 2338,
      "manage": 2339,
      "past": 2340,
      "cially": 2341,
      "ics": 2342,
      "angry": 2343,
      "trevor": 2344,
      "suggests": 2345,
      "learn": 2346,
      "veronica": 2347,
      "19": 2348,
      "gard": 2349,
      "goes": 2350,
      "chick": 2351,
      "pain": 2352,
      "katie": 2353,
      "london": 2354,
      "excited": 2355,
      "consider": 2356,
      "ain": 2357,
      "pam": 2358,
      "llow": 2359,
      "lots": 2360,
      "brit": 2361,
      "sophia": 2362,
      "audre": 2363,
      "clar": 2364,
      "theo": 2365,
      "ira": 2366,
      "holiday": 2367,
      "andrea": 2368,
      "chedule": 2369,
      "thes": 2370,
      "heal": 2371,
      "quick": 2372,
      "paid": 2373,
      "staying": 2374,
      "audrey": 2375,
      "cess": 2376,
      "nch": 2377,
      "thon": 2378,
      "hot": 2379,
      "col": 2380,
      "father": 2381,
      "toby": 2382,
      "forward": 2383,
      "matter": 2384,
      "answer": 2385,
      "boyfriend": 2386,
      "ralph": 2387,
      "share": 2388,
      "decide": 2389,
      "reading": 2390,
      "ooo": 2391,
      "drunk": 2392,
      "speak": 2393,
      "dun": 2394,
      "oc": 2395,
      "pas": 2396,
      "yu": 2397,
      "experi": 2398,
      "between": 2399,
      "feels": 2400,
      "invit": 2401,
      "ww": 2402,
      "ically": 2403,
      "etc": 2404,
      "cale": 2405,
      "xxx": 2406,
      "running": 2407,
      "sign": 2408,
      "leah": 2409,
      "chen": 2410,
      "ellen": 2411,
      "lucky": 2412,
      "inform": 2413,
      "leg": 2414,
      "lian": 2415,
      "series": 2416,
      "mandy": 2417,
      "aces": 2418,
      "absolu": 2419,
      "drinks": 2420,
      "accident": 2421,
      "cris": 2422,
      "tive": 2423,
      "lap": 2424,
      "worth": 2425,
      "steph": 2426,
      "indeed": 2427,
      "ford": 2428,
      "full": 2429,
      "clothes": 2430,
      "ii": 2431,
      "wall": 2432,
      "sebast": 2433,
      "ppy": 2434,
      "invite": 2435,
      "louis": 2436,
      "celebr": 2437,
      "ez": 2438,
      "por": 2439,
      "espe": 2440,
      "neither": 2441,
      "file_video": 2442,
      "loves": 2443,
      "shall": 2444,
      "fucking": 2445,
      "especially": 2446,
      "fact": 2447,
      "iv": 2448,
      "worse": 2449,
      "press": 2450,
      "student": 2451,
      "profess": 2452,
      "fant": 2453,
      "mess": 2454,
      "chance": 2455,
      "gone": 2456,
      "glor": 2457,
      "others": 2458,
      "usually": 2459,
      "cca": 2460,
      "advice": 2461,
      "notes": 2462,
      "dean": 2463,
      "cture": 2464,
      "girlfriend": 2465,
      "flix": 2466,
      "touch": 2467,
      "cop": 2468,
      "grab": 2469,
      "facebook": 2470,
      "message": 2471,
      "bag": 2472,
      "hang": 2473,
      "oper": 2474,
      "stanley": 2475,
      "driving": 2476,
      "miranda": 2477,
      "shar": 2478,
      "mil": 2479,
      "sort": 2480,
      "kimber": 2481,
      "cro": 2482,
      "gl": 2483,
      "uation": 2484,
      "hugh": 2485,
      "mention": 2486,
      "louise": 2487,
      "sebastian": 2488,
      "jes": 2489,
      "tan": 2490,
      "sex": 2491,
      "domin": 2492,
      "justin": 2493,
      "produ": 2494,
      "fish": 2495,
      "ffic": 2496,
      "writing": 2497,
      "kidding": 2498,
      "kinda": 2499,
      "internet": 2500,
      "airport": 2501,
      "surprise": 2502,
      "40": 2503,
      "pie": 2504,
      "wife": 2505,
      "sharon": 2506,
      "confir": 2507,
      "rory": 2508,
      "blake": 2509,
      "shoes": 2510,
      "wards": 2511,
      "changed": 2512,
      "scott": 2513,
      "bour": 2514,
      "youn": 2515,
      "stra": 2516,
      "keys": 2517,
      "word": 2518,
      "samuel": 2519,
      "😂😂": 2520,
      "bored": 2521,
      "elle": 2522,
      "appointment": 2523,
      "btw": 2524,
      "mason": 2525,
      "sky": 2526,
      "vies": 2527,
      "ada": 2528,
      "ference": 2529,
      "brid": 2530,
      "takes": 2531,
      "due": 2532,
      "attend": 2533,
      "married": 2534,
      "gloria": 2535,
      "cut": 2536,
      "tam": 2537,
      "rect": 2538,
      "bobby": 2539,
      "netflix": 2540,
      "gle": 2541,
      "rita": 2542,
      "posit": 2543,
      "100": 2544,
      "fortun": 2545,
      "ices": 2546,
      "mari": 2547,
      "elisa": 2548,
      "evan": 2549,
      "country": 2550,
      "pleas": 2551,
      "moved": 2552,
      "aking": 2553,
      "sandy": 2554,
      "ars": 2555,
      "judy": 2556,
      "movies": 2557,
      "yours": 2558,
      "janet": 2559,
      "ston": 2560,
      "huge": 2561,
      "nora": 2562,
      "drop": 2563,
      "sylvia": 2564,
      "absolutely": 2565,
      "melan": 2566,
      "ings": 2567,
      "depend": 2568,
      "booked": 2569,
      "freddie": 2570,
      "wise": 2571,
      "winter": 2572,
      "stair": 2573,
      "hall": 2574,
      "taken": 2575,
      "holidays": 2576,
      "rebecca": 2577,
      "erin": 2578,
      "asia": 2579,
      "arent": 2580,
      "carrie": 2581,
      "stuck": 2582,
      "resu": 2583,
      "ities": 2584,
      "ander": 2585,
      "edward": 2586,
      "green": 2587,
      "finn": 2588,
      "appreci": 2589,
      "isabella": 2590,
      "recommends": 2591,
      "ko": 2592,
      "oke": 2593,
      "rey": 2594,
      "looked": 2595,
      "bot": 2596,
      "receive": 2597,
      "anthon": 2598,
      "request": 2599,
      "search": 2600,
      "cept": 2601,
      "extra": 2602,
      "kitchen": 2603,
      "lauren": 2604,
      "anthony": 2605,
      "bie": 2606,
      "hol": 2607,
      "lola": 2608,
      "ril": 2609,
      "deli": 2610,
      "illa": 2611,
      "tyler": 2612,
      "died": 2613,
      "ef": 2614,
      "snow": 2615,
      "terrible": 2616,
      "jessie": 2617,
      "kimberly": 2618,
      "gent": 2619,
      "idk": 2620,
      "seem": 2621,
      "pair": 2622,
      "horrible": 2623,
      "45": 2624,
      "ib": 2625,
      "ness": 2626,
      "ue": 2627,
      "chat": 2628,
      "donald": 2629,
      "checked": 2630,
      "minute": 2631,
      "choice": 2632,
      "heather": 2633,
      "iana": 2634,
      "pauline": 2635,
      "gener": 2636,
      "sense": 2637,
      "gn": 2638,
      "nobody": 2639,
      "francis": 2640,
      "traffic": 2641,
      "bath": 2642,
      "robin": 2643,
      "favourite": 2644,
      "stairs": 2645,
      "pics": 2646,
      "ticket": 2647,
      "diane": 2648,
      "adrian": 2649,
      "fall": 2650,
      "rela": 2651,
      "resp": 2652,
      "return": 2653,
      "erica": 2654,
      "enter": 2655,
      "ala": 2656,
      "shouldn": 2657,
      "fortunately": 2658,
      "cry": 2659,
      "ial": 2660,
      "lation": 2661,
      "vent": 2662,
      "zz": 2663,
      "cover": 2664,
      "cast": 2665,
      "match": 2666,
      "sending": 2667,
      "flu": 2668,
      "sec": 2669,
      "nah": 2670,
      "using": 2671,
      "sends": 2672,
      "trave": 2673,
      "darling": 2674,
      "warm": 2675,
      "client": 2676,
      "cru": 2677,
      "build": 2678,
      "tea": 2679,
      "epis": 2680,
      "barry": 2681,
      "presentation": 2682,
      "aid": 2683,
      "fru": 2684,
      "hit": 2685,
      "sw": 2686,
      "wash": 2687,
      "hahahaha": 2688,
      "ages": 2689,
      "dream": 2690,
      "trust": 2691,
      "jamin": 2692,
      "laptop": 2693,
      "episod": 2694,
      "poland": 2695,
      "conference": 2696,
      "benjamin": 2697,
      "apparent": 2698,
      "brow": 2699,
      "ption": 2700,
      "ount": 2701,
      "hehe": 2702,
      "leon": 2703,
      "moving": 2704,
      "wondering": 2705,
      "nate": 2706,
      "sell": 2707,
      "mins": 2708,
      "angel": 2709,
      "........": 2710,
      "apparently": 2711,
      "bt": 2712,
      "gor": 2713,
      "ned": 2714,
      "places": 2715,
      "proper": 2716,
      "compu": 2717,
      "clau": 2718,
      "iley": 2719,
      "anie": 2720,
      "roger": 2721,
      "goo": 2722,
      "theresa": 2723,
      "fight": 2724,
      "story": 2725,
      "irene": 2726,
      "questions": 2727,
      "elizabeth": 2728,
      "bank": 2729,
      "vac": 2730,
      "isla": 2731,
      "lene": 2732,
      "action": 2733,
      "catherine": 2734,
      "opin": 2735,
      "fab": 2736,
      "rs": 2737,
      "scre": 2738,
      "throw": 2739,
      "means": 2740,
      "lydia": 2741,
      "abby": 2742,
      "market": 2743,
      "teach": 2744,
      "ters": 2745,
      "pop": 2746,
      "**": 2747,
      "mma": 2748,
      "swi": 2749,
      "wers": 2750,
      "ari": 2751,
      "lecture": 2752,
      "philip": 2753,
      "ese": 2754,
      "fing": 2755,
      "han": 2756,
      "round": 2757,
      "schedule": 2758,
      "arr": 2759,
      "rod": 2760,
      "along": 2761,
      "dow": 2762,
      "ries": 2763,
      "mona": 2764,
      "pract": 2765,
      "film": 2766,
      "smith": 2767,
      "25": 2768,
      "dry": 2769,
      "lately": 2770,
      "interview": 2771,
      "breakfast": 2772,
      "jordan": 2773,
      "gabriel": 2774,
      "chicken": 2775,
      "gs": 2776,
      "ua": 2777,
      "mela": 2778,
      "los": 2779,
      "everybody": 2780,
      "situation": 2781,
      "melanie": 2782,
      "ban": 2783,
      "cing": 2784,
      "tris": 2785,
      "webs": 2786,
      "suit": 2787,
      "shi": 2788,
      "pear": 2789,
      "aaaa": 2790,
      "promise": 2791,
      "relax": 2792,
      "lara": 2793,
      "zack": 2794,
      "starts": 2795,
      "giving": 2796,
      "arthur": 2797,
      "acey": 2798,
      "foot": 2799,
      "avier": 2800,
      "ual": 2801,
      "libr": 2802,
      "albert": 2803,
      "ared": 2804,
      "chill": 2805,
      "loved": 2806,
      "versity": 2807,
      "cooking": 2808,
      "ded": 2809,
      "sou": 2810,
      "va": 2811,
      "itch": 2812,
      "anybody": 2813,
      "surprised": 2814,
      "website": 2815,
      "nad": 2816,
      "wom": 2817,
      "asap": 2818,
      "address": 2819,
      "carmen": 2820,
      "polly": 2821,
      "spent": 2822,
      "cording": 2823,
      "suzie": 2824,
      "dunno": 2825,
      "fantast": 2826,
      "mick": 2827,
      "pur": 2828,
      "gust": 2829,
      "convin": 2830,
      "vio": 2831,
      "spect": 2832,
      "europe": 2833,
      "computer": 2834,
      "fantastic": 2835,
      "hold": 2836,
      "nee": 2837,
      "bud": 2838,
      "tian": 2839,
      "strange": 2840,
      "studying": 2841,
      "depends": 2842,
      "woman": 2843,
      "tf": 2844,
      "advis": 2845,
      "marc": 2846,
      "needed": 2847,
      "bruce": 2848,
      "library": 2849,
      "ata": 2850,
      "marta": 2851,
      "pol": 2852,
      "university": 2853,
      "milk": 2854,
      "mac": 2855,
      "scare": 2856,
      "hay": 2857,
      "sea": 2858,
      "unfortunately": 2859,
      "polit": 2860,
      "homework": 2861,
      "lynn": 2862,
      "fie": 2863,
      "jona": 2864,
      "omi": 2865,
      "tany": 2866,
      "oud": 2867,
      "happens": 2868,
      "damian": 2869,
      "explain": 2870,
      "jonathan": 2871,
      "hon": 2872,
      "rand": 2873,
      "anno": 2874,
      "whats": 2875,
      "ille": 2876,
      "travel": 2877,
      "madison": 2878,
      "joshua": 2879,
      "dora": 2880,
      "hurry": 2881,
      "completely": 2882,
      "neighbour": 2883,
      "google": 2884,
      "\".": 2885,
      "heart": 2886,
      "nold": 2887,
      "plus": 2888,
      "french": 2889,
      "italian": 2890,
      "tho": 2891,
      "reser": 2892,
      "begin": 2893,
      "poppy": 2894,
      "emp": 2895,
      "kai": 2896,
      "paris": 2897,
      "april": 2898,
      "walter": 2899,
      "complain": 2900,
      "cred": 2901,
      "gia": 2902,
      "ient": 2903,
      "wro": 2904,
      "inside": 2905,
      "icia": 2906,
      "often": 2907,
      "finds": 2908,
      "lindsay": 2909,
      "isabel": 2910,
      "drinking": 2911,
      "centre": 2912,
      "grandma": 2913,
      "fancy": 2914,
      "hank": 2915,
      "vey": 2916,
      "alison": 2917,
      "stella": 2918,
      "pamela": 2919,
      "lenny": 2920,
      "christine": 2921,
      "normal": 2922,
      "warsaw": 2923,
      "favor": 2924,
      "arrived": 2925,
      "bra": 2926,
      "fb": 2927,
      "nis": 2928,
      "ory": 2929,
      "follow": 2930,
      "step": 2931,
      "appro": 2932,
      "ying": 2933,
      "stacy": 2934,
      "hah": 2935,
      "sonia": 2936,
      "iled": 2937,
      "ski": 2938,
      "mb": 2939,
      "ped": 2940,
      "rice": 2941,
      "fire": 2942,
      "olga": 2943,
      "chea": 2944,
      "afford": 2945,
      "evelyn": 2946,
      "stephanie": 2947,
      "ebe": 2948,
      "fat": 2949,
      "rance": 2950,
      "enti": 2951,
      "kes": 2952,
      "broken": 2953,
      "angie": 2954,
      "certain": 2955,
      "cream": 2956,
      "italy": 2957,
      "basically": 2958,
      "kayla": 2959,
      "jasmine": 2960,
      "appreciate": 2961,
      "anita": 2962,
      "ants": 2963,
      "miles": 2964,
      "played": 2965,
      "ised": 2966,
      "belle": 2967,
      "wil": 2968,
      "living": 2969,
      "dered": 2970,
      "entrance": 2971,
      "visiting": 2972,
      "colour": 2973,
      "bat": 2974,
      "math": 2975,
      "phoebe": 2976,
      "brooke": 2977,
      "floor": 2978,
      "julian": 2979,
      "gw": 2980,
      "ollie": 2981,
      "thia": 2982,
      "lewis": 2983,
      "beach": 2984,
      "oking": 2985,
      "gemma": 2986,
      "aught": 2987,
      "starting": 2988,
      "eating": 2989,
      "experience": 2990,
      "hus": 2991,
      "tat": 2992,
      "himself": 2993,
      "history": 2994,
      "ches": 2995,
      "telling": 2996,
      "penny": 2997,
      "ela": 2998,
      "ika": 2999,
      "doll": 3000,
      "shut": 3001,
      "save": 3002,
      "lets": 3003,
      "offers": 3004,
      "shame": 3005,
      "eeee": 3006,
      "sleeping": 3007,
      "professor": 3008,
      "smo": 3009,
      "sey": 3010,
      "figu": 3011,
      "carter": 3012,
      "alexander": 3013,
      "ram": 3014,
      "sil": 3015,
      "lend": 3016,
      "conne": 3017,
      "obvious": 3018,
      "sitting": 3019,
      "camp": 3020,
      "agreed": 3021,
      "flying": 3022,
      "ming": 3023,
      "xi": 3024,
      "yor": 3025,
      "ats": 3026,
      "rosie": 3027,
      "uncle": 3028,
      "calling": 3029,
      "decis": 3030,
      "posted": 3031,
      "copy": 3032,
      "sucks": 3033,
      "muse": 3034,
      "garden": 3035,
      "apo": 3036,
      "opp": 3037,
      "tour": 3038,
      "wtf": 3039,
      "anim": 3040,
      "idi": 3041,
      "connor": 3042,
      "otherwise": 3043,
      "laugh": 3044,
      "camer": 3045,
      "easier": 3046,
      "current": 3047,
      "deadline": 3048,
      "opinion": 3049,
      "18": 3050,
      "eh": 3051,
      "carlos": 3052,
      ":))": 3053,
      "grad": 3054,
      ":-(": 3055,
      "plane": 3056,
      "training": 3057,
      "elisabeth": 3058,
      "bal": 3059,
      "joanne": 3060,
      "paulina": 3061,
      "lora": 3062,
      "iot": 3063,
      "suppose": 3064,
      "turned": 3065,
      "chery": 3066,
      "trou": 3067,
      "diet": 3068,
      "young": 3069,
      "bottle": 3070,
      "received": 3071,
      "cheryl": 3072,
      "lts": 3073,
      "pal": 3074,
      "ative": 3075,
      "jude": 3076,
      "worst": 3077,
      "mila": 3078,
      "pres": 3079,
      "hopefully": 3080,
      "confirm": 3081,
      "trouble": 3082,
      "tend": 3083,
      "ug": 3084,
      "uk": 3085,
      "vation": 3086,
      "wanda": 3087,
      "upset": 3088,
      "luc": 3089,
      "polish": 3090,
      "convers": 3091,
      "ronald": 3092,
      "contro": 3093,
      "scarlet": 3094,
      "ik": 3095,
      "theat": 3096,
      "arm": 3097,
      "host": 3098,
      "mario": 3099,
      "austin": 3100,
      "pool": 3101,
      "collect": 3102,
      "caleb": 3103,
      "husband": 3104,
      "ath": 3105,
      "bread": 3106,
      "hill": 3107,
      "okey": 3108,
      "riley": 3109,
      "cap": 3110,
      "harper": 3111,
      "honestly": 3112,
      "celebrate": 3113,
      "grow": 3114,
      "heidi": 3115,
      "according": 3116,
      "eline": 3117,
      "wayne": 3118,
      "writ": 3119,
      "ronnie": 3120,
      "dominic": 3121,
      "pleasure": 3122,
      "scared": 3123,
      "fau": 3124,
      "sir": 3125,
      "size": 3126,
      "slow": 3127,
      "todd": 3128,
      "sula": 3129,
      "artic": 3130,
      "cheese": 3131,
      "prepar": 3132,
      "ational": 3133,
      "afterwards": 3134,
      "women": 3135,
      "lizzy": 3136,
      "nicky": 3137,
      "lives": 3138,
      "window": 3139,
      "graph": 3140,
      "passed": 3141,
      "police": 3142,
      "wrote": 3143,
      "gwen": 3144,
      "arnold": 3145,
      "logy": 3146,
      "frances": 3147,
      "lady": 3148,
      "ging": 3149,
      "gry": 3150,
      "smart": 3151,
      "zara": 3152,
      "????": 3153,
      "gnant": 3154,
      "17": 3155,
      "daught": 3156,
      "ply": 3157,
      "pink": 3158,
      "vir": 3159,
      "led": 3160,
      "keith": 3161,
      "march": 3162,
      "sheila": 3163,
      "herself": 3164,
      "delic": 3165,
      "mming": 3166,
      "ggy": 3167,
      "bloody": 3168,
      "episode": 3169,
      "ged": 3170,
      "lary": 3171,
      "ines": 3172,
      "ida": 3173,
      "rious": 3174,
      "howard": 3175,
      "boo": 3176,
      "russ": 3177,
      "pregnant": 3178,
      "qui": 3179,
      "avo": 3180,
      "liter": 3181,
      "college": 3182,
      "violet": 3183,
      "cup": 3184,
      "xo": 3185,
      "gover": 3186,
      "july": 3187,
      "future": 3188,
      "katy": 3189,
      "guest": 3190,
      "tough": 3191,
      "rena": 3192,
      "report": 3193,
      "research": 3194,
      "seth": 3195,
      "although": 3196,
      "mode": 3197,
      "cafe": 3198,
      "choco": 3199,
      "harvey": 3200,
      "service": 3201,
      "example": 3202,
      "wonderful": 3203,
      "bryan": 3204,
      "kir": 3205,
      "sab": 3206,
      "anton": 3207,
      "dece": 3208,
      "felt": 3209,
      "matild": 3210,
      "twice": 3211,
      "congrats": 3212,
      "congratul": 3213,
      "considering": 3214,
      "results": 3215,
      "respon": 3216,
      "travelling": 3217,
      "owe": 3218,
      "sc": 3219,
      "info": 3220,
      "rome": 3221,
      "cance": 3222,
      "judi": 3223,
      "bother": 3224,
      "propo": 3225,
      "comfort": 3226,
      "assign": 3227,
      "alexis": 3228,
      "hungry": 3229,
      "organiz": 3230,
      "lli": 3231,
      "ties": 3232,
      "sport": 3233,
      "teddy": 3234,
      "calm": 3235,
      "single": 3236,
      "recipe": 3237,
      "shirt": 3238,
      "product": 3239,
      "december": 3240,
      "congratulations": 3241,
      "fur": 3242,
      "gro": 3243,
      "susie": 3244,
      "delay": 3245,
      "space": 3246,
      "dana": 3247,
      "christian": 3248,
      "proud": 3249,
      "kathy": 3250,
      "spec": 3251,
      "langu": 3252,
      "shower": 3253,
      "straight": 3254,
      "building": 3255,
      "cheaper": 3256,
      "york": 3257,
      "eye": 3258,
      "gill": 3259,
      "hind": 3260,
      "inclu": 3261,
      "issu": 3262,
      "lose": 3263,
      "power": 3264,
      "ground": 3265,
      "correct": 3266,
      "elena": 3267,
      "prepared": 3268,
      "vanessa": 3269,
      "priv": 3270,
      "ku": 3271,
      "kam": 3272,
      "lix": 3273,
      "note": 3274,
      "mill": 3275,
      "morgan": 3276,
      "billy": 3277,
      "missing": 3278,
      "students": 3279,
      "claudia": 3280,
      "^^": 3281,
      "xavier": 3282,
      "caro": 3283,
      "janice": 3284,
      "against": 3285,
      "downstairs": 3286,
      "support": 3287,
      "spot": 3288,
      "daughter": 3289,
      "tara": 3290,
      "resa": 3291,
      "haps": 3292,
      "iced": 3293,
      "spain": 3294,
      "viv": 3295,
      "dark": 3296,
      "enjoyed": 3297,
      "doubt": 3298,
      "brandon": 3299,
      "invites": 3300,
      "information": 3301,
      "mun": 3302,
      "randy": 3303,
      "sess": 3304,
      "perhaps": 3305,
      "quit": 3306,
      "stressed": 3307,
      "mrs": 3308,
      "style": 3309,
      "managed": 3310,
      "bathroom": 3311,
      "beginning": 3312,
      "crow": 3313,
      "hy": 3314,
      "kis": 3315,
      "stru": 3316,
      "behind": 3317,
      "kel": 3318,
      "fied": 3319,
      "greta": 3320,
      "pressed": 3321,
      "wake": 3322,
      "wont": 3323,
      "clear": 3324,
      "planned": 3325,
      "swimming": 3326,
      "fingers": 3327,
      "football": 3328,
      "fy": 3329,
      "lous": 3330,
      "non": 3331,
      "pis": 3332,
      "stal": 3333,
      "stick": 3334,
      "naomi": 3335,
      "felix": 3336,
      "program": 3337,
      "mond": 3338,
      "cats": 3339,
      "bike": 3340,
      "clark": 3341,
      "conversation": 3342,
      "judith": 3343,
      "bby": 3344,
      "cash": 3345,
      "tney": 3346,
      "refu": 3347,
      "island": 3348,
      "sooo": 3349,
      "mood": 3350,
      "gavin": 3351,
      "clare": 3352,
      "syste": 3353,
      "discount": 3354,
      "strong": 3355,
      "scarlett": 3356,
      "issues": 3357,
      "bb": 3358,
      "egg": 3359,
      "pill": 3360,
      "sau": 3361,
      "cos": 3362,
      "marion": 3363,
      "pot": 3364,
      "ursula": 3365,
      "conf": 3366,
      "cathy": 3367,
      "page": 3368,
      "tract": 3369,
      "danielle": 3370,
      "faith": 3371,
      "transfer": 3372,
      "decision": 3373,
      "dle": 3374,
      "meat": 3375,
      "argu": 3376,
      "marty": 3377,
      "marcus": 3378,
      "feed": 3379,
      "worked": 3380,
      "didnt": 3381,
      "promo": 3382,
      "ility": 3383,
      "type": 3384,
      "maddie": 3385,
      "publ": 3386,
      "georgia": 3387,
      "lesson": 3388,
      "ctions": 3389,
      "vote": 3390,
      "ivy": 3391,
      "museum": 3392,
      "public": 3393,
      "21": 3394,
      "eyes": 3395,
      "fed": 3396,
      "relation": 3397,
      "ature": 3398,
      "medi": 3399,
      "ists": 3400,
      "ardo": 3401,
      "vegan": 3402,
      "geous": 3403,
      "bitch": 3404,
      "manager": 3405,
      "selves": 3406,
      "tit": 3407,
      "xmas": 3408,
      "flowers": 3409,
      "piece": 3410,
      "arrange": 3411,
      "delicious": 3412,
      "dating": 3413,
      "four": 3414,
      "national": 3415,
      "psy": 3416,
      "tiff": 3417,
      "ific": 3418,
      "fell": 3419,
      "whenever": 3420,
      "pls": 3421,
      "boys": 3422,
      "ilar": 3423,
      "grant": 3424,
      "deser": 3425,
      "stress": 3426,
      "dru": 3427,
      "pity": 3428,
      "xic": 3429,
      "regu": 3430,
      "ordered": 3431,
      "sted": 3432,
      "state": 3433,
      "social": 3434,
      "bucks": 3435,
      "timo": 3436,
      "hilary": 3437,
      "qual": 3438,
      "leslie": 3439,
      "treat": 3440,
      "florence": 3441,
      "possib": 3442,
      "ls": 3443,
      "nia": 3444,
      "tes": 3445,
      "ism": 3446,
      "vet": 3447,
      "secre": 3448,
      "docu": 3449,
      "rap": 3450,
      "essay": 3451,
      "pai": 3452,
      "ricky": 3453,
      "keeps": 3454,
      "bruno": 3455,
      "wearing": 3456,
      "health": 3457,
      "fault": 3458,
      "16": 3459,
      "dir": 3460,
      "dies": 3461,
      "mach": 3462,
      "mount": 3463,
      "sm": 3464,
      "accept": 3465,
      "anywhere": 3466,
      "gree": 3467,
      "jackson": 3468,
      "stopped": 3469,
      "camilla": 3470,
      "agrees": 3471,
      "natalia": 3472,
      "kitty": 3473,
      "wishes": 3474,
      "washing": 3475,
      "practice": 3476,
      "favorite": 3477,
      "article": 3478,
      "chocolate": 3479,
      "system": 3480,
      "sci": 3481,
      "wha": 3482,
      "hood": 3483,
      "gold": 3484,
      "riet": 3485,
      "dest": 3486,
      "exer": 3487,
      "aster": 3488,
      "timmy": 3489,
      "emilia": 3490,
      "simple": 3491,
      "diego": 3492,
      "sides": 3493,
      "jesus": 3494,
      "cous": 3495,
      "fac": 3496,
      "gio": 3497,
      "pes": 3498,
      "sher": 3499,
      "zie": 3500,
      "memor": 3501,
      "weight": 3502,
      "area": 3503,
      "chur": 3504,
      "mob": 3505,
      "dance": 3506,
      "brook": 3507,
      "happening": 3508,
      "christina": 3509,
      "cookies": 3510,
      "icular": 3511,
      "layla": 3512,
      "field": 3513,
      "timothy": 3514,
      "dick": 3515,
      "dale": 3516,
      "ker": 3517,
      "soup": 3518,
      "troy": 3519,
      "reg": 3520,
      "erick": 3521,
      "alous": 3522,
      "aller": 3523,
      "arely": 3524,
      "tek": 3525,
      "teresa": 3526,
      "luis": 3527,
      "particular": 3528,
      "apple": 3529,
      "vier": 3530,
      "print": 3531,
      "hunter": 3532,
      "preparing": 3533,
      "cancelled": 3534,
      "fic": 3535,
      "gas": 3536,
      "spl": 3537,
      "ania": 3538,
      "color": 3539,
      "anyways": 3540,
      "quin": 3541,
      "agatha": 3542,
      "brilli": 3543,
      "kylie": 3544,
      "hurt": 3545,
      "costs": 3546,
      "gorgeous": 3547,
      "brilliant": 3548,
      "8pm": 3549,
      "rina": 3550,
      "istic": 3551,
      "enna": 3552,
      "serena": 3553,
      "sol": 3554,
      "notice": 3555,
      "decor": 3556,
      "illy": 3557,
      "cheers": 3558,
      "jealous": 3559,
      "mostly": 3560,
      "similar": 3561,
      "joyce": 3562,
      "crap": 3563,
      "crossed": 3564,
      "tiffany": 3565,
      "cation": 3566,
      "mare": 3567,
      "uary": 3568,
      "anny": 3569,
      "regina": 3570,
      "arri": 3571,
      "ofc": 3572,
      "noticed": 3573,
      "iris": 3574,
      "dee": 3575,
      "cell": 3576,
      "span": 3577,
      "johnny": 3578,
      "gives": 3579,
      "hahahah": 3580,
      "topher": 3581,
      "valer": 3582,
      "bridget": 3583,
      "theatre": 3584,
      "ride": 3585,
      "tess": 3586,
      "leep": 3587,
      "level": 3588,
      "asleep": 3589,
      "chand": 3590,
      "tech": 3591,
      "micha": 3592,
      "queen": 3593,
      "hugo": 3594,
      "natasha": 3595,
      "dennis": 3596,
      "desk": 3597,
      "awful": 3598,
      "language": 3599,
      "mell": 3600,
      "roll": 3601,
      "dom": 3602,
      "iel": 3603,
      "temp": 3604,
      "acks": 3605,
      "january": 3606,
      "charac": 3607,
      "prin": 3608,
      "isaac": 3609,
      "born": 3610,
      "regular": 3611,
      "ilet": 3612,
      "nthia": 3613,
      "pac": 3614,
      "reach": 3615,
      "review": 3616,
      "chan": 3617,
      "previous": 3618,
      "gregory": 3619,
      "tube": 3620,
      "heading": 3621,
      "cleaning": 3622,
      "middle": 3623,
      "private": 3624,
      "chandler": 3625,
      "kasia": 3626,
      "zac": 3627,
      "renee": 3628,
      "rosa": 3629,
      "impress": 3630,
      "tem": 3631,
      "department": 3632,
      "berlin": 3633,
      "sammy": 3634,
      "fresh": 3635,
      "drew": 3636,
      "?!?!": 3637,
      "lawrence": 3638,
      "aiden": 3639,
      "obviously": 3640,
      "mobile": 3641,
      "kon": 3642,
      "ran": 3643,
      "iti": 3644,
      "orts": 3645,
      "lda": 3646,
      "ended": 3647,
      "filip": 3648,
      "everywhere": 3649,
      "france": 3650,
      "fridge": 3651,
      "joey": 3652,
      "daria": 3653,
      "instru": 3654,
      "options": 3655,
      "brown": 3656,
      "vacation": 3657,
      "church": 3658,
      "split": 3659,
      "spanish": 3660,
      "14": 3661,
      "cin": 3662,
      "vous": 3663,
      "topic": 3664,
      "alicia": 3665,
      "ache": 3666,
      "riam": 3667,
      "cancel": 3668,
      "dev": 3669,
      "miriam": 3670,
      "gues": 3671,
      "manuel": 3672,
      "tells": 3673,
      "brett": 3674,
      "media": 3675,
      "elect": 3676,
      "expected": 3677,
      "secret": 3678,
      "aks": 3679,
      "fly": 3680,
      "glen": 3681,
      "jour": 3682,
      "squ": 3683,
      "oun": 3684,
      "youre": 3685,
      "veget": 3686,
      "sof": 3687,
      "aly": 3688,
      "shif": 3689,
      "ppl": 3690,
      "cep": 3691,
      "nty": 3692,
      "urgent": 3693,
      "plenty": 3694,
      "spir": 3695,
      "disappoint": 3696,
      "gifts": 3697,
      "boris": 3698,
      "listening": 3699,
      "healthy": 3700,
      "jesse": 3701,
      "apolog": 3702,
      "comfortable": 3703,
      "relationship": 3704,
      "chad": 3705,
      "fl": 3706,
      "ugh": 3707,
      "mexic": 3708,
      "vered": 3709,
      "sold": 3710,
      "chu": 3711,
      "cooper": 3712,
      "tiv": 3713,
      "jody": 3714,
      "terri": 3715,
      "words": 3716,
      "exhi": 3717,
      "helped": 3718,
      "katherine": 3719,
      "isabelle": 3720,
      "medic": 3721,
      "walking": 3722,
      "ladies": 3723,
      "craig": 3724,
      "entire": 3725,
      "bio": 3726,
      "toilet": 3727,
      "hailey": 3728,
      "bum": 3729,
      "chi": 3730,
      "juan": 3731,
      "felic": 3732,
      "ianne": 3733,
      "dio": 3734,
      "decent": 3735,
      "karl": 3736,
      "dentist": 3737,
      "annoying": 3738,
      "products": 3739,
      "exhibit": 3740,
      "bing": 3741,
      "cass": 3742,
      "fers": 3743,
      "hates": 3744,
      "kas": 3745,
      "sand": 3746,
      "infor": 3747,
      "reck": 3748,
      "isha": 3749,
      "wever": 3750,
      "however": 3751,
      "bull": 3752,
      "covered": 3753,
      "anytime": 3754,
      "chel": 3755,
      "wood": 3756,
      "mickey": 3757,
      "olivier": 3758,
      "checking": 3759,
      "famous": 3760,
      "flights": 3761,
      "doug": 3762,
      "screen": 3763,
      "sabrina": 3764,
      "assignment": 3765,
      "ivan": 3766,
      "sli": 3767,
      "yer": 3768,
      "thor": 3769,
      "regre": 3770,
      "meal": 3771,
      "aria": 3772,
      "brought": 3773,
      "mistake": 3774,
      "lated": 3775,
      "german": 3776,
      "nervous": 3777,
      "picking": 3778,
      "jacket": 3779,
      "darren": 3780,
      "jayden": 3781,
      "changing": 3782,
      "debbie": 3783,
      "24": 3784,
      "ula": 3785,
      "rea": 3786,
      "thea": 3787,
      "final": 3788,
      "alexandra": 3789,
      "gery": 3790,
      "prices": 3791,
      "mission": 3792,
      "archie": 3793,
      "figure": 3794,
      "cousin": 3795,
      "cand": 3796,
      "dare": 3797,
      "dates": 3798,
      "become": 3799,
      "americ": 3800,
      "tery": 3801,
      "unless": 3802,
      "...?": 3803,
      "prob": 3804,
      "excu": 3805,
      "focus": 3806,
      "dancing": 3807,
      "stefan": 3808,
      "mater": 3809,
      "descri": 3810,
      "blood": 3811,
      "gabrielle": 3812,
      "subject": 3813,
      "hoping": 3814,
      "tamara": 3815,
      "control": 3816,
      "matilda": 3817,
      "vy": 3818,
      "third": 3819,
      "gage": 3820,
      "caught": 3821,
      "cul": 3822,
      "huh": 3823,
      "bigger": 3824,
      "personal": 3825,
      "josephine": 3826,
      "changes": 3827,
      "yoga": 3828,
      "magda": 3829,
      "stephen": 3830,
      "machine": 3831,
      ";/": 3832,
      "joking": 3833,
      "kk": 3834,
      "xit": 3835,
      "ater": 3836,
      "member": 3837,
      "gosh": 3838,
      "somehow": 3839,
      "whether": 3840,
      "nights": 3841,
      "franklin": 3842,
      "custom": 3843,
      "south": 3844,
      "hillary": 3845,
      "avoid": 3846,
      "econ": 3847,
      "gara": 3848,
      "gers": 3849,
      "rr": 3850,
      "uber": 3851,
      "toes": 3852,
      "youtube": 3853,
      "nelly": 3854,
      "laun": 3855,
      "carson": 3856,
      "grey": 3857,
      "popu": 3858,
      "cynthia": 3859,
      "cuba": 3860,
      "vincent": 3861,
      "lori": 3862,
      "exams": 3863,
      "hmmm": 3864,
      "dogs": 3865,
      "olaf": 3866,
      "beatrice": 3867,
      "mentioned": 3868,
      "eggs": 3869,
      "chelsea": 3870,
      "((": 3871,
      "fle": 3872,
      "rd": 3873,
      "sses": 3874,
      "ising": 3875,
      "besides": 3876,
      "selling": 3877,
      "edgar": 3878,
      "colin": 3879,
      "ima": 3880,
      "impro": 3881,
      "natha": 3882,
      "cards": 3883,
      "vince": 3884,
      "evie": 3885,
      "cora": 3886,
      "simone": 3887,
      "denise": 3888,
      "aaa": 3889,
      "insta": 3890,
      "shirley": 3891,
      "delivery": 3892,
      "disappointed": 3893,
      "nathalie": 3894,
      "7pm": 3895,
      "nan": 3896,
      "silly": 3897,
      "tessa": 3898,
      "meant": 3899,
      "stri": 3900,
      "chine": 3901,
      "somebody": 3902,
      "ceci": 3903,
      "chester": 3904,
      "spare": 3905,
      "helps": 3906,
      "jenna": 3907,
      "satis": 3908,
      "shows": 3909,
      "closed": 3910,
      "chase": 3911,
      "access": 3912,
      "raining": 3913,
      "pasta": 3914,
      "hayden": 3915,
      "dollars": 3916,
      "literally": 3917,
      "grocer": 3918,
      "quality": 3919,
      "80": 3920,
      "cise": 3921,
      "fif": 3922,
      "gil": 3923,
      "zach": 3924,
      "issue": 3925,
      "nel": 3926,
      "neth": 3927,
      "lake": 3928,
      "joel": 3929,
      "five": 3930,
      "carla": 3931,
      "aff": 3932,
      "japan": 3933,
      "curious": 3934,
      "intro": 3935,
      "given": 3936,
      "driver": 3937,
      "position": 3938,
      "reservation": 3939,
      "sofia": 3940,
      "chinese": 3941,
      "2nd": 3942,
      "aven": 3943,
      "ike": 3944,
      "vale": 3945,
      "yl": 3946,
      "lent": 3947,
      "ense": 3948,
      "sever": 3949,
      "teen": 3950,
      "pper": 3951,
      "letter": 3952,
      "calls": 3953,
      "charge": 3954,
      "shoot": 3955,
      "joining": 3956,
      "visited": 3957,
      "darcy": 3958,
      "design": 3959,
      "settle": 3960,
      "exciting": 3961,
      "scary": 3962,
      "brittany": 3963,
      "yuri": 3964,
      "wilson": 3965,
      "written": 3966,
      "kamil": 3967,
      "chuck": 3968,
      "cate": 3969,
      "las": 3970,
      "yann": 3971,
      "regard": 3972,
      "orig": 3973,
      "lila": 3974,
      "alco": 3975,
      "bun": 3976,
      "local": 3977,
      "coll": 3978,
      "cole": 3979,
      "admit": 3980,
      "term": 3981,
      "prefers": 3982,
      "danger": 3983,
      "200": 3984,
      "appe": 3985,
      "jeffrey": 3986,
      "horror": 3987,
      "suzanne": 3988,
      "wallet": 3989,
      "silvia": 3990,
      "origin": 3991,
      "bin": 3992,
      "ctive": 3993,
      "jer": 3994,
      "jared": 3995,
      "vol": 3996,
      "llo": 3997,
      "stat": 3998,
      "sten": 3999,
      "havent": 4000,
      "esme": 4001,
      "allie": 4002,
      "adele": 4003,
      "luna": 4004,
      "johnson": 4005,
      "stayed": 4006,
      "human": 4007,
      "lessons": 4008,
      "slept": 4009,
      "casper": 4010,
      "sweetie": 4011,
      "organize": 4012,
      "invitation": 4013,
      "advises": 4014,
      "destroy": 4015,
      "swee": 4016,
      "code": 4017,
      "fever": 4018,
      "millie": 4019,
      "!!!!!": 4020,
      "connie": 4021,
      "cheer": 4022,
      "nik": 4023,
      "monika": 4024,
      "woke": 4025,
      "harris": 4026,
      "brexit": 4027,
      "courtney": 4028,
      "failed": 4029,
      "corner": 4030,
      "!!!!!!!!": 4031,
      "mitch": 4032,
      "ridicu": 4033,
      "songs": 4034,
      "package": 4035,
      "general": 4036,
      "crystal": 4037,
      "trish": 4038,
      "certainly": 4039,
      "60": 4040,
      "apart": 4041,
      "tin": 4042,
      "kept": 4043,
      "lied": 4044,
      "jump": 4045,
      "within": 4046,
      "marco": 4047,
      "marry": 4048,
      "shelly": 4049,
      "antic": 4050,
      "def": 4051,
      "unt": 4052,
      "sale": 4053,
      "commun": 4054,
      "perfor": 4055,
      "trick": 4056,
      "harold": 4057,
      "parking": 4058,
      "sane": 4059,
      "doris": 4060,
      "paige": 4061,
      "bry": 4062,
      "dden": 4063,
      "macy": 4064,
      "tte": 4065,
      "ints": 4066,
      "total": 4067,
      "atten": 4068,
      "wes": 4069,
      "idiot": 4070,
      "necess": 4071,
      "adv": 4072,
      "sup": 4073,
      "sudden": 4074,
      "butter": 4075,
      "marge": 4076,
      "phones": 4077,
      "spa": 4078,
      "offic": 4079,
      "surgery": 4080,
      "texting": 4081,
      "promised": 4082,
      "neighbor": 4083,
      "guests": 4084,
      "psycho": 4085,
      "ridiculous": 4086,
      "bh": 4087,
      "cab": 4088,
      "rout": 4089,
      "sasha": 4090,
      "recor": 4091,
      "ond": 4092,
      "alys": 4093,
      "known": 4094,
      "carly": 4095,
      "stor": 4096,
      "ables": 4097,
      "tran": 4098,
      "harriet": 4099,
      "morris": 4100,
      "paying": 4101,
      "awww": 4102,
      "tesco": 4103,
      "exhibition": 4104,
      "instagram": 4105,
      "_file": 4106,
      "ahead": 4107,
      "gig": 4108,
      "ien": 4109,
      "mand": 4110,
      "anni": 4111,
      "thesis": 4112,
      "lies": 4113,
      "neil": 4114,
      "impossible": 4115,
      "bow": 4116,
      "luca": 4117,
      "cking": 4118,
      "christopher": 4119,
      "track": 4120,
      "latest": 4121,
      "ortun": 4122,
      "ilyn": 4123,
      "sidney": 4124,
      "videos": 4125,
      "turns": 4126,
      "condition": 4127,
      "collea": 4128,
      "kristen": 4129,
      "opportun": 4130,
      "specific": 4131,
      "session": 4132,
      "several": 4133,
      "ains": 4134,
      "ey": 4135,
      "phe": 4136,
      "sn": 4137,
      "vid": 4138,
      "itar": 4139,
      "eddie": 4140,
      "peggy": 4141,
      "profile": 4142,
      "helping": 4143,
      "mindy": 4144,
      "earth": 4145,
      "denis": 4146,
      "recommended": 4147,
      "contin": 4148,
      "chap": 4149,
      "skin": 4150,
      "voice": 4151,
      "pearl": 4152,
      "nadia": 4153,
      "credit": 4154,
      "pissed": 4155,
      "regret": 4156,
      "13": 4157,
      "bian": 4158,
      "cross": 4159,
      "kin": 4160,
      "insane": 4161,
      "ress": 4162,
      "respect": 4163,
      "tobi": 4164,
      "stacey": 4165,
      "lead": 4166,
      "nove": 4167,
      "kev": 4168,
      "album": 4169,
      "ghan": 4170,
      "riel": 4171,
      "maur": 4172,
      "mix": 4173,
      "common": 4174,
      "ext": 4175,
      "sports": 4176,
      "bringing": 4177,
      "lindsey": 4178,
      "frankie": 4179,
      "invol": 4180,
      "clock": 4181,
      "create": 4182,
      "messages": 4183,
      "frustr": 4184,
      "convinced": 4185,
      "tatiana": 4186,
      "barely": 4187,
      "kier": 4188,
      "sant": 4189,
      "srs": 4190,
      "velo": 4191,
      "allison": 4192,
      ".....": 4193,
      "suc": 4194,
      "gel": 4195,
      "shane": 4196,
      "death": 4197,
      "compet": 4198,
      "surely": 4199,
      "rus": 4200,
      "iano": 4201,
      "apply": 4202,
      "trump": 4203,
      "careful": 4204,
      "hallo": 4205,
      "valent": 4206,
      "elo": 4207,
      "gic": 4208,
      "jade": 4209,
      "scr": 4210,
      "tab": 4211,
      "zu": 4212,
      "repair": 4213,
      "toma": 4214,
      "issa": 4215,
      "helena": 4216,
      "sep": 4217,
      "goss": 4218,
      "accep": 4219,
      "lazy": 4220,
      "joke": 4221,
      "gress": 4222,
      "const": 4223,
      "jax": 4224,
      "tions": 4225,
      "alexa": 4226,
      "tors": 4227,
      "direct": 4228,
      "download": 4229,
      "difference": 4230,
      "nichol": 4231,
      "karol": 4232,
      "salad": 4233,
      "finishing": 4234,
      "reminds": 4235,
      "glass": 4236,
      "garage": 4237,
      "ikea": 4238,
      "alcohol": 4239,
      "dangerous": 4240,
      "srsly": 4241,
      "cir": 4242,
      "sac": 4243,
      "anette": 4244,
      "staff": 4245,
      "keira": 4246,
      "jud": 4247,
      "mathew": 4248,
      "shan": 4249,
      "gray": 4250,
      "paint": 4251,
      "pages": 4252,
      "000": 4253,
      "claim": 4254,
      "presents": 4255,
      "spending": 4256,
      "vicki": 4257,
      "square": 4258,
      "attention": 4259,
      "brain": 4260,
      "center": 4261,
      "rly": 4262,
      "wy": 4263,
      "zer": 4264,
      "ays": 4265,
      "wild": 4266,
      "channe": 4267,
      "mod": 4268,
      "union": 4269,
      "febru": 4270,
      "saving": 4271,
      "contract": 4272,
      "speaking": 4273,
      "annette": 4274,
      "rooms": 4275,
      "amaz": 4276,
      "otto": 4277,
      "expecting": 4278,
      "install": 4279,
      "bastard": 4280,
      "graham": 4281,
      "tanya": 4282,
      "cameron": 4283,
      "regis": 4284,
      "valerie": 4285,
      "introdu": 4286,
      "halloween": 4287,
      "february": 4288,
      "gay": 4289,
      "gri": 4290,
      "kick": 4291,
      "nite": 4292,
      "tro": 4293,
      "tbh": 4294,
      "vod": 4295,
      "reen": 4296,
      "ering": 4297,
      "leen": 4298,
      "noel": 4299,
      "hole": 4300,
      "active": 4301,
      "location": 4302,
      "tember": 4303,
      "fest": 4304,
      "guitar": 4305,
      "ural": 4306,
      "conven": 4307,
      "except": 4308,
      "waste": 4309,
      "studies": 4310,
      "mmm": 4311,
      "shops": 4312,
      "embar": 4313,
      "dire": 4314,
      "kath": 4315,
      "kenneth": 4316,
      "camille": 4317,
      "sunny": 4318,
      "versary": 4319,
      "papers": 4320,
      "skype": 4321,
      "empty": 4322,
      "pressure": 4323,
      "realiz": 4324,
      "anniversary": 4325,
      "september": 4326,
      "3rd": 4327,
      "70": 4328,
      "aunt": 4329,
      "dig": 4330,
      "fash": 4331,
      "none": 4332,
      "site": 4333,
      "west": 4334,
      "sushi": 4335,
      "shes": 4336,
      "tered": 4337,
      "geez": 4338,
      "miley": 4339,
      "roman": 4340,
      "berta": 4341,
      "olas": 4342,
      "cape": 4343,
      "partner": 4344,
      "xddd": 4345,
      ":-/": 4346,
      "bethany": 4347,
      "sight": 4348,
      "bradley": 4349,
      "basket": 4350,
      "learning": 4351,
      "profession": 4352,
      "positive": 4353,
      "quiet": 4354,
      "mountains": 4355,
      "performan": 4356,
      "nicholas": 4357,
      "6pm": 4358,
      "dic": 4359,
      "fro": 4360,
      "hans": 4361,
      "ime": 4362,
      "jah": 4363,
      "lam": 4364,
      "nit": 4365,
      "😍😍": 4366,
      "reco": 4367,
      "ora": 4368,
      "heav": 4369,
      "bear": 4370,
      "coco": 4371,
      "jules": 4372,
      "debor": 4373,
      "august": 4374,
      "seemed": 4375,
      "bren": 4376,
      "pical": 4377,
      "picked": 4378,
      "pump": 4379,
      "lana": 4380,
      "central": 4381,
      "swear": 4382,
      "awk": 4383,
      "sienna": 4384,
      "singing": 4385,
      "uuuu": 4386,
      "laundry": 4387,
      "november": 4388,
      "extreme": 4389,
      "fashion": 4390,
      ").": 4391,
      "1st": 4392,
      ";(": 4393,
      "blan": 4394,
      "mn": 4395,
      "ore": 4396,
      "pad": 4397,
      "pier": 4398,
      "wing": 4399,
      "meghan": 4400,
      "leila": 4401,
      "soci": 4402,
      "soft": 4403,
      "bunch": 4404,
      "willow": 4405,
      "marianne": 4406,
      "dex": 4407,
      "inder": 4408,
      "conrad": 4409,
      "iler": 4410,
      "photo_file": 4411,
      "forever": 4412,
      "ellis": 4413,
      "spee": 4414,
      "gged": 4415,
      "turning": 4416,
      "offered": 4417,
      "gabi": 4418,
      "password": 4419,
      "double": 4420,
      "reception": 4421,
      "loads": 4422,
      "properly": 4423,
      "throwing": 4424,
      "possibly": 4425,
      "awkward": 4426,
      "\"?": 4427,
      ";*": 4428,
      "flora": 4429,
      "gate": 4430,
      "mc": 4431,
      "vill": 4432,
      "xy": 4433,
      "yay": 4434,
      "theart": 4435,
      "beers": 4436,
      "alfred": 4437,
      "allan": 4438,
      "aming": 4439,
      "river": 4440,
      "ablo": 4441,
      "vera": 4442,
      "juice": 4443,
      "shy": 4444,
      "cars": 4445,
      "file_picture": 4446,
      "fucked": 4447,
      "weren": 4448,
      "dison": 4449,
      "apples": 4450,
      "bake": 4451,
      "medical": 4452,
      "believes": 4453,
      "postp": 4454,
      "gaby": 4455,
      "six": 4456,
      "itional": 4457,
      "elijah": 4458,
      "debra": 4459,
      "cristina": 4460,
      "bridge": 4461,
      "rodney": 4462,
      "animal": 4463,
      "american": 4464,
      "sweetheart": 4465,
      "ado": 4466,
      "emo": 4467,
      "fla": 4468,
      "relie": 4469,
      "tee": 4470,
      "decl": 4471,
      "taxi": 4472,
      "conor": 4473,
      "consu": 4474,
      "cted": 4475,
      "gr8": 4476,
      "mates": 4477,
      "syd": 4478,
      "shawn": 4479,
      "shares": 4480,
      "older": 4481,
      "closer": 4482,
      "landed": 4483,
      "sugar": 4484,
      "complete": 4485,
      "fixed": 4486,
      "quickly": 4487,
      "deliver": 4488,
      "clients": 4489,
      "fruit": 4490,
      "random": 4491,
      "skiing": 4492,
      "35": 4493,
      "9pm": 4494,
      "bf": 4495,
      "pound": 4496,
      "zen": 4497,
      "replace": 4498,
      "erik": 4499,
      "ingrid": 4500,
      "leigh": 4501,
      "nooo": 4502,
      "lift": 4503,
      "sus": 4504,
      "aubre": 4505,
      "taste": 4506,
      "exchange": 4507,
      "gabe": 4508,
      "pretend": 4509,
      "iling": 4510,
      "charity": 4511,
      "sooner": 4512,
      "version": 4513,
      "bonnie": 4514,
      "occas": 4515,
      "skyler": 4516,
      "budget": 4517,
      "excuse": 4518,
      "satisfied": 4519,
      "gossip": 4520,
      "channel": 4521,
      "vodka": 4522,
      "aubrey": 4523,
      "))": 4524,
      ":'": 4525,
      "bang": 4526,
      "candy": 4527,
      "gal": 4528,
      "sry": 4529,
      "tar": 4530,
      "wind": 4531,
      "zel": 4532,
      "inve": 4533,
      "incred": 4534,
      "rett": 4535,
      "eral": 4536,
      "icy": 4537,
      "assu": 4538,
      "soooo": 4539,
      "nest": 4540,
      "ety": 4541,
      "pose": 4542,
      "pota": 4543,
      "romantic": 4544,
      "presid": 4545,
      "finding": 4546,
      "disgust": 4547,
      "freya": 4548,
      "keeping": 4549,
      "forgotten": 4550,
      "wins": 4551,
      "enjoying": 4552,
      "elias": 4553,
      "................": 4554,
      "shift": 4555,
      "volun": 4556,
      "modation": 4557,
      "performance": 4558,
      "22": 4559,
      "data": 4560,
      "equ": 4561,
      "ras": 4562,
      "xie": 4563,
      "repor": 4564,
      "itu": 4565,
      "icated": 4566,
      "keen": 4567,
      "kets": 4568,
      "accom": 4569,
      "immedi": 4570,
      "hero": 4571,
      "fill": 4572,
      "upload": 4573,
      "plu": 4574,
      "points": 4575,
      "phill": 4576,
      "dresses": 4577,
      "truth": 4578,
      "parties": 4579,
      "gging": 4580,
      "creep": 4581,
      "martina": 4582,
      "luckily": 4583,
      "raymond": 4584,
      "midnight": 4585,
      "radio": 4586,
      "switch": 4587,
      "buddy": 4588,
      "ugly": 4589,
      "scen": 4590,
      "document": 4591,
      "quinn": 4592,
      "journey": 4593,
      "mexico": 4594,
      "bianca": 4595,
      "jar": 4596,
      "pc": 4597,
      "zi": 4598,
      "ert": 4599,
      "mek": 4600,
      "bey": 4601,
      "bell": 4602,
      "lidia": 4603,
      "eter": 4604,
      "loren": 4605,
      "suits": 4606,
      "tial": 4607,
      "moder": 4608,
      "male": 4609,
      "destin": 4610,
      "develo": 4611,
      "justine": 4612,
      "muriel": 4613,
      "partic": 4614,
      "manchester": 4615,
      "alec": 4616,
      "hary": 4617,
      "divor": 4618,
      "standing": 4619,
      "payment": 4620,
      "opening": 4621,
      "opened": 4622,
      "glasses": 4623,
      "emplo": 4624,
      "complaining": 4625,
      "zachary": 4626,
      "electric": 4627,
      "storm": 4628,
      "speech": 4629,
      "alive": 4630,
      "ek": 4631,
      "pio": 4632,
      "insur": 4633,
      "rep": 4634,
      "reply": 4635,
      "reunion": 4636,
      "toni": 4637,
      "orange": 4638,
      "behave": 4639,
      "asy": 4640,
      "ached": 4641,
      "suff": 4642,
      "nap": 4643,
      "names": 4644,
      "boston": 4645,
      "risk": 4646,
      "cath": 4647,
      "igno": 4648,
      "helpful": 4649,
      "stood": 4650,
      "funeral": 4651,
      "simply": 4652,
      "fanny": 4653,
      "cakes": 4654,
      "period": 4655,
      "events": 4656,
      "political": 4657,
      "politics": 4658,
      "laughing": 4659,
      "konrad": 4660,
      "opportunity": 4661,
      "santa": 4662,
      "sydney": 4663,
      "base": 4664,
      "git": 4665,
      "kian": 4666,
      "ns": 4667,
      "rup": 4668,
      "yed": 4669,
      "itter": 4670,
      "het": 4671,
      "tips": 4672,
      "aul": 4673,
      "ruin": 4674,
      "rush": 4675,
      "nightmare": 4676,
      "everyday": 4677,
      "stef": 4678,
      "kinga": 4679,
      "jana": 4680,
      "announ": 4681,
      "viola": 4682,
      "pray": 4683,
      "tics": 4684,
      "tree": 4685,
      "putting": 4686,
      "supermarket": 4687,
      "garry": 4688,
      "british": 4689,
      "delayed": 4690,
      "raphael": 4691,
      "packed": 4692,
      "popular": 4693,
      "piotr": 4694,
      "insurance": 4695,
      "est": 4696,
      "glo": 4697,
      "ience": 4698,
      "nal": 4699,
      "uses": 4700,
      "react": 4701,
      "amount": 4702,
      "plant": 4703,
      "confu": 4704,
      "files": 4705,
      "hiya": 4706,
      "phys": 4707,
      "spen": 4708,
      "sergio": 4709,
      "travis": 4710,
      "olive": 4711,
      "eee": 4712,
      "chair": 4713,
      "skill": 4714,
      "hands": 4715,
      "beauty": 4716,
      "crit": 4717,
      "submit": 4718,
      "tania": 4719,
      "pleasant": 4720,
      "generally": 4721,
      "****": 4722,
      "dirty": 4723,
      "tobias": 4724,
      "\",": 4725,
      "4th": 4726,
      "avery": 4727,
      "dish": 4728,
      "gf": 4729,
      "hat": 4730,
      "task": 4731,
      "nov": 4732,
      "icked": 4733,
      "allow": 4734,
      "costu": 4735,
      "margot": 4736,
      "marilyn": 4737,
      "demand": 4738,
      "ahh": 4739,
      "ahmed": 4740,
      "auror": 4741,
      "ends": 4742,
      "update": 4743,
      "milena": 4744,
      "indu": 4745,
      "carry": 4746,
      "gus": 4747,
      "tooth": 4748,
      "letting": 4749,
      "grate": 4750,
      "dumb": 4751,
      "shot": 4752,
      "emer": 4753,
      "plays": 4754,
      "thoughts": 4755,
      "meetings": 4756,
      "jacqu": 4757,
      "dresser": 4758,
      "texted": 4759,
      "tests": 4760,
      "beatri": 4761,
      "convince": 4762,
      "graphy": 4763,
      "title": 4764,
      "bullshit": 4765,
      "fifa": 4766,
      "transport": 4767,
      "success": 4768,
      "accepted": 4769,
      "deborah": 4770,
      "confused": 4771,
      "aurora": 4772,
      "6th": 4773,
      ":<": 4774,
      "easter": 4775,
      "kale": 4776,
      "nb": 4777,
      "ino": 4778,
      "oups": 4779,
      "atmo": 4780,
      "beha": 4781,
      "rock": 4782,
      "lill": 4783,
      "activ": 4784,
      "laila": 4785,
      "jodie": 4786,
      "iron": 4787,
      "rage": 4788,
      "theres": 4789,
      "compl": 4790,
      "berry": 4791,
      "petra": 4792,
      "trad": 4793,
      "madeline": 4794,
      "georgina": 4795,
      "frederick": 4796,
      "perfectly": 4797,
      "headache": 4798,
      "easily": 4799,
      "winston": 4800,
      "attack": 4801,
      "organise": 4802,
      "added": 4803,
      "tristan": 4804,
      "neighbours": 4805,
      "approach": 4806,
      "currently": 4807,
      "organizing": 4808,
      "greece": 4809,
      "brooklyn": 4810,
      "festi": 4811,
      "heavy": 4812,
      "disgusting": 4813,
      "immediately": 4814,
      "spencer": 4815,
      "atmosp": 4816,
      "3pm": 4817,
      "cia": 4818,
      "dina": 4819,
      "dary": 4820,
      "fits": 4821,
      "kno": 4822,
      "nand": 4823,
      "nment": 4824,
      "pra": 4825,
      "von": 4826,
      "yum": 4827,
      "ider": 4828,
      "allen": 4829,
      "doc": 4830,
      "china": 4831,
      "abo": 4832,
      "vert": 4833,
      "lains": 4834,
      "iffer": 4835,
      "sage": 4836,
      "themselves": 4837,
      "typical": 4838,
      "spring": 4839,
      "dying": 4840,
      "thai": 4841,
      "meaning": 4842,
      "bills": 4843,
      "reschedule": 4844,
      "mira": 4845,
      "ginny": 4846,
      "jorge": 4847,
      "calend": 4848,
      "arianna": 4849,
      "government": 4850,
      "necessary": 4851,
      "extremely": 4852,
      "invest": 4853,
      "volunte": 4854,
      "behavi": 4855,
      "7th": 4856,
      "pun": 4857,
      "pablo": 4858,
      "sion": 4859,
      "var": 4860,
      "oul": 4861,
      "stage": 4862,
      "nooooo": 4863,
      "kee": 4864,
      "esther": 4865,
      "america": 4866,
      "cody": 4867,
      "willing": 4868,
      "nails": 4869,
      "major": 4870,
      "ours": 4871,
      "urt": 4872,
      "excell": 4873,
      "ohhh": 4874,
      "groups": 4875,
      "janette": 4876,
      "gerald": 4877,
      "mummy": 4878,
      "eaten": 4879,
      "calvin": 4880,
      "eventually": 4881,
      "crying": 4882,
      "angelica": 4883,
      "kuba": 4884,
      "bunny": 4885,
      "president": 4886,
      "festival": 4887,
      "aver": 4888,
      "bout": 4889,
      "cil": 4890,
      "gie": 4891,
      "omy": 4892,
      "une": 4893,
      "yas": 4894,
      "reggie": 4895,
      "ency": 4896,
      "seat": 4897,
      "rowed": 4898,
      "ably": 4899,
      "therap": 4900,
      "commit": 4901,
      "rude": 4902,
      "chose": 4903,
      "stories": 4904,
      "serge": 4905,
      "applic": 4906,
      "booking": 4907,
      "elliot": 4908,
      "freaking": 4909,
      "bailey": 4910,
      "shared": 4911,
      "fake": 4912,
      "norma": 4913,
      "lance": 4914,
      "useful": 4915,
      "compan": 4916,
      "lines": 4917,
      "surprising": 4918,
      "hairdresser": 4919,
      "subway": 4920,
      "parker": 4921,
      "ezra": 4922,
      "younger": 4923,
      "angelina": 4924,
      "xoxo": 4925,
      "million": 4926,
      "michaela": 4927,
      "improve": 4928,
      "original": 4929,
      "advance": 4930,
      "occasion": 4931,
      "phillip": 4932,
      "daryl": 4933,
      "cv": 4934,
      "kerry": 4935,
      "kira": 4936,
      "lma": 4937,
      "mack": 4938,
      "nar": 4939,
      "stom": 4940,
      "rell": 4941,
      "stun": 4942,
      "nose": 4943,
      "seats": 4944,
      "whis": 4945,
      "rik": 4946,
      "oken": 4947,
      "shed": 4948,
      "master": 4949,
      "depart": 4950,
      "cara": 4951,
      "els": 4952,
      "plea": 4953,
      "patient": 4954,
      "friendly": 4955,
      "cue": 4956,
      "couch": 4957,
      "bartek": 4958,
      "player": 4959,
      "norman": 4960,
      "appear": 4961,
      "sweater": 4962,
      "handle": 4963,
      "handsome": 4964,
      "workshop": 4965,
      "dropped": 4966,
      "hopes": 4967,
      "respons": 4968,
      "teaching": 4969,
      "animals": 4970,
      "carolyn": 4971,
      "character": 4972,
      "informs": 4973,
      "phew": 4974,
      "kieran": 4975,
      "lorenzo": 4976,
      "atmosphere": 4977,
      "excellent": 4978,
      "90": 4979,
      "ahaha": 4980,
      "bay": 4981,
      "raul": 4982,
      "uro": 4983,
      "rele": 4984,
      "related": 4985,
      "towards": 4986,
      "sting": 4987,
      "lexi": 4988,
      "enger": 4989,
      "lore": 4990,
      "tia": 4991,
      "marsha": 4992,
      "sheet": 4993,
      "ending": 4994,
      "peace": 4995,
      "bott": 4996,
      "tax": 4997,
      "bernie": 4998,
      "nigel": 4999,
      "ians": 5000,
      "annon": 5001,
      "studio": 5002,
      "cuz": 5003,
      "dishes": 5004,
      "breaking": 5005,
      "natural": 5006,
      "invo": 5007,
      "turkey": 5008,
      "setting": 5009,
      "voted": 5010,
      "juliet": 5011,
      "jasper": 5012,
      "signed": 5013,
      "pedro": 5014,
      "model": 5015,
      "modern": 5016,
      "aunti": 5017,
      "aisha": 5018,
      "bday": 5019,
      "ehh": 5020,
      "kane": 5021,
      "np": 5022,
      "ooh": 5023,
      "slight": 5024,
      "smell": 5025,
      "una": 5026,
      "ware": 5027,
      "coat": 5028,
      "cooked": 5029,
      "adays": 5030,
      "ria": 5031,
      "cancer": 5032,
      "marshall": 5033,
      "shel": 5034,
      "shout": 5035,
      "shannon": 5036,
      "author": 5037,
      "papa": 5038,
      "dustin": 5039,
      "showed": 5040,
      "penelo": 5041,
      "trudy": 5042,
      "badly": 5043,
      "borrowed": 5044,
      "shitty": 5045,
      "chall": 5046,
      "gene": 5047,
      "strugg": 5048,
      "allergic": 5049,
      "arriving": 5050,
      "settled": 5051,
      "reports": 5052,
      "accommodation": 5053,
      "responsible": 5054,
      "),": 5055,
      "fol": 5056,
      "kara": 5057,
      "merry": 5058,
      "omar": 5059,
      "thri": 5060,
      "inju": 5061,
      "ariana": 5062,
      "liv": 5063,
      "lder": 5064,
      "suspect": 5065,
      "nowadays": 5066,
      "canada": 5067,
      "ahhh": 5068,
      "sav": 5069,
      "elsa": 5070,
      "elsie": 5071,
      "process": 5072,
      "gain": 5073,
      "bray": 5074,
      "mmmm": 5075,
      "shocked": 5076,
      "trailer": 5077,
      "truly": 5078,
      "kaz": 5079,
      "jobs": 5080,
      "parcel": 5081,
      "xxxx": 5082,
      "clem": 5083,
      "eleon": 5084,
      "suggestions": 5085,
      "nearly": 5086,
      "nearby": 5087,
      "killing": 5088,
      "maths": 5089,
      "connection": 5090,
      "ginger": 5091,
      "exercis": 5092,
      "snacks": 5093,
      "wyatt": 5094,
      "professional": 5095,
      "jacqueline": 5096,
      "penelope": 5097,
      "km": 5098,
      "mou": 5099,
      "mie": 5100,
      "nam": 5101,
      "spre": 5102,
      "thre": 5103,
      "reli": 5104,
      "hetty": 5105,
      "lete": 5106,
      "sofa": 5107,
      "josie": 5108,
      "marisa": 5109,
      "impressed": 5110,
      "degre": 5111,
      "plants": 5112,
      "boat": 5113,
      "greet": 5114,
      "comment": 5115,
      "rum": 5116,
      "quire": 5117,
      "byn": 5118,
      "forest": 5119,
      "jenson": 5120,
      "lennon": 5121,
      "baking": 5122,
      "based": 5123,
      "izzy": 5124,
      "inviting": 5125,
      "2019": 5126,
      "ricardo": 5127,
      "leaves": 5128,
      "airb": 5129,
      "loud": 5130,
      "recommendations": 5131,
      "owner": 5132,
      "suggested": 5133,
      "adrien": 5134,
      "killed": 5135,
      "starving": 5136,
      "starbucks": 5137,
      "croat": 5138,
      "dreams": 5139,
      "episodes": 5140,
      "smoke": 5141,
      "pills": 5142,
      "chapter": 5143,
      "grateful": 5144,
      "complicated": 5145,
      "auntie": 5146,
      "degrees": 5147,
      "lina": 5148,
      "race": 5149,
      "rica": 5150,
      "slo": 5151,
      "anor": 5152,
      "hector": 5153,
      "bea": 5154,
      "robyn": 5155,
      "holy": 5156,
      "alo": 5157,
      "across": 5158,
      "advent": 5159,
      "addison": 5160,
      "moon": 5161,
      "teo": 5162,
      "delete": 5163,
      "autu": 5164,
      "lug": 5165,
      "mur": 5166,
      "annah": 5167,
      "stock": 5168,
      "germany": 5169,
      "push": 5170,
      "lord": 5171,
      "showing": 5172,
      "nestor": 5173,
      "rachael": 5174,
      "clair": 5175,
      "projects": 5176,
      "gency": 5177,
      "amelie": 5178,
      "grandpa": 5179,
      "score": 5180,
      "burn": 5181,
      "spoke": 5182,
      "packing": 5183,
      "films": 5184,
      "selma": 5185,
      "octo": 5186,
      "operation": 5187,
      "marika": 5188,
      "castle": 5189,
      "hayley": 5190,
      "following": 5191,
      "vivian": 5192,
      "felicia": 5193,
      "sandw": 5194,
      "competition": 5195,
      "scrat": 5196,
      "directly": 5197,
      "pounds": 5198,
      "particip": 5199,
      "autumn": 5200,
      "28": 5201,
      "5th": 5202,
      "bac": 5203,
      "bly": 5204,
      "crac": 5205,
      "hir": 5206,
      "ique": 5207,
      "jtek": 5208,
      "kend": 5209,
      "klau": 5210,
      "pure": 5211,
      "sour": 5212,
      "vive": 5213,
      "iness": 5214,
      "atic": 5215,
      "onto": 5216,
      "onso": 5217,
      "ens": 5218,
      "encou": 5219,
      "roberta": 5220,
      "dot": 5221,
      "ads": 5222,
      "tight": 5223,
      "irma": 5224,
      "tasty": 5225,
      "talent": 5226,
      "comments": 5227,
      "hilar": 5228,
      "whom": 5229,
      "wojtek": 5230,
      "jeniffer": 5231,
      "dum": 5232,
      "rences": 5233,
      "countries": 5234,
      "numbers": 5235,
      "eleanor": 5236,
      "supervis": 5237,
      "gabriella": 5238,
      "lights": 5239,
      "sharing": 5240,
      "😂😂😂": 5241,
      "purpose": 5242,
      "marcin": 5243,
      "crowded": 5244,
      "argument": 5245,
      "cecilia": 5246,
      "destroyed": 5247,
      "suddenly": 5248,
      "colleagues": 5249,
      "grayson": 5250,
      "claims": 5251,
      "creepy": 5252,
      "emergency": 5253,
      "calendar": 5254,
      "mouth": 5255,
      "october": 5256,
      "klaudia": 5257,
      "dess": 5258,
      "dated": 5259,
      "fas": 5260,
      "jet": 5261,
      "rate": 5262,
      "scan": 5263,
      "anti": 5264,
      "hazel": 5265,
      "enga": 5266,
      "escape": 5267,
      "imo": 5268,
      "yellow": 5269,
      "celia": 5270,
      "parts": 5271,
      "assing": 5272,
      "fami": 5273,
      "blin": 5274,
      "nuts": 5275,
      "damien": 5276,
      "skip": 5277,
      "casey": 5278,
      "aware": 5279,
      "drake": 5280,
      "britney": 5281,
      "temper": 5282,
      "appeared": 5283,
      "valentine": 5284,
      "incredible": 5285,
      "airbnb": 5286,
      "!?": 5287,
      "23": 5288,
      "cig": 5289,
      "fay": 5290,
      "iphone": 5291,
      "rn": 5292,
      "influ": 5293,
      "relea": 5294,
      "recover": 5295,
      "envy": 5296,
      "noo": 5297,
      "bever": 5298,
      "web": 5299,
      "nasty": 5300,
      "depressed": 5301,
      "ups": 5302,
      "plat": 5303,
      "ourselves": 5304,
      "provid": 5305,
      "luisa": 5306,
      "compare": 5307,
      "quid": 5308,
      "quent": 5309,
      "iland": 5310,
      "ignor": 5311,
      "asshole": 5312,
      "agata": 5313,
      "charger": 5314,
      "daily": 5315,
      "players": 5316,
      "corn": 5317,
      "cory": 5318,
      "robbie": 5319,
      "north": 5320,
      "lane": 5321,
      "osing": 5322,
      "survive": 5323,
      "damon": 5324,
      "richie": 5325,
      "aww": 5326,
      "reese": 5327,
      "promises": 5328,
      "jonas": 5329,
      "discussing": 5330,
      "yyyy": 5331,
      "experien": 5332,
      "iiii": 5333,
      "mariah": 5334,
      "camera": 5335,
      "slowly": 5336,
      "smoking": 5337,
      "solve": 5338,
      "vegetables": 5339,
      "involved": 5340,
      "amazon": 5341,
      "develop": 5342,
      "bottles": 5343,
      "croatia": 5344,
      "hilarious": 5345,
      "released": 5346,
      "aj": 5347,
      "bble": 5348,
      "ema": 5349,
      "gun": 5350,
      "ias": 5351,
      "rit": 5352,
      "tinder": 5353,
      "ville": 5354,
      "wol": 5355,
      "mechan": 5356,
      "hal": 5357,
      "hau": 5358,
      "noise": 5359,
      "allo": 5360,
      "suck": 5361,
      "marks": 5362,
      "delet": 5363,
      "likely": 5364,
      "mian": 5365,
      "yesss": 5366,
      "gather": 5367,
      "hip": 5368,
      "ards": 5369,
      "bless": 5370,
      "janine": 5371,
      "samsun": 5372,
      "serve": 5373,
      "drama": 5374,
      "kenny": 5375,
      "supper": 5376,
      "darrell": 5377,
      "sist": 5378,
      "hardly": 5379,
      "jonah": 5380,
      "babes": 5381,
      "messenger": 5382,
      "confirmed": 5383,
      "entertain": 5384,
      "memories": 5385,
      "communic": 5386,
      "invoice": 5387,
      "luggage": 5388,
      "samsung": 5389,
      "5pm": 5390,
      "fet": 5391,
      "oy": 5392,
      "pants": 5393,
      "sple": 5394,
      "tabby": 5395,
      "vable": 5396,
      "refe": 5397,
      "require": 5398,
      "hemian": 5399,
      "seme": 5400,
      "robe": 5401,
      "alvin": 5402,
      "alba": 5403,
      "cock": 5404,
      "abroad": 5405,
      "ability": 5406,
      "marlene": 5407,
      "sometime": 5408,
      "deep": 5409,
      "delive": 5410,
      "ender": 5411,
      "celine": 5412,
      "bohemian": 5413,
      "sake": 5414,
      "progress": 5415,
      "exhau": 5416,
      "path": 5417,
      "erson": 5418,
      "trash": 5419,
      "thailand": 5420,
      "moro": 5421,
      "barcel": 5422,
      "maddy": 5423,
      "babys": 5424,
      "career": 5425,
      "speed": 5426,
      "pull": 5427,
      "tons": 5428,
      "tonia": 5429,
      "freezing": 5430,
      "border": 5431,
      "tune": 5432,
      "texts": 5433,
      "understanding": 5434,
      "ordering": 5435,
      "formal": 5436,
      "sweets": 5437,
      "burger": 5438,
      "smaller": 5439,
      "reasonable": 5440,
      "octa": 5441,
      "effect": 5442,
      "smoo": 5443,
      "lucia": 5444,
      "capital": 5445,
      "responsi": 5446,
      "refuses": 5447,
      "characters": 5448,
      "grocery": 5449,
      "bryce": 5450,
      "alyssa": 5451,
      "skills": 5452,
      "lillian": 5453,
      "delivered": 5454,
      "barcelona": 5455,
      "4pm": 5456,
      "blind": 5457,
      "ult": 5458,
      "itself": 5459,
      "hamm": 5460,
      "became": 5461,
      "rot": 5462,
      "role": 5463,
      "gos": 5464,
      "alfie": 5465,
      "amp": 5466,
      "raine": 5467,
      "rail": 5468,
      "sapp": 5469,
      "mut": 5470,
      "exag": 5471,
      "fox": 5472,
      "arabella": 5473,
      "jacky": 5474,
      "geri": 5475,
      "downtown": 5476,
      "menu": 5477,
      "lived": 5478,
      "dddd": 5479,
      "twitter": 5480,
      "grandmother": 5481,
      "cleaner": 5482,
      "burg": 5483,
      "lawyer": 5484,
      "considers": 5485,
      "jeanette": 5486,
      "shirts": 5487,
      "smile": 5488,
      "answering": 5489,
      "fishing": 5490,
      "fabian": 5491,
      "honda": 5492,
      "neighbourhood": 5493,
      "battery": 5494,
      "virgin": 5495,
      "deserve": 5496,
      "documents": 5497,
      "stefano": 5498,
      "material": 5499,
      "tiny": 5500,
      "wesley": 5501,
      "record": 5502,
      "2moro": 5503,
      "ave": 5504,
      "jada": 5505,
      "mass": 5506,
      "pig": 5507,
      "rash": 5508,
      "sig": 5509,
      "yd": 5510,
      "thin": 5511,
      "oned": 5512,
      "semin": 5513,
      "asure": 5514,
      "sooooo": 5515,
      "idence": 5516,
      "loose": 5517,
      "ador": 5518,
      "suzy": 5519,
      "til": 5520,
      "tiring": 5521,
      "whatsapp": 5522,
      "marla": 5523,
      "motor": 5524,
      "mollie": 5525,
      "hers": 5526,
      "pei": 5527,
      "saved": 5528,
      "berto": 5529,
      "quel": 5530,
      "backpack": 5531,
      "hadn": 5532,
      "sorted": 5533,
      "ffy": 5534,
      "clin": 5535,
      "barbe": 5536,
      "dist": 5537,
      "printer": 5538,
      "ashton": 5539,
      "bird": 5540,
      "suppor": 5541,
      "katia": 5542,
      "collection": 5543,
      "juliette": 5544,
      "basic": 5545,
      "hurts": 5546,
      "spoil": 5547,
      "cription": 5548,
      "independ": 5549,
      "boarding": 5550,
      "painting": 5551,
      "matters": 5552,
      "hanging": 5553,
      "falling": 5554,
      "scheduled": 5555,
      "russian": 5556,
      "kirk": 5557,
      "felicity": 5558,
      "customer": 5559,
      "continue": 5560,
      "application": 5561,
      "dessert": 5562,
      "engaged": 5563,
      "semester": 5564,
      "'.": 5565,
      "//": 5566,
      "1pm": 5567,
      "=)": 5568,
      "east": 5569,
      "hr": 5570,
      "iah": 5571,
      "ius": 5572,
      "kass": 5573,
      "kins": 5574,
      "oven": 5575,
      "tasks": 5576,
      "twins": 5577,
      "ury": 5578,
      "hesit": 5579,
      "edu": 5580,
      "nego": 5581,
      "neck": 5582,
      "lois": 5583,
      "coach": 5584,
      "marvin": 5585,
      "tomas": 5586,
      "probs": 5587,
      "ssy": 5588,
      "exper": 5589,
      "workers": 5590,
      "perfu": 5591,
      "ohh": 5592,
      "lottie": 5593,
      "freak": 5594,
      "dressed": 5595,
      "weekends": 5596,
      "tries": 5597,
      "earn": 5598,
      "created": 5599,
      "portug": 5600,
      "reality": 5601,
      "archite": 5602,
      "decides": 5603,
      "glas": 5604,
      "sexy": 5605,
      "gradu": 5606,
      "francesca": 5607,
      "kirsten": 5608,
      "proposed": 5609,
      "kisses": 5610,
      "arrival": 5611,
      "michal": 5612,
      "culture": 5613,
      "village": 5614,
      "beatrix": 5615,
      "stunning": 5616,
      "savannah": 5617,
      "wolf": 5618,
      "portugal": 5619,
      "__": 5620,
      "dred": 5621,
      "fal": 5622,
      "gala": 5623,
      "ior": 5624,
      "jad": 5625,
      "lab": 5626,
      "ndid": 5627,
      "nur": 5628,
      "ners": 5629,
      "uh": 5630,
      "attr": 5631,
      "ernest": 5632,
      "meals": 5633,
      "lemon": 5634,
      "novel": 5635,
      "aside": 5636,
      "sore": 5637,
      "lim": 5638,
      "loo": 5639,
      "lock": 5640,
      "coz": 5641,
      "abor": 5642,
      "named": 5643,
      "depress": 5644,
      "upstairs": 5645,
      "tag": 5646,
      "tage": 5647,
      "africa": 5648,
      "quiz": 5649,
      "ilities": 5650,
      "granny": 5651,
      "wasted": 5652,
      "assist": 5653,
      "asts": 5654,
      "vision": 5655,
      "drank": 5656,
      "inten": 5657,
      "laurie": 5658,
      "300": 5659,
      "emil": 5660,
      "renting": 5661,
      "maxine": 5662,
      "ows": 5663,
      "lands": 5664,
      "payton": 5665,
      "brianna": 5666,
      "posts": 5667,
      "agreement": 5668,
      "hundred": 5669,
      "resign": 5670,
      "value": 5671,
      "faster": 5672,
      "nathaniel": 5673,
      "cleaned": 5674,
      "effort": 5675,
      "aida": 5676,
      "hangover": 5677,
      "promotion": 5678,
      "tomatoes": 5679,
      "embarr": 5680,
      "pleased": 5681,
      "exercises": 5682,
      "spread": 5683,
      "beverly": 5684,
      "splendid": 5685,
      "smooth": 5686,
      "responsib": 5687,
      "34": 5688,
      "ied": 5689,
      "lone": 5690,
      "pit": 5691,
      "plast": 5692,
      "piano": 5693,
      "uhm": 5694,
      "yvon": 5695,
      "anast": 5696,
      "inc": 5697,
      "ariel": 5698,
      "andro": 5699,
      "ena": 5700,
      "soo": 5701,
      "sody": 5702,
      "tific": 5703,
      "verse": 5704,
      "knowing": 5705,
      "antly": 5706,
      "audi": 5707,
      "proof": 5708,
      "spag": 5709,
      "telle": 5710,
      "answers": 5711,
      "coun": 5712,
      "ized": 5713,
      "norm": 5714,
      "native": 5715,
      "understood": 5716,
      "creative": 5717,
      "camila": 5718,
      "dorian": 5719,
      "skir": 5720,
      "bedroom": 5721,
      "blog": 5722,
      "blocked": 5723,
      "concerned": 5724,
      "doctors": 5725,
      "restaurants": 5726,
      "translation": 5727,
      "pieces": 5728,
      "gentle": 5729,
      "cruise": 5730,
      "swim": 5731,
      "arrang": 5732,
      "further": 5733,
      "notebook": 5734,
      "stressful": 5735,
      "reviews": 5736,
      "impressive": 5737,
      "chips": 5738,
      "nelson": 5739,
      "regarding": 5740,
      "official": 5741,
      "basketball": 5742,
      "potatoes": 5743,
      "hetti": 5744,
      "stomach": 5745,
      "hiram": 5746,
      "exagger": 5747,
      "anastasia": 5748,
      "?!!": 5749,
      "cket": 5750,
      "fra": 5751,
      "ials": 5752,
      "javier": 5753,
      "uhh": 5754,
      "reaction": 5755,
      "arian": 5756,
      "heating": 5757,
      "sters": 5758,
      "ener": 5759,
      "enne": 5760,
      "sees": 5761,
      "secur": 5762,
      "weed": 5763,
      "libby": 5764,
      "neva": 5765,
      "outfit": 5766,
      "jojo": 5767,
      "moira": 5768,
      "pest": 5769,
      "goodbye": 5770,
      "prote": 5771,
      "lukas": 5772,
      "cheated": 5773,
      "precise": 5774,
      "helmut": 5775,
      "jennie": 5776,
      "misty": 5777,
      "dump": 5778,
      "benny": 5779,
      "discovered": 5780,
      "babies": 5781,
      "tennis": 5782,
      "vices": 5783,
      "ttyl": 5784,
      "lars": 5785,
      "useless": 5786,
      "rosemary": 5787,
      "realised": 5788,
      "karina": 5789,
      "salmon": 5790,
      "blair": 5791,
      "emails": 5792,
      "sadie": 5793,
      "rings": 5794,
      "draw": 5795,
      "logist": 5796,
      "sharpei": 5797,
      "advise": 5798,
      "oppos": 5799,
      "booze": 5800,
      "furnit": 5801,
      "kelvin": 5802,
      "exercise": 5803,
      "technic": 5804,
      "medicine": 5805,
      "groceries": 5806,
      "bowling": 5807,
      "frustrated": 5808,
      "sightseeing": 5809,
      "declan": 5810,
      "assume": 5811,
      "slightly": 5812,
      "hammad": 5813,
      "barbecue": 5814,
      "spaghetti": 5815,
      "normally": 5816,
      "security": 5817,
      "furniture": 5818,
      "55": 5819,
      "aha": 5820,
      "caf": 5821,
      "lack": 5822,
      "py": 5823,
      "thous": 5824,
      "repe": 5825,
      "rend": 5826,
      "ark": 5827,
      "arnie": 5828,
      "argue": 5829,
      "leine": 5830,
      "haley": 5831,
      "weak": 5832,
      "fortune": 5833,
      "neville": 5834,
      "lower": 5835,
      "jokes": 5836,
      "terms": 5837,
      "rafa": 5838,
      "fired": 5839,
      "cecil": 5840,
      "sales": 5841,
      "hiking": 5842,
      "nies": 5843,
      "usz": 5844,
      "cali": 5845,
      "ctic": 5846,
      "pharm": 5847,
      "gran": 5848,
      "jazz": 5849,
      "lisbon": 5850,
      "dublin": 5851,
      "1000": 5852,
      "cares": 5853,
      "shape": 5854,
      "large": 5855,
      "recommendation": 5856,
      "zoey": 5857,
      "block": 5858,
      "karin": 5859,
      "curry": 5860,
      "scarf": 5861,
      "solution": 5862,
      "legs": 5863,
      "bags": 5864,
      "european": 5865,
      "randall": 5866,
      "grown": 5867,
      "islands": 5868,
      "decorations": 5869,
      "members": 5870,
      "judge": 5871,
      "dexter": 5872,
      "ciao": 5873,
      "keegan": 5874,
      "adventure": 5875,
      "negoti": 5876,
      "expert": 5877,
      "2pm": 5878,
      "dim": 5879,
      "dwayne": 5880,
      "kok": 5881,
      "mme": 5882,
      "sven": 5883,
      "vouch": 5884,
      "wit": 5885,
      "thro": 5886,
      "thus": 5887,
      "thron": 5888,
      "remo": 5889,
      "theme": 5890,
      "sum": 5891,
      "jun": 5892,
      "demo": 5893,
      "ppa": 5894,
      "carlie": 5895,
      "artur": 5896,
      "qua": 5897,
      "bron": 5898,
      "phy": 5899,
      "phne": 5900,
      "grade": 5901,
      "acting": 5902,
      "johny": 5903,
      "mental": 5904,
      "cya": 5905,
      "dul": 5906,
      "brody": 5907,
      "daphne": 5908,
      "forecast": 5909,
      "janek": 5910,
      "shake": 5911,
      "crew": 5912,
      "brigit": 5913,
      "fuckin": 5914,
      "walt": 5915,
      "believable": 5916,
      "madeleine": 5917,
      "!!!!!!": 5918,
      "flower": 5919,
      "election": 5920,
      "nicolas": 5921,
      "salary": 5922,
      "haircut": 5923,
      "arrives": 5924,
      "highly": 5925,
      "oleg": 5926,
      "recipes": 5927,
      "fantasy": 5928,
      "result": 5929,
      "kota": 5930,
      "returned": 5931,
      "campus": 5932,
      "potter": 5933,
      "dirk": 5934,
      "memory": 5935,
      "spirit": 5936,
      "apologize": 5937,
      "reckons": 5938,
      "itude": 5939,
      "plumber": 5940,
      "destiny": 5941,
      "divorce": 5942,
      "platform": 5943,
      "allowed": 5944,
      "thrones": 5945,
      "brigitte": 5946,
      "33": 5947,
      ":>": 5948,
      "cad": 5949,
      "glu": 5950,
      "kow": 5951,
      "kurt": 5952,
      "sier": 5953,
      "tall": 5954,
      "tann": 5955,
      "wan": 5956,
      "wade": 5957,
      "rehear": 5958,
      "alter": 5959,
      "edith": 5960,
      "coast": 5961,
      "ceed": 5962,
      "pln": 5963,
      "elise": 5964,
      "provide": 5965,
      "mul": 5966,
      "hilda": 5967,
      "preston": 5968,
      "thanksgiving": 5969,
      "spider": 5970,
      "callum": 5971,
      "patience": 5972,
      "oops": 5973,
      "aggie": 5974,
      "misses": 5975,
      "partying": 5976,
      "madrid": 5977,
      "gerard": 5978,
      "remem": 5979,
      "biggest": 5980,
      "century": 5981,
      "flies": 5982,
      "desp": 5983,
      "clue": 5984,
      "organising": 5985,
      "views": 5986,
      "finishes": 5987,
      "explains": 5988,
      "boxes": 5989,
      "management": 5990,
      "milton": 5991,
      "swit": 5992,
      "gordon": 5993,
      "fighting": 5994,
      "ships": 5995,
      "annoyed": 5996,
      "ledge": 5997,
      "including": 5998,
      "kelsey": 5999,
      "refused": 6000,
      "21st": 6001,
      "flash": 6002,
      "postpone": 6003,
      "employe": 6004,
      "temperature": 6005,
      "yvonne": 6006,
      "thousand": 6007,
      "500": 6008,
      "dson": 6009,
      "gart": 6010,
      "kla": 6011,
      "knee": 6012,
      "lac": 6013,
      "plot": 6014,
      "rhonda": 6015,
      "sink": 6016,
      "sash": 6017,
      "tis": 6018,
      "w8": 6019,
      "isse": 6020,
      "ises": 6021,
      "isher": 6022,
      "aran": 6023,
      "hap": 6024,
      "section": 6025,
      "whit": 6026,
      "chip": 6027,
      "coke": 6028,
      "advert": 6029,
      "ldon": 6030,
      "joona": 6031,
      "knowledge": 6032,
      "terrence": 6033,
      "maps": 6034,
      "gees": 6035,
      "shona": 6036,
      "milan": 6037,
      "india": 6038,
      "comfy": 6039,
      "cheating": 6040,
      "ilt": 6041,
      "spam": 6042,
      "spoken": 6043,
      "happiness": 6044,
      "mistakes": 6045,
      "ciara": 6046,
      "disaster": 6047,
      ":(((": 6048,
      "hum": 6049,
      "freda": 6050,
      "freddy": 6051,
      "20th": 6052,
      "lley": 6053,
      "desper": 6054,
      "umbre": 6055,
      "barbie": 6056,
      "deals": 6057,
      "higher": 6058,
      "engine": 6059,
      "pancakes": 6060,
      "hotels": 6061,
      "logical": 6062,
      "learned": 6063,
      "painful": 6064,
      "clarisse": 6065,
      "bottom": 6066,
      "cruel": 6067,
      "colours": 6068,
      "ramona": 6069,
      "windows": 6070,
      "propose": 6071,
      "included": 6072,
      "sauce": 6073,
      "impression": 6074,
      "yannick": 6075,
      "convenient": 6076,
      "costume": 6077,
      "activities": 6078,
      "yummy": 6079,
      "above": 6080,
      "unex": 6081,
      "deleted": 6082,
      "opposite": 6083,
      ")(": 6084,
      "29": 6085,
      "ao": 6086,
      "ease": 6087,
      "fans": 6088,
      "lona": 6089,
      "oting": 6090,
      "rh": 6091,
      "sch": 6092,
      "ini": 6093,
      "inspir": 6094,
      "mered": 6095,
      "heat": 6096,
      "held": 6097,
      "stro": 6098,
      "enzie": 6099,
      "bered": 6100,
      "separ": 6101,
      "icja": 6102,
      "aldo": 6103,
      "alicja": 6104,
      "accu": 6105,
      "subs": 6106,
      "marvel": 6107,
      "marcel": 6108,
      "image": 6109,
      "nav": 6110,
      "geo": 6111,
      "inkill": 6112,
      "rael": 6113,
      "raquel": 6114,
      "luv": 6115,
      "polic": 6116,
      "predic": 6117,
      "grac": 6118,
      "painkill": 6119,
      "iggy": 6120,
      "jannet": 6121,
      "mini": 6122,
      "watches": 6123,
      "finan": 6124,
      "choices": 6125,
      "choosing": 6126,
      "stops": 6127,
      "lates": 6128,
      "cum": 6129,
      "bits": 6130,
      "speaks": 6131,
      "sites": 6132,
      "linn": 6133,
      "sleepy": 6134,
      "mercy": 6135,
      "mirror": 6136,
      "burgers": 6137,
      "kristina": 6138,
      "congratu": 6139,
      "reasons": 6140,
      "19th": 6141,
      "snowing": 6142,
      "warming": 6143,
      "wilma": 6144,
      "describe": 6145,
      "description": 6146,
      "japanese": 6147,
      "avengers": 6148,
      "maurice": 6149,
      "emotion": 6150,
      "nandez": 6151,
      "therapy": 6152,
      "fascin": 6153,
      "clinic": 6154,
      "distance": 6155,
      "lonely": 6156,
      "sierra": 6157,
      "despite": 6158,
      ":‑": 6159,
      "\\\\": 6160,
      "cie": 6161,
      "cough": 6162,
      "ea": 6163,
      "oil": 6164,
      "pru": 6165,
      "vit": 6166,
      "yi": 6167,
      "yah": 6168,
      "ano": 6169,
      "antoni": 6170,
      "tops": 6171,
      "issac": 6172,
      "sele": 6173,
      "actor": 6174,
      "losing": 6175,
      "doreen": 6176,
      "lah": 6177,
      "jogging": 6178,
      "mara": 6179,
      "sheldon": 6180,
      "geoff": 6181,
      "fear": 6182,
      "plac": 6183,
      "constru": 6184,
      "permission": 6185,
      "kings": 6186,
      "chosen": 6187,
      "stole": 6188,
      "studied": 6189,
      "agency": 6190,
      "tram": 6191,
      "applied": 6192,
      "breaks": 6193,
      "gerry": 6194,
      "baked": 6195,
      "obli": 6196,
      "ireland": 6197,
      "cambridge": 6198,
      "15th": 6199,
      "content": 6200,
      "julianna": 6201,
      "additional": 6202,
      "garlic": 6203,
      "shortly": 6204,
      "celebrating": 6205,
      "attending": 6206,
      "hitting": 6207,
      "confirmation": 6208,
      "russia": 6209,
      "matilde": 6210,
      "kiss": 6211,
      "cosme": 6212,
      "science": 6213,
      "golden": 6214,
      "istics": 6215,
      "biology": 6216,
      "behaviour": 6217,
      "railway": 6218,
      "multi": 6219,
      "umbrella": 6220,
      "unexpect": 6221,
      "meredith": 6222,
      "antonio": 6223,
      ":×": 6224,
      "^)": 6225,
      "bald": 6226,
      "dit": 6227,
      "gise": 6228,
      "gloves": 6229,
      "hou": 6230,
      "kra": 6231,
      "mck": 6232,
      "morrow": 6233,
      "nac": 6234,
      "nab": 6235,
      "pla": 6236,
      "rhap": 6237,
      "yr": 6238,
      "🤣🤣": 6239,
      "measure": 6240,
      "ories": 6241,
      "ordin": 6242,
      "heh": 6243,
      "stic": 6244,
      "states": 6245,
      "noooo": 6246,
      "becoming": 6247,
      "roof": 6248,
      "lik": 6249,
      "hob": 6250,
      "force": 6251,
      "aches": 6252,
      "loss": 6253,
      "dol": 6254,
      "cow": 6255,
      "adult": 6256,
      "iran": 6257,
      "nail": 6258,
      "delia": 6259,
      "unbelievable": 6260,
      "female": 6261,
      "austri": 6262,
      "tail": 6263,
      "muff": 6264,
      "gur": 6265,
      "rise": 6266,
      "talks": 6267,
      "ager": 6268,
      "tracey": 6269,
      "moron": 6270,
      "stays": 6271,
      "30pm": 6272,
      "league": 6273,
      "nature": 6274,
      "roommate": 6275,
      "nicki": 6276,
      "closing": 6277,
      "campa": 6278,
      "desig": 6279,
      "champ": 6280,
      "volu": 6281,
      "attitude": 6282,
      "england": 6283,
      "blame": 6284,
      "crack": 6285,
      "euros": 6286,
      "marriage": 6287,
      "laurel": 6288,
      "legal": 6289,
      "sharp": 6290,
      "opinions": 6291,
      "tattoo": 6292,
      "grades": 6293,
      "organized": 6294,
      "confident": 6295,
      "factory": 6296,
      "devil": 6297,
      "collins": 6298,
      "introduce": 6299,
      "various": 6300,
      "release": 6301,
      "shelter": 6302,
      "quentin": 6303,
      "referend": 6304,
      "remembered": 6305,
      "fascinating": 6306,
      "pruden": 6307,
      "cosmetics": 6308,
      "unexpected": 6309,
      "rhapsody": 6310,
      "(^": 6311,
      "65": 6312,
      "98": 6313,
      "aat": 6314,
      "bris": 6315,
      "bass": 6316,
      "cit": 6317,
      "ccer": 6318,
      "dama": 6319,
      "ewa": 6320,
      "ghost": 6321,
      "kent": 6322,
      "l8": 6323,
      "otic": 6324,
      "pin": 6325,
      "tou": 6326,
      "anca": 6327,
      "atm": 6328,
      "lemme": 6329,
      "enthus": 6330,
      "soccer": 6331,
      "wifi": 6332,
      "ros": 6333,
      "rox": 6334,
      "liar": 6335,
      "bug": 6336,
      "among": 6337,
      "amka": 6338,
      "adul": 6339,
      "susp": 6340,
      "ryn": 6341,
      "iest": 6342,
      "marly": 6343,
      "imi": 6344,
      "maid": 6345,
      "whel": 6346,
      "updated": 6347,
      "migu": 6348,
      "lux": 6349,
      "poly": 6350,
      "poten": 6351,
      "express": 6352,
      "pers": 6353,
      "rowan": 6354,
      "bran": 6355,
      "items": 6356,
      "fool": 6357,
      "jaz": 6358,
      "whoa": 6359,
      "jeans": 6360,
      "mattie": 6361,
      "matteo": 6362,
      "samara": 6363,
      "trous": 6364,
      "tricia": 6365,
      "serv": 6366,
      "cies": 6367,
      "sybill": 6368,
      "shock": 6369,
      "foreign": 6370,
      "lesley": 6371,
      "brings": 6372,
      "viet": 6373,
      "puppy": 6374,
      "frankly": 6375,
      "ps4": 6376,
      "sitive": 6377,
      "casual": 6378,
      "dressing": 6379,
      "sweat": 6380,
      "heads": 6381,
      "skye": 6382,
      "melvin": 6383,
      "12th": 6384,
      "passion": 6385,
      "oooooooo": 6386,
      "kaylee": 6387,
      "panic": 6388,
      "magic": 6389,
      "crush": 6390,
      "fruits": 6391,
      "banana": 6392,
      "soul": 6393,
      "fatima": 6394,
      "connected": 6395,
      "literature": 6396,
      "clearly": 6397,
      "drug": 6398,
      "princess": 6399,
      "devast": 6400,
      "reckon": 6401,
      "materials": 6402,
      "economy": 6403,
      "lasag": 6404,
      "tricky": 6405,
      "karolina": 6406,
      "kathryn": 6407,
      "bangkok": 6408,
      "ignore": 6409,
      "companies": 6410,
      "fetch": 6411,
      "virginia": 6412,
      "seminar": 6413,
      "perfume": 6414,
      "embarrassing": 6415,
      "plastic": 6416,
      "arranged": 6417,
      "referendum": 6418,
      "damage": 6419,
      "miguel": 6420,
      "sybille": 6421,
      "27": 6422,
      ">,": 6423,
      "aqu": 6424,
      "fisher": 6425,
      "ji": 6426,
      "jace": 6427,
      "jones": 6428,
      "kah": 6429,
      "kicked": 6430,
      "mama": 6431,
      "ppe": 6432,
      "witch": 6433,
      "❤❤": 6434,
      "😊😊": 6435,
      "anger": 6436,
      "ining": 6437,
      "theory": 6438,
      "tomek": 6439,
      "ingred": 6440,
      "seven": 6441,
      "alarm": 6442,
      "nelia": 6443,
      "nett": 6444,
      "bulous": 6445,
      "nowhere": 6446,
      "joys": 6447,
      "malia": 6448,
      "maure": 6449,
      "del": 6450,
      "deposit": 6451,
      "fee": 6452,
      "thern": 6453,
      "austra": 6454,
      "raoul": 6455,
      "pepper": 6456,
      "icking": 6457,
      "poll": 6458,
      "cait": 6459,
      "furious": 6460,
      "chrissy": 6461,
      "doesnt": 6462,
      "jeez": 6463,
      "minis": 6464,
      "stone": 6465,
      "cious": 6466,
      "shots": 6467,
      "bennett": 6468,
      "distur": 6469,
      "breath": 6470,
      "vik": 6471,
      "courses": 6472,
      "cornelia": 6473,
      "hubert": 6474,
      "kinder": 6475,
      "sana": 6476,
      "meds": 6477,
      "blon": 6478,
      "farm": 6479,
      "strate": 6480,
      "karine": 6481,
      "julius": 6482,
      "sensitive": 6483,
      "scot": 6484,
      "gino": 6485,
      "lawrie": 6486,
      "receip": 6487,
      "addic": 6488,
      "cliff": 6489,
      "teachers": 6490,
      "sels": 6491,
      "clarice": 6492,
      "copies": 6493,
      "traveling": 6494,
      "fabio": 6495,
      "reserve": 6496,
      "regularly": 6497,
      "cinthia": 6498,
      "informed": 6499,
      "tomato": 6500,
      "realized": 6501,
      "recogn": 6502,
      "traditional": 6503,
      "struggling": 6504,
      "greetings": 6505,
      "supervisor": 6506,
      "families": 6507,
      "adorable": 6508,
      "skirt": 6509,
      "pharmacy": 6510,
      "throat": 6511,
      "tanner": 6512,
      "garten": 6513,
      "adults": 6514,
      "ingredient": 6515,
      "maureen": 6516,
      "eth": 6517,
      "gb": 6518,
      "gim": 6519,
      "gru": 6520,
      "hide": 6521,
      "ired": 6522,
      "nx": 6523,
      "oma": 6524,
      "pod": 6525,
      "ud": 6526,
      "insis": 6527,
      "rene": 6528,
      "recording": 6529,
      "renov": 6530,
      "melo": 6531,
      "metal": 6532,
      "helene": 6533,
      "hawa": 6534,
      "hallie": 6535,
      "enjoys": 6536,
      "beck": 6537,
      "keiran": 6538,
      "wet": 6539,
      "limit": 6540,
      "hoc": 6541,
      "eddy": 6542,
      "acad": 6543,
      "idy": 6544,
      "buys": 6545,
      "bubble": 6546,
      "cher": 6547,
      "cope": 6548,
      "willy": 6549,
      "tire": 6550,
      "irish": 6551,
      "washer": 6552,
      "ify": 6553,
      "odd": 6554,
      "shor": 6555,
      "delight": 6556,
      "raise": 6557,
      "pey": 6558,
      "hows": 6559,
      "guard": 6560,
      "ples": 6561,
      "commer": 6562,
      "comedy": 6563,
      "perry": 6564,
      "file_link": 6565,
      "rule": 6566,
      "chet": 6567,
      "mony": 6568,
      "pets": 6569,
      "clay": 6570,
      "overwhel": 6571,
      "served": 6572,
      "angelo": 6573,
      "disappeared": 6574,
      "dakota": 6575,
      "applying": 6576,
      "vivi": 6577,
      "lence": 6578,
      "fail": 6579,
      "fabulous": 6580,
      "corin": 6581,
      "tonite": 6582,
      "natty": 6583,
      "landing": 6584,
      "walked": 6585,
      "foundation": 6586,
      "tutor": 6587,
      "warren": 6588,
      "lincol": 6589,
      "headphones": 6590,
      "leroy": 6591,
      "organised": 6592,
      "passing": 6593,
      "meryl": 6594,
      "contacted": 6595,
      "translate": 6596,
      "drawer": 6597,
      "jasna": 6598,
      "magdale": 6599,
      "roads": 6600,
      "yyy": 6601,
      "lectures": 6602,
      "suitcase": 6603,
      "purple": 6604,
      "macie": 6605,
      "collecting": 6606,
      "growing": 6607,
      "promoted": 6608,
      "rolls": 6609,
      "tempor": 6610,
      "vegetarian": 6611,
      "pumpkin": 6612,
      "replied": 6613,
      "folks": 6614,
      "karaoke": 6615,
      "brayden": 6616,
      "cracow": 6617,
      "influence": 6618,
      "policy": 6619,
      "painkillers": 6620,
      "campaign": 6621,
      "trousers": 6622,
      "academ": 6623,
      "lincoln": 6624,
      "><": 6625,
      "bts": 6626,
      "cles": 6627,
      "df": 6628,
      "eco": 6629,
      "gian": 6630,
      "hid": 6631,
      "hated": 6632,
      "ilo": 6633,
      "itor": 6634,
      "rarely": 6635,
      "sna": 6636,
      "usa": 6637,
      "xp": 6638,
      "reed": 6639,
      "remove": 6640,
      "tol": 6641,
      "towel": 6642,
      "meh": 6643,
      "arlo": 6644,
      "arily": 6645,
      "heels": 6646,
      "belong": 6647,
      "lid": 6648,
      "dos": 6649,
      "cherry": 6650,
      "ami": 6651,
      "ambu": 6652,
      "amster": 6653,
      "cot": 6654,
      "adding": 6655,
      "canteen": 6656,
      "lame": 6657,
      "margo": 6658,
      "irdre": 6659,
      "shine": 6660,
      "deirdre": 6661,
      "safer": 6662,
      "indian": 6663,
      "proced": 6664,
      "lukass": 6665,
      "bernad": 6666,
      "pret": 6667,
      "nyc": 6668,
      "folder": 6669,
      "alene": 6670,
      "clint": 6671,
      "gang": 6672,
      "prze": 6673,
      "kaja": 6674,
      "corpor": 6675,
      "hugs": 6676,
      "daddy": 6677,
      "clever": 6678,
      "wardrobe": 6679,
      "?!?": 6680,
      "......": 6681,
      "ilda": 6682,
      "trey": 6683,
      "classic": 6684,
      "clubs": 6685,
      "brus": 6686,
      "metro": 6687,
      "feelings": 6688,
      "curtis": 6689,
      "balls": 6690,
      "prior": 6691,
      "climb": 6692,
      "ulrich": 6693,
      "pascal": 6694,
      "passport": 6695,
      "appreciated": 6696,
      "screw": 6697,
      "micky": 6698,
      "brave": 6699,
      "batman": 6700,
      "boots": 6701,
      "crowd": 6702,
      "programme": 6703,
      "colors": 6704,
      "marek": 6705,
      "prince": 6706,
      "instructor": 6707,
      "instructions": 6708,
      "candid": 6709,
      "jerk": 6710,
      "direction": 6711,
      "realize": 6712,
      "mcdonald": 6713,
      "consult": 6714,
      "cathie": 6715,
      "announced": 6716,
      "critic": 6717,
      "induction": 6718,
      "surprisingly": 6719,
      "scratch": 6720,
      "imogen": 6721,
      "nevaeh": 6722,
      "peyton": 6723,
      "amsterdam": 6724,
      "bernadette": 6725,
      "przemek": 6726,
      "'?": 6727,
      ")/": 6728,
      ".\"": 6729,
      "99": 6730,
      ">.": 6731,
      "ahahah": 6732,
      "awake": 6733,
      "bible": 6734,
      "clip": 6735,
      "cities": 6736,
      "fying": 6737,
      "gaming": 6738,
      "hrs": 6739,
      "kg": 6740,
      "mina": 6741,
      "mous": 6742,
      "mash": 6743,
      "pon": 6744,
      "ping": 6745,
      "sb": 6746,
      "ues": 6747,
      "😁😁": 6748,
      "thum": 6749,
      "ani": 6750,
      "tos": 6751,
      "isol": 6752,
      "itions": 6753,
      "lion": 6754,
      "aco": 6755,
      "acu": 6756,
      "eta": 6757,
      "locked": 6758,
      "chica": 6759,
      "tilda": 6760,
      "lav": 6761,
      "joce": 6762,
      "marina": 6763,
      "dona": 6764,
      "dell": 6765,
      "unusual": 6766,
      "unfair": 6767,
      "femin": 6768,
      "peg": 6769,
      "thered": 6770,
      "cey": 6771,
      "mika": 6772,
      "mush": 6773,
      "poo": 6774,
      "cony": 6775,
      "perform": 6776,
      "gotten": 6777,
      "rubb": 6778,
      "precious": 6779,
      "affect": 6780,
      "quo": 6781,
      "ilty": 6782,
      "spon": 6783,
      "whose": 6784,
      "alej": 6785,
      "aleks": 6786,
      "chores": 6787,
      "franco": 6788,
      "trin": 6789,
      "misha": 6790,
      "harsh": 6791,
      "cuis": 6792,
      "duh": 6793,
      "emmanuel": 6794,
      "barney": 6795,
      "vienna": 6796,
      "bage": 6797,
      "parked": 6798,
      "birds": 6799,
      "lize": 6800,
      "tutori": 6801,
      "worrying": 6802,
      "150": 6803,
      "barbra": 6804,
      "personally": 6805,
      "deter": 6806,
      "burnt": 6807,
      "contacts": 6808,
      "contacting": 6809,
      "links": 6810,
      "reminding": 6811,
      "piper": 6812,
      "holding": 6813,
      "tatum": 6814,
      "figured": 6815,
      ":)))": 6816,
      "balcony": 6817,
      "antonia": 6818,
      "drugs": 6819,
      "techno": 6820,
      "econom": 6821,
      "griff": 6822,
      "kathleen": 6823,
      "knock": 6824,
      "mackenzie": 6825,
      "injured": 6826,
      "eleonor": 6827,
      "relig": 6828,
      "faye": 6829,
      "ignoring": 6830,
      "communicate": 6831,
      "babysit": 6832,
      "octavia": 6833,
      "audience": 6834,
      "rafael": 6835,
      "dimit": 6836,
      "gracie": 6837,
      "muffins": 6838,
      "melody": 6839,
      "hockey": 6840,
      "commercial": 6841,
      "procedure": 6842,
      "chicago": 6843,
      "jocelyn": 6844,
      "2nite": 6845,
      "37": 6846,
      "ahah": 6847,
      "eme": 6848,
      "gni": 6849,
      "nut": 6850,
      "ome": 6851,
      "ost": 6852,
      "sne": 6853,
      "sile": 6854,
      "uum": 6855,
      "vom": 6856,
      "°)": 6857,
      "reve": 6858,
      "ller": 6859,
      "orion": 6860,
      "leanne": 6861,
      "ences": 6862,
      "ict": 6863,
      "sole": 6864,
      "socks": 6865,
      "hoo": 6866,
      "hollie": 6867,
      "goin": 6868,
      "alf": 6869,
      "edna": 6870,
      "accent": 6871,
      "rio": 6872,
      "lyric": 6873,
      "abra": 6874,
      "marissa": 6875,
      "terence": 6876,
      "mae": 6877,
      "maja": 6878,
      "odin": 6879,
      "unhappy": 6880,
      "ppers": 6881,
      "bore": 6882,
      "milo": 6883,
      "tast": 6884,
      "pola": 6885,
      "bern": 6886,
      "rules": 6887,
      "caz": 6888,
      "stew": 6889,
      "igor": 6890,
      "aged": 6891,
      "tration": 6892,
      "miser": 6893,
      "shooting": 6894,
      "distr": 6895,
      "micah": 6896,
      "hopeless": 6897,
      "bret": 6898,
      "function": 6899,
      "xdd": 6900,
      "nerd": 6901,
      "priti": 6902,
      "iza": 6903,
      "trips": 6904,
      "parad": 6905,
      "jacqui": 6906,
      "henriet": 6907,
      "cleo": 6908,
      "international": 6909,
      "brie": 6910,
      "darcey": 6911,
      "classy": 6912,
      "orders": 6913,
      "genius": 6914,
      "horse": 6915,
      "salon": 6916,
      "riding": 6917,
      "crash": 6918,
      "ashamed": 6919,
      "doors": 6920,
      "paperwork": 6921,
      "streets": 6922,
      "rebeca": 6923,
      "tammy": 6924,
      "trisha": 6925,
      "nadine": 6926,
      "paloma": 6927,
      "region": 6928,
      "journal": 6929,
      "shifts": 6930,
      "darek": 6931,
      "regards": 6932,
      "harrison": 6933,
      "jumping": 6934,
      "route": 6935,
      "colleague": 6936,
      "mixed": 6937,
      "brennan": 6938,
      "susanne": 6939,
      "documentary": 6940,
      "electricity": 6941,
      "kaleigh": 6942,
      "lmao": 6943,
      "exhausted": 6944,
      "emotional": 6945,
      "devastated": 6946,
      "blonde": 6947,
      "magdalene": 6948,
      "brussels": 6949,
      "silent": 6950,
      "abraham": 6951,
      "henrietta": 6952,
      "26": 6953,
      "2morrow": 6954,
      "abe": 6955,
      "bou": 6956,
      "cun": 6957,
      "eg": 6958,
      "elie": 6959,
      "ester": 6960,
      "gross": 6961,
      "ially": 6962,
      "lace": 6963,
      "lang": 6964,
      "mhm": 6965,
      "sno": 6966,
      "sask": 6967,
      "tun": 6968,
      "tent": 6969,
      "trent": 6970,
      "tabi": 6971,
      "zoo": 6972,
      "＿＿": 6973,
      "remain": 6974,
      "meggy": 6975,
      "sta": 6976,
      "lexie": 6977,
      "hav": 6978,
      "envir": 6979,
      "beef": 6980,
      "ayla": 6981,
      "wie": 6982,
      "neg": 6983,
      "buba": 6984,
      "rique": 6985,
      "donnie": 6986,
      "della": 6987,
      "united": 6988,
      "auto": 6989,
      "iceland": 6990,
      "guid": 6991,
      "niall": 6992,
      "brunch": 6993,
      "phon": 6994,
      "actual": 6995,
      "whereas": 6996,
      "whoever": 6997,
      "wooo": 6998,
      "lished": 6999,
      "waited": 7000,
      "wondered": 7001,
      "jensen": 7002,
      "harm": 7003,
      "dislike": 7004,
      "intense": 7005,
      "ggies": 7006,
      "hug": 7007,
      "massage": 7008,
      "joined": 7009,
      "clement": 7010,
      "carolina": 7011,
      "landlord": 7012,
      "cated": 7013,
      "eveline": 7014,
      "trees": 7015,
      "jayson": 7016,
      "twis": 7017,
      "mirac": 7018,
      "douglas": 7019,
      "safely": 7020,
      "duncan": 7021,
      "delilah": 7022,
      "leonardo": 7023,
      "finger": 7024,
      "shuttle": 7025,
      "kirsty": 7026,
      "respond": 7027,
      "owes": 7028,
      "include": 7029,
      "medication": 7030,
      "cassie": 7031,
      "candles": 7032,
      "collin": 7033,
      "officially": 7034,
      "frustrating": 7035,
      "russell": 7036,
      "circum": 7037,
      "relieved": 7038,
      "equip": 7039,
      "suffering": 7040,
      "global": 7041,
      "challeng": 7042,
      "sandwich": 7043,
      "education": 7044,
      "architecture": 7045,
      "energy": 7046,
      "repeat": 7047,
      "gluten": 7048,
      "desperate": 7049,
      "marathon": 7050,
      "houses": 7051,
      "potential": 7052,
      "jacek": 7053,
      "australia": 7054,
      "kindergarten": 7055,
      "ingredients": 7056,
      "cuisine": 7057,
      "tabitha": 7058,
      "environ": 7059,
      ".?": 7060,
      "43": 7061,
      "8th": 7062,
      "airl": 7063,
      "bright": 7064,
      "bite": 7065,
      "cd": 7066,
      "dus": 7067,
      "fare": 7068,
      "fus": 7069,
      "gis": 7070,
      "gam": 7071,
      "gies": 7072,
      "glit": 7073,
      "mble": 7074,
      "mpa": 7075,
      "pher": 7076,
      "zzy": 7077,
      "recall": 7078,
      "relat": 7079,
      "tose": 7080,
      "melinda": 7081,
      "inga": 7082,
      "ors": 7083,
      "arlene": 7084,
      "lili": 7085,
      "hola": 7086,
      "homer": 7087,
      "fornia": 7088,
      "suic": 7089,
      "timis": 7090,
      "jolene": 7091,
      "moti": 7092,
      "shelf": 7093,
      "teas": 7094,
      "map": 7095,
      "malik": 7096,
      "demi": 7097,
      "feet": 7098,
      "fection": 7099,
      "ferences": 7100,
      "iona": 7101,
      "boob": 7102,
      "comic": 7103,
      "hahahahaha": 7104,
      "hired": 7105,
      "christy": 7106,
      "steam": 7107,
      "mani": 7108,
      "minnie": 7109,
      "fries": 7110,
      "storage": 7111,
      "francine": 7112,
      "trade": 7113,
      "emmy": 7114,
      "angella": 7115,
      "fund": 7116,
      "court": 7117,
      "gerardo": 7118,
      "bak": 7119,
      "izes": 7120,
      "jessy": 7121,
      "henning": 7122,
      "sisi": 7123,
      "dianne": 7124,
      "optimis": 7125,
      "flow": 7126,
      "posting": 7127,
      "trains": 7128,
      "keyboard": 7129,
      "tonya": 7130,
      "wonders": 7131,
      "gib": 7132,
      "karla": 7133,
      "singer": 7134,
      "drill": 7135,
      "organis": 7136,
      "childhood": 7137,
      "listened": 7138,
      "spots": 7139,
      "crime": 7140,
      "cried": 7141,
      "panel": 7142,
      "celeste": 7143,
      "fitz": 7144,
      "reminder": 7145,
      "accidentally": 7146,
      "opera": 7147,
      "searching": 7148,
      "pairs": 7149,
      "suitable": 7150,
      "eeeeeeee": 7151,
      "tourists": 7152,
      "palm": 7153,
      "ukraine": 7154,
      "hostel": 7155,
      "scand": 7156,
      "gillian": 7157,
      "deserves": 7158,
      "possibility": 7159,
      "flex": 7160,
      "nikki": 7161,
      "installed": 7162,
      "replacement": 7163,
      "................................": 7164,
      "jarod": 7165,
      "prague": 7166,
      "departure": 7167,
      "attractive": 7168,
      "responsibility": 7169,
      "california": 7170,
      "rehearsal": 7171,
      "lactose": 7172,
      "academic": 7173,
      "rubbish": 7174,
      "tastes": 7175,
      "-.": 7176,
      "2day": 7177,
      "67": 7178,
      "7am": 7179,
      "ai": 7180,
      "dye": 7181,
      "kad": 7182,
      "kers": 7183,
      "mps": 7184,
      "para": 7185,
      "sque": 7186,
      "szy": 7187,
      "tmr": 7188,
      "yard": 7189,
      "👏👏": 7190,
      "ined": 7191,
      "insu": 7192,
      "inting": 7193,
      "onion": 7194,
      "error": 7195,
      "youll": 7196,
      "enge": 7197,
      "engage": 7198,
      "bev": 7199,
      "below": 7200,
      "assure": 7201,
      "associ": 7202,
      "wia": 7203,
      "idan": 7204,
      "dope": 7205,
      "myster": 7206,
      "imp": 7207,
      "wasnt": 7208,
      "degree": 7209,
      "uncomfortable": 7210,
      "theyre": 7211,
      "pean": 7212,
      "cement": 7213,
      "bomb": 7214,
      "bojana": 7215,
      "goodness": 7216,
      "comin": 7217,
      "exist": 7218,
      "worker": 7219,
      "workout": 7220,
      "brb": 7221,
      "cases": 7222,
      "actress": 7223,
      "background": 7224,
      "janny": 7225,
      "click": 7226,
      "oooh": 7227,
      "brea": 7228,
      "funding": 7229,
      "dixie": 7230,
      "pens": 7231,
      "evans": 7232,
      "tension": 7233,
      "remeber": 7234,
      "shay": 7235,
      "queue": 7236,
      "aki": 7237,
      "diner": 7238,
      "lizzie": 7239,
      "frederic": 7240,
      "maxwell": 7241,
      "counting": 7242,
      "rict": 7243,
      "sissy": 7244,
      "philo": 7245,
      "classroom": 7246,
      "gabrie": 7247,
      "nicer": 7248,
      "nicola": 7249,
      "skating": 7250,
      "ankle": 7251,
      "brush": 7252,
      "pointless": 7253,
      "lonya": 7254,
      "costa": 7255,
      "explo": 7256,
      "priate": 7257,
      "mainly": 7258,
      "uuu": 7259,
      "hoped": 7260,
      "boxing": 7261,
      "facts": 7262,
      "sharol": 7263,
      "reynold": 7264,
      "leonard": 7265,
      "vacuum": 7266,
      "popcorn": 7267,
      "aaaaaaaa": 7268,
      "relaxing": 7269,
      "purchase": 7270,
      "polite": 7271,
      "politic": 7272,
      "cheapest": 7273,
      "avoca": 7274,
      "miller": 7275,
      "hypo": 7276,
      "conflic": 7277,
      "fedora": 7278,
      "treatment": 7279,
      "paired": 7280,
      "whaaat": 7281,
      "tessy": 7282,
      "mexican": 7283,
      "subjects": 7284,
      "statistics": 7285,
      "recorded": 7286,
      "zuri": 7287,
      "zuza": 7288,
      "savings": 7289,
      "recogni": 7290,
      "paddy": 7291,
      "scene": 7292,
      "eteria": 7293,
      "rupt": 7294,
      "ruined": 7295,
      "volunteers": 7296,
      "shouting": 7297,
      "participate": 7298,
      "encoura": 7299,
      "experienced": 7300,
      "signing": 7301,
      "independent": 7302,
      "cafeteria": 7303,
      "ordinary": 7304,
      "hobbs": 7305,
      "austria": 7306,
      "l8r": 7307,
      "equipment": 7308,
      "gibson": 7309,
      "bis": 7310,
      "bia": 7311,
      "cmon": 7312,
      "fond": 7313,
      "gth": 7314,
      "hp": 7315,
      "iga": 7316,
      "pir": 7317,
      "pdf": 7318,
      "sions": 7319,
      "tch": 7320,
      "tick": 7321,
      "vari": 7322,
      "yt": 7323,
      "zil": 7324,
      "rel": 7325,
      "republic": 7326,
      "reached": 7327,
      "thekla": 7328,
      "isis": 7329,
      "ished": 7330,
      "israel": 7331,
      "stink": 7332,
      "veg": 7333,
      "sett": 7334,
      "ashed": 7335,
      "wid": 7336,
      "wester": 7337,
      "aline": 7338,
      "alina": 7339,
      "forgive": 7340,
      "eds": 7341,
      "neat": 7342,
      "newest": 7343,
      "loan": 7344,
      "core": 7345,
      "colu": 7346,
      "adie": 7347,
      "tify": 7348,
      "jodi": 7349,
      "motiv": 7350,
      "makayla": 7351,
      "geon": 7352,
      "iff": 7353,
      "unsure": 7354,
      "unpleasant": 7355,
      "pel": 7356,
      "filled": 7357,
      "bol": 7358,
      "sages": 7359,
      "prove": 7360,
      "commu": 7361,
      "berries": 7362,
      "rights": 7363,
      "cage": 7364,
      "item": 7365,
      "spice": 7366,
      "photogra": 7367,
      "steps": 7368,
      "jem": 7369,
      "matic": 7370,
      "minim": 7371,
      "patrik": 7372,
      "ciaran": 7373,
      "benef": 7374,
      "brock": 7375,
      "disco": 7376,
      "discus": 7377,
      "meanwhile": 7378,
      "dram": 7379,
      "vibe": 7380,
      "viki": 7381,
      "truck": 7382,
      "pric": 7383,
      "carefully": 7384,
      "shaun": 7385,
      "tical": 7386,
      "kindle": 7387,
      "tural": 7388,
      "intern": 7389,
      "yaz": 7390,
      "tual": 7391,
      "treating": 7392,
      "jamal": 7393,
      "mpy": 7394,
      "claw": 7395,
      "gabby": 7396,
      "stranger": 7397,
      "license": 7398,
      "superhero": 7399,
      "realise": 7400,
      "eugene": 7401,
      "juliana": 7402,
      "blah": 7403,
      "lipstick": 7404,
      "sadly": 7405,
      "prize": 7406,
      "garrett": 7407,
      "bonny": 7408,
      "magn": 7409,
      "reminded": 7410,
      "speaker": 7411,
      "attended": 7412,
      "countryside": 7413,
      "chatting": 7414,
      "actions": 7415,
      "screwed": 7416,
      "practical": 7417,
      "25th": 7418,
      "approve": 7419,
      "silver": 7420,
      "lucie": 7421,
      "theater": 7422,
      "response": 7423,
      "bbq": 7424,
      "mountain": 7425,
      "tempting": 7426,
      "binge": 7427,
      "customers": 7428,
      "80s": 7429,
      "lilah": 7430,
      "gigi": 7431,
      "shanon": 7432,
      "register": 7433,
      "frozen": 7434,
      "brendon": 7435,
      "pierce": 7436,
      "ignored": 7437,
      "dishwasher": 7438,
      "indust": 7439,
      "successful": 7440,
      "narcos": 7441,
      "challenge": 7442,
      "source": 7443,
      "voucher": 7444,
      "sneak": 7445,
      "dusan": 7446,
      "bakery": 7447,
      "gabriela": 7448,
      "!)": 7449,
      "38": 7450,
      ";>": 7451,
      "bc": 7452,
      "blast": 7453,
      "cable": 7454,
      "dat": 7455,
      "egy": 7456,
      "gall": 7457,
      "o_": 7458,
      "swed": 7459,
      "sible": 7460,
      "tac": 7461,
      "tate": 7462,
      "tank": 7463,
      "uts": 7464,
      "windy": 7465,
      "wings": 7466,
      "zan": 7467,
      "😭😭": 7468,
      "ths": 7469,
      "iny": 7470,
      "resist": 7471,
      "topics": 7472,
      "isie": 7473,
      "strict": 7474,
      "enor": 7475,
      "enrique": 7476,
      "nola": 7477,
      "nolan": 7478,
      "beans": 7479,
      "veggies": 7480,
      "seaside": 7481,
      "iches": 7482,
      "wire": 7483,
      "wide": 7484,
      "wered": 7485,
      "lif": 7486,
      "lil": 7487,
      "aling": 7488,
      "nell": 7489,
      "bul": 7490,
      "built": 7491,
      "doable": 7492,
      "aman": 7493,
      "adar": 7494,
      "abdul": 7495,
      "ryl": 7496,
      "laint": 7497,
      "launch": 7498,
      "marisol": 7499,
      "irwin": 7500,
      "yeee": 7501,
      "hernandez": 7502,
      "devin": 7503,
      "fellow": 7504,
      "raven": 7505,
      "grew": 7506,
      "luka": 7507,
      "guilty": 7508,
      "concent": 7509,
      "chest": 7510,
      "leticia": 7511,
      "quar": 7512,
      "fuel": 7513,
      "ives": 7514,
      "wore": 7515,
      "mats": 7516,
      "matth": 7517,
      "patter": 7518,
      "sons": 7519,
      "lating": 7520,
      "cutie": 7521,
      "bene": 7522,
      "broad": 7523,
      "bars": 7524,
      "disease": 7525,
      "ellio": 7526,
      "dialo": 7527,
      "10am": 7528,
      "evil": 7529,
      "isaiah": 7530,
      "norah": 7531,
      "dinny": 7532,
      "ileen": 7533,
      ":-*": 7534,
      "kenzie": 7535,
      "landon": 7536,
      "lander": 7537,
      "catan": 7538,
      "surfing": 7539,
      "portu": 7540,
      "darryl": 7541,
      "useppe": 7542,
      "compli": 7543,
      "complaint": 7544,
      "wars": 7545,
      "warning": 7546,
      "!!!!!!!": 7547,
      "ryanair": 7548,
      "suggestion": 7549,
      "giuseppe": 7550,
      "attached": 7551,
      "salt": 7552,
      "organic": 7553,
      "doubts": 7554,
      "walker": 7555,
      "lonnie": 7556,
      "transla": 7557,
      "seasons": 7558,
      "drawing": 7559,
      "discussion": 7560,
      "brands": 7561,
      "swing": 7562,
      "relaxed": 7563,
      "chilling": 7564,
      "reserved": 7565,
      "brazil": 7566,
      "decisions": 7567,
      "graduation": 7568,
      "models": 7569,
      "bbc": 7570,
      "arguing": 7571,
      "feedback": 7572,
      "atures": 7573,
      "medium": 7574,
      "fiction": 7575,
      "solved": 7576,
      "terribly": 7577,
      "entirely": 7578,
      "cultural": 7579,
      "cecily": 7580,
      "neighbors": 7581,
      "digital": 7582,
      "society": 7583,
      "postponed": 7584,
      "baseball": 7585,
      "eastern": 7586,
      "investig": 7587,
      "geraldine": 7588,
      "dumpl": 7589,
      "abortion": 7590,
      "counter": 7591,
      "precisely": 7592,
      "rhys": 7593,
      "receipt": 7594,
      "bubbles": 7595,
      "shorter": 7596,
      "alfonso": 7597,
      "bernard": 7598,
      "miserable": 7599,
      "paradise": 7600,
      "motivation": 7601,
      "boobs": 7602,
      "szymon": 7603,
      "western": 7604,
      "elliott": 7605,
      "26th": 7606,
      "600": 7607,
      "cm": 7608,
      "ewan": 7609,
      "flor": 7610,
      "hut": 7611,
      "ija": 7612,
      "kha": 7613,
      "lacey": 7614,
      "mimi": 7615,
      "nn": 7616,
      "rink": 7617,
      "range": 7618,
      "rasha": 7619,
      "uma": 7620,
      "😻😻": 7621,
      "incre": 7622,
      "initi": 7623,
      "reject": 7624,
      "recru": 7625,
      "tore": 7626,
      "enzo": 7627,
      "bean": 7628,
      "behaving": 7629,
      "seb": 7630,
      "kebab": 7631,
      "rocky": 7632,
      "liver": 7633,
      "lips": 7634,
      "alberto": 7635,
      "forced": 7636,
      "edit": 7637,
      "eden": 7638,
      "editing": 7639,
      "acha": 7640,
      "bury": 7641,
      "loving": 7642,
      "dolo": 7643,
      "arest": 7644,
      "corey": 7645,
      "ady": 7646,
      "rip": 7647,
      "riette": 7648,
      "okie": 7649,
      "abdi": 7650,
      "tip": 7651,
      "button": 7652,
      "someday": 7653,
      "moments": 7654,
      "ods": 7655,
      "ception": 7656,
      "wanting": 7657,
      "sailing": 7658,
      "yess": 7659,
      "compar": 7660,
      "combin": 7661,
      "conserv": 7662,
      "gale": 7663,
      "affair": 7664,
      "byron": 7665,
      "brat": 7666,
      "phd": 7667,
      "follo": 7668,
      "gration": 7669,
      "spicy": 7670,
      "caused": 7671,
      "paola": 7672,
      "stolen": 7673,
      "stones": 7674,
      "dyn": 7675,
      "overnight": 7676,
      "latin": 7677,
      "dislikes": 7678,
      "hellen": 7679,
      "meantime": 7680,
      "10pm": 7681,
      "hudson": 7682,
      "monthly": 7683,
      "rented": 7684,
      "ears": 7685,
      "ferry": 7686,
      "winning": 7687,
      "prison": 7688,
      "otes": 7689,
      "spends": 7690,
      "horri": 7691,
      "julien": 7692,
      "basis": 7693,
      "reece": 7694,
      "drove": 7695,
      "guese": 7696,
      "laws": 7697,
      "dragon": 7698,
      "www": 7699,
      "absolute": 7700,
      "crisis": 7701,
      "cristian": 7702,
      "sexual": 7703,
      "hania": 7704,
      "rodger": 7705,
      "advised": 7706,
      "travels": 7707,
      "affordable": 7708,
      "ramon": 7709,
      "ramsay": 7710,
      "proposes": 7711,
      "grounded": 7712,
      "argued": 7713,
      "deserved": 7714,
      "acceptable": 7715,
      "decorate": 7716,
      "queens": 7717,
      "?!?!?!": 7718,
      "glenn": 7719,
      "urgently": 7720,
      "psychology": 7721,
      "constantly": 7722,
      "convenience": 7723,
      "software": 7724,
      "relief": 7725,
      "divorced": 7726,
      "prayers": 7727,
      "estim": 7728,
      "costumes": 7729,
      "settings": 7730,
      "eleonore": 7731,
      "threw": 7732,
      "necklace": 7733,
      "galaxy": 7734,
      "assistant": 7735,
      "incident": 7736,
      "switched": 7737,
      "whitney": 7738,
      "citiz": 7739,
      "scotland": 7740,
      "gimme": 7741,
      "maciek": 7742,
      "ambulance": 7743,
      "stewart": 7744,
      "negative": 7745,
      "shayla": 7746,
      "portuguese": 7747,
      "conservative": 7748,
      "followed": 7749,
      "(´": 7750,
      "--": 7751,
      "award": 7752,
      "cilla": 7753,
      "ckets": 7754,
      "drow": 7755,
      "dread": 7756,
      "ec": 7757,
      "elly": 7758,
      "elder": 7759,
      "fs": 7760,
      "fina": 7761,
      "gant": 7762,
      "jama": 7763,
      "kie": 7764,
      "klara": 7765,
      "oce": 7766,
      "pia": 7767,
      "pip": 7768,
      "rze": 7769,
      "tx": 7770,
      "tasha": 7771,
      "vs": 7772,
      "zom": 7773,
      "zak": 7774,
      "thnx": 7775,
      "rese": 7776,
      "repaired": 7777,
      "toy": 7778,
      "toys": 7779,
      "attract": 7780,
      "attemp": 7781,
      "eras": 7782,
      "isnt": 7783,
      "oring": 7784,
      "arab": 7785,
      "arrest": 7786,
      "aries": 7787,
      "argent": 7788,
      "stit": 7789,
      "andrze": 7790,
      "vegas": 7791,
      "roma": 7792,
      "hobby": 7793,
      "alon": 7794,
      "alot": 7795,
      "alban": 7796,
      "alonso": 7797,
      "edy": 7798,
      "edly": 7799,
      "acon": 7800,
      "nephew": 7801,
      "buses": 7802,
      "dotty": 7803,
      "chic": 7804,
      "willie": 7805,
      "absent": 7806,
      "shelley": 7807,
      "telly": 7808,
      "gear": 7809,
      "washed": 7810,
      "ife": 7811,
      "fective": 7812,
      "enda": 7813,
      "therese": 7814,
      "inez": 7815,
      "plz": 7816,
      "bothered": 7817,
      "milly": 7818,
      "arturo": 7819,
      "conclu": 7820,
      "exotic": 7821,
      "chee": 7822,
      "chemis": 7823,
      "venus": 7824,
      "venue": 7825,
      "grrr": 7826,
      "spray": 7827,
      "helga": 7828,
      "couldnt": 7829,
      "derrick": 7830,
      "finlay": 7831,
      "maryann": 7832,
      "nicely": 7833,
      "disney": 7834,
      "disagree": 7835,
      "micro": 7836,
      "dai": 7837,
      "visits": 7838,
      "shaw": 7839,
      "pussy": 7840,
      "object": 7841,
      "mommy": 7842,
      "andreas": 7843,
      "lized": 7844,
      "2000": 7845,
      "medit": 7846,
      "sunshine": 7847,
      "hearing": 7848,
      "bling": 7849,
      "flir": 7850,
      "treated": 7851,
      "louie": 7852,
      "priscilla": 7853,
      "runs": 7854,
      "hunting": 7855,
      "sweety": 7856,
      "concerning": 7857,
      "kitten": 7858,
      "julio": 7859,
      "expectations": 7860,
      "gladly": 7861,
      "royal": 7862,
      "zelda": 7863,
      "universe": 7864,
      "kristel": 7865,
      "rainy": 7866,
      "spoons": 7867,
      "drag": 7868,
      "solutions": 7869,
      "offering": 7870,
      "alid": 7871,
      "experiment": 7872,
      "invitations": 7873,
      "legend": 7874,
      "falls": 7875,
      "zzzz": 7876,
      "fluffy": 7877,
      "aidan": 7878,
      "swan": 7879,
      "spectacu": 7880,
      "marciano": 7881,
      "honor": 7882,
      "googled": 7883,
      "battle": 7884,
      "elaine": 7885,
      "connect": 7886,
      "18th": 7887,
      "cupboard": 7888,
      "washington": 7889,
      "sheryl": 7890,
      "kerri": 7891,
      "chances": 7892,
      "itius": 7893,
      "lloyd": 7894,
      "advant": 7895,
      "awwww": 7896,
      "leader": 7897,
      "mauritius": 7898,
      "tablet": 7899,
      "registration": 7900,
      "adop": 7901,
      ":'(": 7902,
      "potato": 7903,
      "beyonce": 7904,
      "suffer": 7905,
      "chairs": 7906,
      "demanding": 7907,
      "volunteer": 7908,
      "whiskey": 7909,
      "suspects": 7910,
      "threat": 7911,
      "reliable": 7912,
      "murder": 7913,
      "sandwiches": 7914,
      "talented": 7915,
      "mechanic": 7916,
      "effects": 7917,
      "supportive": 7918,
      "hesitate": 7919,
      "depression": 7920,
      "alternative": 7921,
      "employees": 7922,
      "financial": 7923,
      "construction": 7924,
      ":×:×": 7925,
      "prudence": 7926,
      "bassy": 7927,
      "enthusia": 7928,
      "suspic": 7929,
      "sanaz": 7930,
      "strategy": 7931,
      "podcast": 7932,
      "tutorial": 7933,
      "technology": 7934,
      "environment": 7935,
      "suicide": 7936,
      "flexible": 7937,
      "o_o": 7938,
      "ocean": 7939,
      "erasmus": 7940,
      "andrzej": 7941,
      "spectacular": 7942,
      "?(": 7943,
      "aim": 7944,
      "bid": 7945,
      "dough": 7946,
      "gmail": 7947,
      "jk": 7948,
      "kia": 7949,
      "olo": 7950,
      "passes": 7951,
      "pitch": 7952,
      "rare": 7953,
      "sme": 7954,
      "sic": 7955,
      "shad": 7956,
      "snap": 7957,
      "vlad": 7958,
      "xbox": 7959,
      "yoli": 7960,
      "yrs": 7961,
      "zor": 7962,
      "zay": 7963,
      "zone": 7964,
      "analy": 7965,
      "insp": 7966,
      "resid": 7967,
      "thetic": 7968,
      "meth": 7969,
      "memes": 7970,
      "iso": 7971,
      "stable": 7972,
      "stain": 7973,
      "beasts": 7974,
      "som": 7975,
      "wik": 7976,
      "aland": 7977,
      "alphon": 7978,
      "edom": 7979,
      "accompany": 7980,
      "budd": 7981,
      "lover": 7982,
      "dore": 7983,
      "dome": 7984,
      "ades": 7985,
      "admi": 7986,
      "tied": 7987,
      "tires": 7988,
      "juni": 7989,
      "ield": 7990,
      "laos": 7991,
      "mars": 7992,
      "marke": 7993,
      "donate": 7994,
      "maia": 7995,
      "ified": 7996,
      "shiny": 7997,
      "demon": 7998,
      "deacon": 7999,
      "audio": 8000,
      "cere": 8001,
      "toms": 8002,
      "bos": 8003,
      "taw": 8004,
      "carri": 8005,
      "greate": 8006,
      "elton": 8007,
      "berg": 8008,
      "beryl": 8009,
      "excel": 8010,
      "cker": 8011,
      "persu": 8012,
      "perman": 8013,
      "hike": 8014,
      "rug": 8015,
      "preferences": 8016,
      "avi": 8017,
      "offended": 8018,
      "jewel": 8019,
      "stores": 8020,
      "marylin": 8021,
      "jenni": 8022,
      "lottery": 8023,
      "overall": 8024,
      "shocking": 8025,
      "benson": 8026,
      "morty": 8027,
      "morton": 8028,
      "bookstore": 8029,
      "achie": 8030,
      "brent": 8031,
      "visa": 8032,
      "toronto": 8033,
      "hubby": 8034,
      "davis": 8035,
      "northern": 8036,
      "nickie": 8037,
      "2018": 8038,
      "apt": 8039,
      "standard": 8040,
      "ires": 8041,
      "situ": 8042,
      "intoler": 8043,
      "trend": 8044,
      "winnie": 8045,
      "network": 8046,
      "chay": 8047,
      "lery": 8048,
      "giles": 8049,
      "gium": 8050,
      "kettle": 8051,
      "wears": 8052,
      "grandparents": 8053,
      "mitche": 8054,
      "bib": 8055,
      "jordyn": 8056,
      "cedes": 8057,
      "belgium": 8058,
      "midday": 8059,
      "debby": 8060,
      "rebekah": 8061,
      "fairly": 8062,
      "pipe": 8063,
      "aneous": 8064,
      "ooooh": 8065,
      "yuval": 8066,
      "confirms": 8067,
      "straw": 8068,
      "depending": 8069,
      "reyna": 8070,
      "claude": 8071,
      "fabric": 8072,
      "dryer": 8073,
      "interviews": 8074,
      "explained": 8075,
      "hahha": 8076,
      "articles": 8077,
      "proposal": 8078,
      "languages": 8079,
      "piss": 8080,
      "refuse": 8081,
      "statement": 8082,
      "fleur": 8083,
      "alyson": 8084,
      "russel": 8085,
      "director": 8086,
      "lamp": 8087,
      "blanket": 8088,
      "pierre": 8089,
      "uploaded": 8090,
      "behavior": 8091,
      "yasmin": 8092,
      "folk": 8093,
      "development": 8094,
      "limited": 8095,
      "spiderman": 8096,
      "multiple": 8097,
      "nacho": 8098,
      "vietnam": 8099,
      "grumpy": 8100,
      "delighted": 8101,
      "temporary": 8102,
      "airlines": 8103,
      "-.-": 8104,
      "philosoph": 8105,
      "magnus": 8106,
      "matthias": 8107,
      "dolores": 8108,
      "alphonse": 8109,
      "permanent": 8110,
      "39": 8111,
      "?:": 8112,
      "aint": 8113,
      "bam": 8114,
      "dima": 8115,
      "eze": 8116,
      "gender": 8117,
      "hloe": 8118,
      "ige": 8119,
      "kour": 8120,
      "khloe": 8121,
      "lass": 8122,
      "nada": 8123,
      "slu": 8124,
      "vil": 8125,
      "yon": 8126,
      "zka": 8127,
      "….": 8128,
      "😱😱": 8129,
      "thir": 8130,
      "anka": 8131,
      "oured": 8132,
      "rely": 8133,
      "thelma": 8134,
      "hem": 8135,
      "stall": 8136,
      "stroll": 8137,
      "lef": 8138,
      "entered": 8139,
      "sequ": 8140,
      "rolling": 8141,
      "lio": 8142,
      "idio": 8143,
      "buck": 8144,
      "bump": 8145,
      "lobby": 8146,
      "areth": 8147,
      "amir": 8148,
      "adeline": 8149,
      "susy": 8150,
      "outlander": 8151,
      "rylen": 8152,
      "irrit": 8153,
      "mohammad": 8154,
      "shee": 8155,
      "sheer": 8156,
      "tele": 8157,
      "donte": 8158,
      "shri": 8159,
      "shite": 8160,
      "unlike": 8161,
      "peel": 8162,
      "saga": 8163,
      "carrot": 8164,
      "muhammad": 8165,
      "pold": 8166,
      "pocket": 8167,
      ":).": 8168,
      "exit": 8169,
      "hire": 8170,
      "rufus": 8171,
      "newspa": 8172,
      "cheat": 8173,
      "venice": 8174,
      "letters": 8175,
      "mondays": 8176,
      "ively": 8177,
      "wag": 8178,
      "spill": 8179,
      "spark": 8180,
      "christie": 8181,
      "homemade": 8182,
      "omer": 8183,
      "manual": 8184,
      "makeup": 8185,
      "cycle": 8186,
      "patti": 8187,
      "agnies": 8188,
      "missy": 8189,
      "disappear": 8190,
      "daki": 8191,
      "babs": 8192,
      "puzz": 8193,
      "obses": 8194,
      "fai": 8195,
      "norway": 8196,
      "scholar": 8197,
      "eats": 8198,
      "surround": 8199,
      "brief": 8200,
      "amalia": 8201,
      "stuffed": 8202,
      "complains": 8203,
      "warmer": 8204,
      "fernand": 8205,
      "linked": 8206,
      "elections": 8207,
      "leopold": 8208,
      "pizz": 8209,
      "wishing": 8210,
      "ketch": 8211,
      "superb": 8212,
      "stances": 8213,
      "lilyana": 8214,
      "williams": 8215,
      "mercedes": 8216,
      "telma": 8217,
      "11am": 8218,
      "teams": 8219,
      "suzan": 8220,
      "hahahha": 8221,
      "tables": 8222,
      "catching": 8223,
      "fixing": 8224,
      "speakers": 8225,
      "yuki": 8226,
      "kimberley": 8227,
      "dominique": 8228,
      "skylar": 8229,
      "sells": 8230,
      "ential": 8231,
      "captain": 8232,
      "graphics": 8233,
      "quired": 8234,
      "cups": 8235,
      "feeding": 8236,
      "arrangements": 8237,
      "greek": 8238,
      "sheridan": 8239,
      "valerio": 8240,
      "levels": 8241,
      "slides": 8242,
      "neighborhood": 8243,
      "routine": 8244,
      "harriett": 8245,
      "constance": 8246,
      "shantelle": 8247,
      "painted": 8248,
      "teeth": 8249,
      "destination": 8250,
      "90s": 8251,
      "thrilled": 8252,
      "graduated": 8253,
      "loool": 8254,
      "29th": 8255,
      "subscription": 8256,
      "vitam": 8257,
      "baldwin": 8258,
      "krakow": 8259,
      "insists": 8260,
      "district": 8261,
      "twisted": 8262,
      "discussed": 8263,
      "industry": 8264,
      "marketing": 8265,
      "kourtney": 8266,
      "agnieszka": 8267,
      "obsessed": 8268,
      "$.": 8269,
      "%.": 8270,
      "*.": 8271,
      "120": 8272,
      "400": 8273,
      "bod": 8274,
      "bent": 8275,
      "cke": 8276,
      "dj": 8277,
      "fart": 8278,
      "gir": 8279,
      "gles": 8280,
      "jed": 8281,
      "knit": 8282,
      "lg": 8283,
      "lice": 8284,
      "macey": 8285,
      "nge": 8286,
      "ox": 8287,
      "och": 8288,
      "osto": 8289,
      "pour": 8290,
      "plain": 8291,
      "rat": 8292,
      "sla": 8293,
      "sche": 8294,
      "sang": 8295,
      "twe": 8296,
      "uri": 8297,
      "ulia": 8298,
      "ums": 8299,
      "vacc": 8300,
      "zard": 8301,
      "😙😙": 8302,
      "😜😜": 8303,
      "anime": 8304,
      "aneta": 8305,
      "rec": 8306,
      "rex": 8307,
      "resort": 8308,
      "replac": 8309,
      "memp": 8310,
      "isson": 8311,
      "isiah": 8312,
      "ington": 8313,
      "ori": 8314,
      "aro": 8315,
      "arse": 8316,
      "arms": 8317,
      "ario": 8318,
      "heee": 8319,
      "heaven": 8320,
      "sets": 8321,
      "aston": 8322,
      "sober": 8323,
      "soap": 8324,
      "rots": 8325,
      "roxy": 8326,
      "lib": 8327,
      "goal": 8328,
      "goals": 8329,
      "alain": 8330,
      "actors": 8331,
      "bugs": 8332,
      "adjust": 8333,
      "oker": 8334,
      "lyla": 8335,
      "jum": 8336,
      "juana": 8337,
      "lag": 8338,
      "marin": 8339,
      "maisie": 8340,
      "austen": 8341,
      "rae": 8342,
      "peadar": 8343,
      "wheel": 8344,
      "fiance": 8345,
      "ppies": 8346,
      "upcoming": 8347,
      "saf": 8348,
      "indiv": 8349,
      "carbon": 8350,
      "goodnight": 8351,
      "artist": 8352,
      "pover": 8353,
      "sss": 8354,
      "romania": 8355,
      "tool": 8356,
      "rows": 8357,
      "monique": 8358,
      "quali": 8359,
      "tyre": 8360,
      "types": 8361,
      "wax": 8362,
      "wave": 8363,
      "hometown": 8364,
      "photography": 8365,
      "stein": 8366,
      "manu": 8367,
      "aled": 8368,
      "lasts": 8369,
      "minor": 8370,
      "minny": 8371,
      "agenda": 8372,
      "francie": 8373,
      "overtime": 8374,
      "overslept": 8375,
      "charged": 8376,
      "sery": 8377,
      "answered": 8378,
      "funds": 8379,
      "lita": 8380,
      ":((": 8381,
      "picnic": 8382,
      "birming": 8383,
      "lorna": 8384,
      "shown": 8385,
      "clemen": 8386,
      "earrings": 8387,
      "larissa": 8388,
      "catering": 8389,
      "walks": 8390,
      "slee": 8391,
      "ipad": 8392,
      "evenings": 8393,
      "jamas": 8394,
      "lounge": 8395,
      "mpia": 8396,
      "trainer": 8397,
      "stream": 8398,
      "understandable": 8399,
      "presentations": 8400,
      "istan": 8401,
      "blow": 8402,
      "superman": 8403,
      "conditions": 8404,
      "horace": 8405,
      "horses": 8406,
      "salsa": 8407,
      "jillian": 8408,
      "basics": 8409,
      "burned": 8410,
      "ooooo": 8411,
      "spotify": 8412,
      "cribed": 8413,
      "stars": 8414,
      "fitness": 8415,
      "debate": 8416,
      "pieter": 8417,
      "grammar": 8418,
      "colby": 8419,
      "walls": 8420,
      "tanvi": 8421,
      "tamar": 8422,
      "marijuana": 8423,
      "melania": 8424,
      "kore": 8425,
      "alaina": 8426,
      "vail": 8427,
      "marcia": 8428,
      "camping": 8429,
      "palace": 8430,
      "graphic": 8431,
      "17th": 8432,
      "virus": 8433,
      "romeo": 8434,
      "assignments": 8435,
      "^^)": 8436,
      "nonsense": 8437,
      "allergy": 8438,
      "community": 8439,
      "necessarily": 8440,
      "cabin": 8441,
      "router": 8442,
      "eloise": 8443,
      "zero": 8444,
      "amazed": 8445,
      "bearable": 8446,
      "scenario": 8447,
      "beyond": 8448,
      "committee": 8449,
      "antibio": 8450,
      "recovering": 8451,
      "compared": 8452,
      "nursery": 8453,
      "android": 8454,
      "dumped": 8455,
      "technical": 8456,
      "dolph": 8457,
      "designer": 8458,
      "sponsor": 8459,
      "saskia": 8460,
      "clementine": 8461,
      "optimistic": 8462,
      "association": 8463,
      "recognize": 8464,
      "settling": 8465,
      "photographer": 8466,
      "tacos": 8467,
      "chemistry": 8468,
      "enthusiastic": 8469,
      "ceremony": 8470,
      "greatest": 8471,
      "jewelry": 8472,
      "mitchell": 8473,
      "glesny": 8474,
      "ostoja": 8475,
      "memphis": 8476,
      "birmingham": 8477,
      "32": 8478,
      "44": 8479,
      "56": 8480,
      "66": 8481,
      "77": 8482,
      ";-": 8483,
      ">:(": 8484,
      "abu": 8485,
      "bber": 8486,
      "bale": 8487,
      "clive": 8488,
      "cables": 8489,
      "dding": 8490,
      "ely": 8491,
      "eager": 8492,
      "faces": 8493,
      "gp": 8494,
      "jp": 8495,
      "kn": 8496,
      "kendy": 8497,
      "lun": 8498,
      "nity": 8499,
      "sly": 8500,
      "skate": 8501,
      "tter": 8502,
      "tack": 8503,
      "umm": 8504,
      "upper": 8505,
      "vant": 8506,
      "villa": 8507,
      "vamp": 8508,
      "wra": 8509,
      "wank": 8510,
      "woken": 8511,
      "xton": 8512,
      "zane": 8513,
      "～～": 8514,
      "🎉🎉": 8515,
      "😘😘": 8516,
      "thru": 8517,
      "anas": 8518,
      "oug": 8519,
      "retake": 8520,
      "reference": 8521,
      "returning": 8522,
      "toll": 8523,
      "isley": 8524,
      "itive": 8525,
      "orch": 8526,
      "heater": 8527,
      "hectic": 8528,
      "anderson": 8529,
      "hamed": 8530,
      "noelle": 8531,
      "bee": 8532,
      "belinda": 8533,
      "icing": 8534,
      "icio": 8535,
      "rore": 8536,
      "liquid": 8537,
      "holes": 8538,
      "howie": 8539,
      "goat": 8540,
      "eding": 8541,
      "acked": 8542,
      "neomi": 8543,
      "ets": 8544,
      "alley": 8545,
      "located": 8546,
      "doin": 8547,
      "dolly": 8548,
      "arett": 8549,
      "chie": 8550,
      "chant": 8551,
      "colo": 8552,
      "ghurt": 8553,
      "rien": 8554,
      "rigu": 8555,
      "suf": 8556,
      "lynda": 8557,
      "abs": 8558,
      "abbey": 8559,
      "outfits": 8560,
      "cancun": 8561,
      "onel": 8562,
      "lavin": 8563,
      "marleen": 8564,
      "moore": 8565,
      "mohamed": 8566,
      "termin": 8567,
      "terrace": 8568,
      "gee": 8569,
      "ode": 8570,
      "herbert": 8571,
      "autom": 8572,
      "aurore": 8573,
      "ravi": 8574,
      "raised": 8575,
      "plates": 8576,
      "bolog": 8577,
      "miah": 8578,
      "tains": 8579,
      "entry": 8580,
      "protest": 8581,
      "pos": 8582,
      "pockets": 8583,
      "urban": 8584,
      "commission": 8585,
      "exclu": 8586,
      "workplace": 8587,
      "percy": 8588,
      "gotcha": 8589,
      "wouldnt": 8590,
      "frannie": 8591,
      "fuss": 8592,
      "johnathan": 8593,
      "spy": 8594,
      "spin": 8595,
      "spud": 8596,
      "betsy": 8597,
      "homeless": 8598,
      "everytime": 8599,
      "jelly": 8600,
      "matches": 8601,
      "paisley": 8602,
      "sammie": 8603,
      "fried": 8604,
      "patri": 8605,
      "maryam": 8606,
      "overreact": 8607,
      "moroc": 8608,
      "barba": 8609,
      "barnab": 8610,
      "disappo": 8611,
      "discover": 8612,
      "dalia": 8613,
      "apps": 8614,
      "madness": 8615,
      "bree": 8616,
      "diary": 8617,
      "freedom": 8618,
      "intrigu": 8619,
      "laurien": 8620,
      "lenna": 8621,
      "30th": 8622,
      "selfie": 8623,
      "trial": 8624,
      "pushed": 8625,
      "daniela": 8626,
      "corina": 8627,
      "davon": 8628,
      "jaca": 8629,
      "simona": 8630,
      "iola": 8631,
      "creating": 8632,
      "pays": 8633,
      "ronaldo": 8634,
      "walmart": 8635,
      "aaah": 8636,
      "everett": 8637,
      "casa": 8638,
      "foods": 8639,
      "blond": 8640,
      "lifestyle": 8641,
      "niece": 8642,
      "trek": 8643,
      "harder": 8644,
      "anabelle": 8645,
      "jaya": 8646,
      "licence": 8647,
      "resour": 8648,
      "concerts": 8649,
      "sisters": 8650,
      "expects": 8651,
      "dorothea": 8652,
      "dete": 8653,
      "vesna": 8654,
      "brothers": 8655,
      "promising": 8656,
      "crashed": 8657,
      "explore": 8658,
      "climate": 8659,
      "preferably": 8660,
      "accounting": 8661,
      "complex": 8662,
      "piyu": 8663,
      "sylve": 8664,
      "pricey": 8665,
      "theodore": 8666,
      "quicker": 8667,
      "celebration": 8668,
      "messy": 8669,
      "productive": 8670,
      "resume": 8671,
      "effective": 8672,
      "francisco": 8673,
      "browsing": 8674,
      "bananas": 8675,
      "gustav": 8676,
      "annoys": 8677,
      "complained": 8678,
      "brazi": 8679,
      "approved": 8680,
      "cameras": 8681,
      "balance": 8682,
      "writer": 8683,
      "writes": 8684,
      "examples": 8685,
      "sessions": 8686,
      "crowds": 8687,
      "sausages": 8688,
      "apologies": 8689,
      "slipped": 8690,
      "24th": 8691,
      "excuses": 8692,
      "avenue": 8693,
      "tracking": 8694,
      "mauricio": 8695,
      "constant": 8696,
      "circle": 8697,
      "bastards": 8698,
      "introduced": 8699,
      "embarras": 8700,
      "xdddd": 8701,
      "frost": 8702,
      "blanca": 8703,
      "pretending": 8704,
      "therapist": 8705,
      "relevant": 8706,
      "thriller": 8707,
      "pushing": 8708,
      "participants": 8709,
      "kendra": 8710,
      "kendrick": 8711,
      "encourage": 8712,
      "cigarett": 8713,
      "websites": 8714,
      "provided": 8715,
      "gathering": 8716,
      "gosia": 8717,
      "spoilers": 8718,
      "protect": 8719,
      "shakespe": 8720,
      "humour": 8721,
      "geography": 8722,
      "gisela": 8723,
      "champion": 8724,
      "bristol": 8725,
      "touched": 8726,
      "aquaman": 8727,
      "quote": 8728,
      "trinity": 8729,
      "challenging": 8730,
      "lifes": 8731,
      "translator": 8732,
      "finale": 8733,
      "junior": 8734,
      "tawny": 8735,
      "sheehan": 8736,
      "wagner": 8737,
      "pizzas": 8738,
      "bentley": 8739,
      "safety": 8740,
      "individ": 8741,
      "korean": 8742,
      "lavinia": 8743,
      "bologna": 8744,
      "barnaby": 8745,
      "disappointing": 8746,
      "piyush": 8747,
      "cigarettes": 8748,
      "1h": 8749,
      "22nd": 8750,
      "27th": 8751,
      "75": 8752,
      ":]": 8753,
      "abel": 8754,
      "b4": 8755,
      "bicy": 8756,
      "dag": 8757,
      "ghe": 8758,
      "gilda": 8759,
      "hous": 8760,
      "ium": 8761,
      "manda": 8762,
      "oly": 8763,
      "ovan": 8764,
      "pine": 8765,
      "pint": 8766,
      "rated": 8767,
      "scent": 8768,
      "scam": 8769,
      "tm": 8770,
      "ude": 8771,
      "vas": 8772,
      "vine": 8773,
      "xander": 8774,
      "yan": 8775,
      "zes": 8776,
      "zia": 8777,
      "reu": 8778,
      "required": 8779,
      "theories": 8780,
      "errand": 8781,
      "arre": 8782,
      "hea": 8783,
      "leaf": 8784,
      "habit": 8785,
      "beg": 8786,
      "solo": 8787,
      "rol": 8788,
      "romy": 8789,
      "rotf": 8790,
      "hops": 8791,
      "alma": 8792,
      "formu": 8793,
      "edia": 8794,
      "ids": 8795,
      "domi": 8796,
      "dolen": 8797,
      "amal": 8798,
      "colla": 8799,
      "colon": 8800,
      "butt": 8801,
      "marian": 8802,
      "donovan": 8803,
      "deed": 8804,
      "devices": 8805,
      "fees": 8806,
      "worn": 8807,
      "raf": 8808,
      "rafal": 8809,
      "peggie": 8810,
      "filly": 8811,
      "upon": 8812,
      "plate": 8813,
      "mild": 8814,
      "carib": 8815,
      "prom": 8816,
      "guill": 8817,
      "guide": 8818,
      "constan": 8819,
      "file_image": 8820,
      "ruben": 8821,
      "chess": 8822,
      "venom": 8823,
      "prevent": 8824,
      "meets": 8825,
      "user": 8826,
      "monster": 8827,
      "redu": 8828,
      "frit": 8829,
      "avril": 8830,
      "spar": 8831,
      "johns": 8832,
      "jail": 8833,
      "steak": 8834,
      "lists": 8835,
      "mature": 8836,
      "??!": 8837,
      "cyber": 8838,
      "finals": 8839,
      "ersin": 8840,
      "stuart": 8841,
      "cling": 8842,
      "charming": 8843,
      "cury": 8844,
      "symp": 8845,
      "dawn": 8846,
      "maddison": 8847,
      "divid": 8848,
      "dizzy": 8849,
      "freel": 8850,
      "viol": 8851,
      "prick": 8852,
      "sham": 8853,
      "shaz": 8854,
      "renata": 8855,
      "pulled": 8856,
      "gggg": 8857,
      "corre": 8858,
      "masha": 8859,
      "schools": 8860,
      "closet": 8861,
      "underground": 8862,
      "supports": 8863,
      "darline": 8864,
      "ronic": 8865,
      ".......": 8866,
      "damar": 8867,
      "tress": 8868,
      "desi": 8869,
      "15min": 8870,
      "louisa": 8871,
      "mplo": 8872,
      "nette": 8873,
      "champa": 8874,
      "differently": 8875,
      "surprises": 8876,
      "mateo": 8877,
      "hungover": 8878,
      "realistic": 8879,
      "expenses": 8880,
      "123": 8881,
      "sala": 8882,
      "halfway": 8883,
      "musical": 8884,
      "basil": 8885,
      "merida": 8886,
      "scow": 8887,
      "burgh": 8888,
      "rained": 8889,
      "yoghurt": 8890,
      "dropping": 8891,
      "adela": 8892,
      "branden": 8893,
      "hammond": 8894,
      "magical": 8895,
      "iii": 8896,
      "production": 8897,
      "fficient": 8898,
      "ibly": 8899,
      "secure": 8900,
      "purse": 8901,
      "violence": 8902,
      "wroclaw": 8903,
      ":))))": 8904,
      "prescription": 8905,
      "ikr": 8906,
      "saul": 8907,
      "qualities": 8908,
      "scient": 8909,
      "sheri": 8910,
      "decoration": 8911,
      "downloaded": 8912,
      "flav": 8913,
      "equally": 8914,
      "hettie": 8915,
      "physical": 8916,
      "********": 8917,
      "averi": 8918,
      "unemplo": 8919,
      "whisky": 8920,
      "peaceful": 8921,
      "provider": 8922,
      "rashid": 8923,
      "independence": 8924,
      "false": 8925,
      "jaden": 8926,
      "remote": 8927,
      "junk": 8928,
      "accused": 8929,
      "yikes": 8930,
      "overwhelmed": 8931,
      "corporate": 8932,
      "climbing": 8933,
      "giselle": 8934,
      "peanut": 8935,
      "motivated": 8936,
      "gallery": 8937,
      "dialogues": 8938,
      "sicily": 8939,
      "inspired": 8940,
      "philosophy": 8941,
      "lefto": 8942,
      "idiots": 8943,
      "fernando": 8944,
      "brazilian": 8945,
      "errands": 8946,
      "constanza": 8947,
      "symptoms": 8948,
      "''": 8949,
      "(*": 8950,
      "31": 8951,
      ":[": 8952,
      "?\"": 8953,
      "ahahaha": 8954,
      "cly": 8955,
      "dwi": 8956,
      "dge": 8957,
      "ethe": 8958,
      "emm": 8959,
      "gareth": 8960,
      "hint": 8961,
      "jav": 8962,
      "lting": 8963,
      "obe": 8964,
      "pha": 8965,
      "phis": 8966,
      "slot": 8967,
      "scale": 8968,
      "tine": 8969,
      "tation": 8970,
      "taught": 8971,
      "ured": 8972,
      "yoh": 8973,
      "zed": 8974,
      "zza": 8975,
      "~~": 8976,
      "😃😃": 8977,
      "😠😠": 8978,
      "😮😮": 8979,
      "ination": 8980,
      "infin": 8981,
      "renew": 8982,
      "refund": 8983,
      "err": 8984,
      "meters": 8985,
      "isma": 8986,
      "ites": 8987,
      "helia": 8988,
      "stam": 8989,
      "leland": 8990,
      "haw": 8991,
      "ened": 8992,
      "envious": 8993,
      "noisy": 8994,
      "notific": 8995,
      "becomes": 8996,
      "icure": 8997,
      "esha": 8998,
      "hooked": 8999,
      "alisha": 9000,
      "aldona": 9001,
      "edin": 9002,
      "looo": 9003,
      "looooo": 9004,
      "doy": 9005,
      "arez": 9006,
      "arena": 9007,
      "amh": 9008,
      "amor": 9009,
      "rif": 9010,
      "aba": 9011,
      "tier": 9012,
      "canad": 9013,
      "jurek": 9014,
      "impatient": 9015,
      "moscow": 9016,
      "yelled": 9017,
      "nau": 9018,
      "herbs": 9019,
      "justice": 9020,
      "unable": 9021,
      "fered": 9022,
      "peach": 9023,
      "ppro": 9024,
      "tap": 9025,
      "cardiff": 9026,
      "prosec": 9027,
      "urgh": 9028,
      "explan": 9029,
      "extension": 9030,
      "exception": 9031,
      "checks": 9032,
      "lette": 9033,
      "niamh": 9034,
      "preg": 9035,
      "brace": 9036,
      "shouldnt": 9037,
      "inappro": 9038,
      "dani": 9039,
      "liest": 9040,
      "bettina": 9041,
      "stevie": 9042,
      "sorts": 9043,
      "jewell": 9044,
      "woo": 9045,
      "sample": 9046,
      "patsy": 9047,
      "tionary": 9048,
      "trau": 9049,
      "harley": 9050,
      "charging": 9051,
      "server": 9052,
      "sym": 9053,
      "firm": 9054,
      "bargain": 9055,
      "daw": 9056,
      "vinnie": 9057,
      "divide": 9058,
      "theirs": 9059,
      "10th": 9060,
      "intend": 9061,
      "penis": 9062,
      "timing": 9063,
      "kailey": 9064,
      "spell": 9065,
      "picks": 9066,
      "obhan": 9067,
      "remembers": 9068,
      "parano": 9069,
      "msg": 9070,
      "corbin": 9071,
      "dinah": 9072,
      "kiddin": 9073,
      "lorrie": 9074,
      "rental": 9075,
      "henriette": 9076,
      "nickolas": 9077,
      "certific": 9078,
      "fredrik": 9079,
      "larisa": 9080,
      "blouse": 9081,
      "ipedia": 9082,
      "fern": 9083,
      "planet": 9084,
      "differences": 9085,
      "ophelia": 9086,
      "movement": 9087,
      "richmond": 9088,
      "stretch": 9089,
      "sickness": 9090,
      "hmmmm": 9091,
      "giant": 9092,
      "blocking": 9093,
      "voting": 9094,
      "karan": 9095,
      "sigh": 9096,
      "siobhan": 9097,
      "brady": 9098,
      "calcu": 9099,
      "throughout": 9100,
      "highway": 9101,
      "sensible": 9102,
      "mercury": 9103,
      "cleaners": 9104,
      "bikes": 9105,
      "arette": 9106,
      "vanni": 9107,
      "vanilla": 9108,
      "drops": 9109,
      "messaged": 9110,
      "flatmate": 9111,
      "addition": 9112,
      "deadlines": 9113,
      "crimin": 9114,
      "panicking": 9115,
      "draft": 9116,
      "accounts": 9117,
      "kiko": 9118,
      "staring": 9119,
      "yucatan": 9120,
      "crista": 9121,
      "coping": 9122,
      "tanja": 9123,
      "producer": 9124,
      "bourg": 9125,
      "korea": 9126,
      "requests": 9127,
      "buildings": 9128,
      "hehehe": 9129,
      "aniel": 9130,
      "arium": 9131,
      "macbook": 9132,
      "explaining": 9133,
      "connections": 9134,
      "campbell": 9135,
      "apollo": 9136,
      "tourist": 9137,
      "conversations": 9138,
      "pinkie": 9139,
      "powerful": 9140,
      "kamren": 9141,
      "discounts": 9142,
      "pillow": 9143,
      "pillows": 9144,
      "confusing": 9145,
      "confidence": 9146,
      "16th": 9147,
      "whaaaa": 9148,
      "allergies": 9149,
      "particularly": 9150,
      "mellery": 9151,
      "rani": 9152,
      "apologise": 9153,
      "terrified": 9154,
      "cassandra": 9155,
      "membership": 9156,
      "appears": 9157,
      "status": 9158,
      "registered": 9159,
      "target": 9160,
      "incredibly": 9161,
      "basement": 9162,
      "critical": 9163,
      "allows": 9164,
      "beatriz": 9165,
      "activity": 9166,
      "approaching": 9167,
      "sheets": 9168,
      "sources": 9169,
      "familiar": 9170,
      "cigarette": 9171,
      "entertaining": 9172,
      "exhausting": 9173,
      "depressing": 9174,
      "hundreds": 9175,
      "pitt": 9176,
      "exaggerating": 9177,
      "frame": 9178,
      "inspiration": 9179,
      "predictable": 9180,
      "\\\\\\\\": 9181,
      "lasagne": 9182,
      "addicted": 9183,
      "hawaii": 9184,
      "thumbs": 9185,
      "mikaela": 9186,
      "mushroom": 9187,
      "alejandra": 9188,
      "havana": 9189,
      "circumstances": 9190,
      "glitter": 9191,
      "liliana": 9192,
      "tmrw": 9193,
      "conflict": 9194,
      "biscu": 9195,
      "increase": 9196,
      "recruit": 9197,
      "attempt": 9198,
      "alonzo": 9199,
      "edyta": 9200,
      "objects": 9201,
      "wikipedia": 9202,
      "*.*": 9203,
      "morocco": 9204,
      "embarrassed": 9205,
      "shakespeare": 9206,
      "lifesaver": 9207,
      "rotfl": 9208,
      "champag": 9209,
      "unemployed": 9210,
      "dwight": 9211,
      "ethel": 9212,
      "prosecco": 9213,
      "',": 9214,
      "(・": 9215,
      "(^^)": 9216,
      ".,": 9217,
      "95": 9218,
      "9am": 9219,
      "_v": 9220,
      "`)": 9221,
      "biz": 9222,
      "cers": 9223,
      "elen": 9224,
      "ebay": 9225,
      "fala": 9226,
      "ix": 9227,
      "ipat": 9228,
      "jessa": 9229,
      "kac": 9230,
      "kry": 9231,
      "lk": 9232,
      "lty": 9233,
      "oti": 9234,
      "padd": 9235,
      "rah": 9236,
      "slip": 9237,
      "tas": 9238,
      "ulla": 9239,
      "xious": 9240,
      "yanny": 9241,
      "😀😀": 9242,
      "😩😩": 9243,
      "anto": 9244,
      "inn": 9245,
      "inconvenience": 9246,
      "revolu": 9247,
      "theless": 9248,
      "oni": 9249,
      "erm": 9250,
      "iser": 9251,
      "hamilton": 9252,
      "seaf": 9253,
      "asher": 9254,
      "asian": 9255,
      "aspect": 9256,
      "weir": 9257,
      "weap": 9258,
      "liber": 9259,
      "liking": 9260,
      "forgetting": 9261,
      "edition": 9262,
      "nellie": 9263,
      "allao": 9264,
      "loser": 9265,
      "lorela": 9266,
      "loreen": 9267,
      "aretha": 9268,
      "amon": 9269,
      "amie": 9270,
      "cocon": 9271,
      "adnan": 9272,
      "lyman": 9273,
      "tix": 9274,
      "outstanding": 9275,
      "ieva": 9276,
      "noted": 9277,
      "joint": 9278,
      "josi": 9279,
      "immi": 9280,
      "irina": 9281,
      "tex": 9282,
      "naked": 9283,
      "maine": 9284,
      "mauro": 9285,
      "shyann": 9286,
      "feb": 9287,
      "feyi": 9288,
      "raw": 9289,
      "rame": 9290,
      "raising": 9291,
      "raiola": 9292,
      "filling": 9293,
      "pple": 9294,
      "bobo": 9295,
      "boot": 9296,
      "tails": 9297,
      "saint": 9298,
      "cart": 9299,
      "carrots": 9300,
      "mud": 9301,
      "poz": 9302,
      "pole": 9303,
      "posh": 9304,
      "ssss": 9305,
      "conside": 9306,
      "consci": 9307,
      "berdie": 9308,
      "extend": 9309,
      "gaz": 9310,
      "histor": 9311,
      "monu": 9312,
      "monkey": 9313,
      "frann": 9314,
      "phra": 9315,
      "bleeding": 9316,
      "waking": 9317,
      "danial": 9318,
      "wherever": 9319,
      "jag": 9320,
      "jame": 9321,
      "woof": 9322,
      "katelin": 9323,
      "?????": 9324,
      "cycling": 9325,
      "cloud": 9326,
      "assment": 9327,
      "aggress": 9328,
      "tray": 9329,
      "charges": 9330,
      "serving": 9331,
      "civil": 9332,
      "cudd": 9333,
      "moris": 9334,
      "coup": 9335,
      "bark": 9336,
      "nerves": 9337,
      "tense": 9338,
      "trude": 9339,
      "length": 9340,
      "30min": 9341,
      "pron": 9342,
      "shadow": 9343,
      "selfish": 9344,
      "leather": 9345,
      "frankfur": 9346,
      "andres": 9347,
      "minds": 9348,
      "lorraine": 9349,
      "kinds": 9350,
      "clown": 9351,
      "underwear": 9352,
      "interests": 9353,
      "interior": 9354,
      "household": 9355,
      "nesses": 9356,
      "survi": 9357,
      "survey": 9358,
      "denny": 9359,
      "darwin": 9360,
      "aaat": 9361,
      "tub": 9362,
      "craving": 9363,
      "craft": 9364,
      "warn": 9365,
      "warrant": 9366,
      "warned": 9367,
      "streaming": 9368,
      "elegant": 9369,
      "understands": 9370,
      "lunchtime": 9371,
      "former": 9372,
      "giulia": 9373,
      "matej": 9374,
      "attach": 9375,
      "attacks": 9376,
      "attacked": 9377,
      "workshops": 9378,
      "couples": 9379,
      "childish": 9380,
      "hhhh": 9381,
      "muscles": 9382,
      "basia": 9383,
      "unique": 9384,
      "instit": 9385,
      "team_v": 9386,
      "learnt": 9387,
      "kaya": 9388,
      "closest": 9389,
      "flattered": 9390,
      "malta": 9391,
      "specialist": 9392,
      "expans": 9393,
      "radcliff": 9394,
      "adrianne": 9395,
      "wwww": 9396,
      "legit": 9397,
      "crisps": 9398,
      "shari": 9399,
      "cutting": 9400,
      "fortunate": 9401,
      "generous": 9402,
      "fallows": 9403,
      "brows": 9404,
      "brownies": 9405,
      "property": 9406,
      "practically": 9407,
      "shipped": 9408,
      "convincing": 9409,
      "mbia": 9410,
      "museums": 9411,
      "graphs": 9412,
      "quitting": 9413,
      "stalker": 9414,
      "sausage": 9415,
      "titles": 9416,
      "drums": 9417,
      "machines": 9418,
      "tessie": 9419,
      "14th": 9420,
      "terrifying": 9421,
      "americans": 9422,
      "designed": 9423,
      "jumped": 9424,
      "defense": 9425,
      "bowl": 9426,
      "opportunities": 9427,
      "downloading": 9428,
      "directions": 9429,
      "70s": 9430,
      "cocoa": 9431,
      "keenan": 9432,
      "submitted": 9433,
      "ironing": 9434,
      "departing": 9435,
      "unavail": 9436,
      "bachel": 9437,
      "bacallao": 9438,
      "experiences": 9439,
      "massive": 9440,
      "supporting": 9441,
      "architect": 9442,
      "intention": 9443,
      "responsibilities": 9444,
      "pyjamas": 9445,
      "employee": 9446,
      "stroke": 9447,
      "gisele": 9448,
      "volume": 9449,
      "recognise": 9450,
      "mcdonalds": 9451,
      "religious": 9452,
      "lyrics": 9453,
      "encourages": 9454,
      "benefits": 9455,
      "dramatic": 9456,
      "compliment": 9457,
      "dumplings": 9458,
      "rejected": 9459,
      "comparison": 9460,
      "albania": 9461,
      "flirting": 9462,
      "rugby": 9463,
      "resources": 9464,
      "sylvester": 9465,
      "reuben": 9466,
      "deedee": 9467,
      "infinity": 9468,
      "edinburgh": 9469,
      "pregnancy": 9470,
      "jewellery": 9471,
      "paranoid": 9472,
      "champagne": 9473,
      "antoine": 9474,
      "lorelai": 9475,
      "coconut": 9476,
      "considered": 9477,
      "conscious": 9478,
      "frankfurt": 9479,
      "unavailable": 9480,
      "83": 9481,
      "9th": 9482,
      "aay": 9483,
      "aliza": 9484,
      "bann": 9485,
      "bborn": 9486,
      "cc": 9487,
      "cs": 9488,
      "cah": 9489,
      "fry": 9490,
      "ffi": 9491,
      "gt": 9492,
      "gno": 9493,
      "hort": 9494,
      "itors": 9495,
      "jaron": 9496,
      "khand": 9497,
      "nation": 9498,
      "nala": 9499,
      "oon": 9500,
      "oter": 9501,
      "ood": 9502,
      "opr": 9503,
      "ology": 9504,
      "punch": 9505,
      "rin": 9506,
      "ration": 9507,
      "sas": 9508,
      "sia": 9509,
      "swo": 9510,
      "scri": 9511,
      "sized": 9512,
      "twi": 9513,
      "tish": 9514,
      "troll": 9515,
      "uing": 9516,
      "vr": 9517,
      "yen": 9518,
      "yves": 9519,
      "😔😔": 9520,
      "antony": 9521,
      "reo": 9522,
      "remy": 9523,
      "regan": 9524,
      "refer": 9525,
      "retired": 9526,
      "refresh": 9527,
      "thee": 9528,
      "onika": 9529,
      "youve": 9530,
      "argh": 9531,
      "army": 9532,
      "heck": 9533,
      "leona": 9534,
      "lebron": 9535,
[...]
