{
  "version": "1.0",
  "truncation": null,
  "padding": null,
  "added_tokens": [
    {
      "id": 0,
      "content": "[UNK]",
      "single_word": false,
      "lstrip": false,
      "rstrip": false,
      "normalized": false,
      "special": true
    },
    {
      "id": 1,
      "content": "[PAD]",
      "single_word": false,
      "lstrip": false,
      "rstrip": false,
      "normalized": false,
      "special": true
    },
    {
      "id": 2,
      "content": "[BOS]",
      "single_word": false,
      "lstrip": false,
      "rstrip": false,
      "normalized": false,
      "special": true
    },
    {
      "id": 3,
      "content": "[EOS]",
      "single_word": false,
      "lstrip": false,
      "rstrip": false,
      "normalized": false,
      "special": true
    },
    {
      "id": 4,
      "content": "<SPEAKER_1>",
      "single_word": false,
      "lstrip": false,
      "rstrip": false,
      "normalized": false,
      "special": true
    },
    {
      "id": 5,
      "content": "<SPEAKER_2>",
      "single_word": false,
      "lstrip": false,
      "rstrip": false,
      "normalized": false,
      "special": true
    },
    {
      "id": 6,
      "content": "<SPEAKER_3>",
      "single_word": false,
      "lstrip": false,
      "rstrip": false,
      "normalized": false,
      "special": true
    },
    {
      "id": 7,
      "content": "<SPEAKER_4>",
      "single_word": false,
      "lstrip": false,
      "rstrip": false,
      "normalized": false,
      "special": true
    },
    {
      "id": 8,
      "content": "<SPEAKER_5>",
      "single_word": false,
      "lstrip": false,
      "rstrip": false,
      "normalized": false,
      "special": true
    },
    {
      "id": 9,
      "content": "<SPEAKER_6>",
      "single_word": false,
      "lstrip": false,
      "rstrip": false,
      "normalized": false,
      "special": true
    },
    {
      "id": 10,
      "content": "<TURN>",
      "single_word": false,
      "lstrip": false,
      "rstrip": false,
      "normalized": false,
      "special": true
    },
    {
      "id": 11,
      "content": "</TURN>",
      "single_word": false,
      "lstrip": false,
      "rstrip": false,
      "normalized": false,
      "special": true
    }
  ],
  "normalizer": {
    "type": "Sequence",
    "normalizers": [
      {
        "type": "NFD"
      },
      {
        "type": "Lowercase"
      },
      {
        "type": "StripAccents"
      }
    ]
  },
  "pre_tokenizer": {
    "type": "Sequence",
    "pretokenizers": [
      {
        "type": "WhitespaceSplit"
      },
      {
        "type": "Punctuation",
        "behavior": "Isolated"
      },
      {
        "type": "Digits",
        "individual_digits": true
      }
    ]
  },
  "post_processor": null,
  "decoder": null,
  "model": {
    "type": "BPE",
    "dropout": null,
    "unk_token": "[UNK]",
    "continuing_subword_prefix": null,
    "end_of_word_suffix": null,
    "fuse_unk": false,
    "byte_fallback": false,
    "ignore_merges": false,
    "vocab": {
      "[UNK]": 0,
      "[PAD]": 1,
      "[BOS]": 2,
      "[EOS]": 3,
      "<SPEAKER_1>": 4,
      "<SPEAKER_2>": 5,
      "<SPEAKER_3>": 6,
      "<SPEAKER_4>": 7,
      "<SPEAKER_5>": 8,
      "<SPEAKER_6>": 9,
      "<TURN>": 10,
      "</TURN>": 11,
      "!": 12,
      "\"": 13,
      "#": 14,
      "$": 15,
      "%": 16,
      "&": 17,
      "'": 18,
      "(": 19,
      ")": 20,
      "*": 21,
      "+": 22,
      ",": 23,
      "-": 24,
      ".": 25,
      "/": 26,
      "0": 27,
      "1": 28,
      "2": 29,
      "3": 30,
      "4": 31,
      "5": 32,
      "6": 33,
      "7": 34,
      "8": 35,
      "9": 36,
      ":": 37,
      ";": 38,
      "<": 39,
      "=": 40,
      ">": 41,
      "?": 42,
      "@": 43,
      "[": 44,
      "\\": 45,
      "]": 46,
      "^": 47,
      "_": 48,
      "`": 49,
      "a": 50,
      "b": 51,
      "c": 52,
      "d": 53,
      "e": 54,
      "f": 55,
      "g": 56,
      "h": 57,
      "i": 58,
      "j": 59,
      "k": 60,
      "l": 61,
      "m": 62,
      "n": 63,
      "o": 64,
      "p": 65,
      "q": 66,
      "r": 67,
      "s": 68,
      "t": 69,
      "u": 70,
      "v": 71,
      "w": 72,
      "x": 73,
      "y": 74,
      "z": 75,
      "{": 76,
      "|": 77,
      "~": 78,
      "¡": 79,
      "£": 80,
      "¯": 81,
      "°": 82,
      "´": 83,
      "·": 84,
      "º": 85,
      "½": 86,
      "×": 87,
      "ø": 88,
      "ł": 89,
      "ʖ": 90,
      "ʘ": 91,
      "ε": 92,
      "θ": 93,
      "σ": 94,
      "φ": 95,
      "ω": 96,
      "д": 97,
      "щ": 98,
      "ل": 99,
      "٩": 100,
      "۶": 101,
      "ಠ": 102,
      "ಥ": 103,
      "ง": 104,
      "༼": 105,
      "༽": 106,
      "ლ": 107,
      "ᄈ": 108,
      "ᄋ": 109,
      "ᄎ": 110,
      "ᅥ": 111,
      "ᅨ": 112,
      "ᅳ": 113,
      "ᆨ": 114,
      "ᆫ": 115,
      "ᵔ": 116,
      "‍": 117,
      "‎": 118,
      "‐": 119,
      "‑": 120,
      "–": 121,
      "—": 122,
      "‘": 123,
      "’": 124,
      "“": 125,
      "”": 126,
      "„": 127,
      "•": 128,
      "…": 129,
      "′": 130,
      "‸": 131,
      "‼": 132,
      "‿": 133,
      "€": 134,
      "∀": 135,
      "∇": 136,
      "∩": 137,
      "≦": 138,
      "≧": 139,
      "⊂": 140,
      "⊃": 141,
      "⌒": 142,
      "⌣": 143,
      "⏱": 144,
      "⑩": 145,
      "─": 146,
      "━": 147,
      "┌": 148,
      "┏": 149,
      "┐": 150,
      "┓": 151,
      "┗": 152,
      "┛": 153,
      "┬": 154,
      "┻": 155,
      "╬": 156,
      "╯": 157,
      "▀": 158,
      "□": 159,
      "▽": 160,
      "◇": 161,
      "○": 162,
      "◎": 163,
      "●": 164,
      "◔": 165,
      "◕": 166,
      "◠": 167,
      "◡": 168,
      "☀": 169,
      "☂": 170,
      "☆": 171,
      "☔": 172,
      "☕": 173,
      "☘": 174,
      "☜": 175,
      "☝": 176,
      "☞": 177,
      "☠": 178,
      "☢": 179,
      "☹": 180,
      "☺": 181,
      "♀": 182,
      "♂": 183,
      "♥": 184,
      "♪": 185,
      "♻": 186,
      "⚪": 187,
      "⚫": 188,
      "⚰": 189,
      "⚽": 190,
      "⛄": 191,
      "✅": 192,
      "✊": 193,
      "✌": 194,
      "✨": 195,
      "✿": 196,
      "❄": 197,
      "❌": 198,
      "❓": 199,
      "❣": 200,
      "❤": 201,
      "➡": 202,
      "⬛": 203,
      "⭐": 204,
      "。": 205,
      "〆": 206,
      "つ": 207,
      "へ": 208,
      "゛": 209,
      "゜": 210,
      "ゝ": 211,
      "ェ": 212,
      "エ": 213,
      "オ": 214,
      "キ": 215,
      "コ": 216,
      "タ": 217,
      "ッ": 218,
      "ツ": 219,
      "ノ": 220,
      "ヘ": 221,
      "ホ": 222,
      "ム": 223,
      "メ": 224,
      "ラ": 225,
      "レ": 226,
      "ロ": 227,
      "ヮ": 228,
      "・": 229,
      "ー": 230,
      "ヽ": 231,
      "ㅂ": 232,
      "一": 233,
      "丶": 234,
      "丿": 235,
      "二": 236,
      "屮": 237,
      "彡": 238,
      "皿": 239,
      "益": 240,
      "自": 241,
      "": 242,
      "": 243,
      "": 244,
      "": 245,
      "︵": 246,
      "﹏": 247,
      "﻿": 248,
      "！": 249,
      "＃": 250,
      "（": 251,
      "）": 252,
      "＊": 253,
      "－": 254,
      "／": 255,
      "；": 256,
      "＠": 257,
      "＼": 258,
      "＾": 259,
      "＿": 260,
      "｀": 261,
      "ａ": 262,
      "ｏ": 263,
      "ｔ": 264,
      "ｕ": 265,
      "ｖ": 266,
      "～": 267,
      "｡": 268,
      "･": 269,
      "ﾉ": 270,
      "ﾐ": 271,
      "ﾟ": 272,
      "￣": 273,
      "￥": 274,
      "🇨": 275,
      "🇫": 276,
      "🇬": 277,
      "🇮": 278,
      "🇳": 279,
      "🇴": 280,
      "🇷": 281,
      "🇸": 282,
      "🌈": 283,
      "🌊": 284,
      "🌎": 285,
      "🌜": 286,
      "🌞": 287,
      "🌟": 288,
      "🌠": 289,
      "🌴": 290,
      "🌸": 291,
      "🌹": 292,
      "🌺": 293,
      "🌿": 294,
      "🍀": 295,
      "🍄": 296,
      "🍅": 297,
      "🍆": 298,
      "🍉": 299,
      "🍋": 300,
      "🍌": 301,
      "🍑": 302,
      "🍒": 303,
      "🍓": 304,
      "🍔": 305,
      "🍦": 306,
      "🍩": 307,
      "🍫": 308,
      "🍭": 309,
      "🍰": 310,
      "🍷": 311,
      "🍸": 312,
      "🍹": 313,
      "🍺": 314,
      "🍻": 315,
      "🍾": 316,
      "🎂": 317,
      "🎃": 318,
      "🎄": 319,
      "🎅": 320,
      "🎆": 321,
      "🎉": 322,
      "🎊": 323,
      "🎥": 324,
      "🎩": 325,
      "🎵": 326,
      "🎶": 327,
      "🎼": 328,
      "🏆": 329,
      "🏋": 330,
      "🏖": 331,
      "🏝": 332,
      "🏧": 333,
      "🏴": 334,
      "🏻": 335,
      "🏼": 336,
      "🏽": 337,
      "🏾": 338,
      "🏿": 339,
      "🐇": 340,
      "🐈": 341,
      "🐉": 342,
      "🐍": 343,
      "🐔": 344,
      "🐝": 345,
      "🐟": 346,
      "🐬": 347,
      "🐮": 348,
      "🐰": 349,
      "🐱": 350,
      "🐳": 351,
      "🐶": 352,
      "🐷": 353,
      "🐻": 354,
      "🐼": 355,
      "🐾": 356,
      "👀": 357,
      "👋": 358,
      "👌": 359,
      "👍": 360,
      "👏": 361,
      "👑": 362,
      "👧": 363,
      "👩": 364,
      "👮": 365,
      "👯": 366,
      "👱": 367,
      "👴": 368,
      "👶": 369,
      "👸": 370,
      "👹": 371,
      "👺": 372,
      "👻": 373,
      "👼": 374,
      "👽": 375,
      "💀": 376,
      "💁": 377,
      "💃": 378,
      "💄": 379,
      "💇": 380,
      "💊": 381,
      "💋": 382,
      "💑": 383,
      "💒": 384,
      "💓": 385,
      "💔": 386,
      "💕": 387,
      "💖": 388,
      "💗": 389,
      "💙": 390,
      "💚": 391,
      "💛": 392,
      "💜": 393,
      "💞": 394,
      "💣": 395,
      "💤": 396,
      "💥": 397,
      "💦": 398,
      "💩": 399,
      "💪": 400,
      "💯": 401,
      "💵": 402,
      "💶": 403,
      "💸": 404,
      "📜": 405,
      "📺": 406,
      "🔑": 407,
      "🔝": 408,
      "🔥": 409,
      "🔫": 410,
      "🔴": 411,
      "🕵": 412,
      "🕷": 413,
      "🖐": 414,
      "🖕": 415,
      "🖤": 416,
      "🗺": 417,
      "😀": 418,
      "😁": 419,
      "😂": 420,
      "😃": 421,
      "😄": 422,
      "😅": 423,
      "😆": 424,
      "😇": 425,
      "😈": 426,
      "😉": 427,
      "😊": 428,
      "😋": 429,
      "😌": 430,
      "😍": 431,
      "😎": 432,
      "😏": 433,
      "😐": 434,
      "😑": 435,
      "😒": 436,
      "😓": 437,
      "😔": 438,
      "😕": 439,
      "😖": 440,
      "😗": 441,
      "😘": 442,
      "😙": 443,
      "😚": 444,
      "😛": 445,
      "😜": 446,
      "😝": 447,
      "😞": 448,
      "😟": 449,
      "😠": 450,
      "😡": 451,
      "😢": 452,
      "😣": 453,
      "😤": 454,
      "😥": 455,
      "😧": 456,
      "😨": 457,
      "😩": 458,
      "😪": 459,
      "😫": 460,
      "😬": 461,
      "😭": 462,
      "😮": 463,
      "😯": 464,
      "😰": 465,
      "😱": 466,
      "😲": 467,
      "😳": 468,
      "😴": 469,
      "😵": 470,
      "😶": 471,
      "😷": 472,
      "😸": 473,
      "😹": 474,
      "😺": 475,
      "😻": 476,
      "😼": 477,
      "😽": 478,
      "🙀": 479,
      "🙁": 480,
      "🙂": 481,
      "🙃": 482,
      "🙄": 483,
      "🙆": 484,
      "🙇": 485,
      "🙈": 486,
      "🙉": 487,
      "🙊": 488,
      "🙋": 489,
      "🙌": 490,
      "🙍": 491,
      "🙎": 492,
      "🙏": 493,
      "🚀": 494,
      "🚣": 495,
      "🚬": 496,
      "🚱": 497,
      "🛌": 498,
      "🤐": 499,
      "🤑": 500,
      "🤒": 501,
      "🤓": 502,
      "🤔": 503,
      "🤕": 504,
      "🤖": 505,
      "🤗": 506,
      "🤘": 507,
      "🤙": 508,
      "🤝": 509,
      "🤞": 510,
      "🤟": 511,
      "🤡": 512,
      "🤢": 513,
      "🤣": 514,
      "🤤": 515,
      "🤦": 516,
      "🤧": 517,
      "🤨": 518,
      "🤩": 519,
      "🤪": 520,
      "🤫": 521,
      "🤬": 522,
      "🤭": 523,
      "🤮": 524,
      "🤯": 525,
      "🤴": 526,
      "🤵": 527,
      "🤷": 528,
      "🤸": 529,
      "🤼": 530,
      "🥁": 531,
      "🥂": 532,
      "🥃": 533,
      "🥇": 534,
      "🥒": 535,
      "🥕": 536,
      "🥗": 537,
      "🥝": 538,
      "🥞": 539,
      "🥪": 540,
      "🥰": 541,
      "🥳": 542,
      "🥵": 543,
      "🥶": 544,
      "🦄": 545,
      "🦊": 546,
      "🦌": 547,
      "🦐": 548,
      "🧒": 549,
      "🧓": 550,
      "🧘": 551,
      "🧙": 552,
      "🧡": 553,
      "🧺": 554,
      "th": 555,
      "an": 556,
      "in": 557,
      "ou": 558,
      "re": 559,
      "the": 560,
      "to": 561,
      "at": 562,
      "on": 563,
      "er": 564,
      "ll": 565,
      "me": 566,
      "is": 567,
      "it": 568,
      "ing": 569,
      "you": 570,
      "or": 571,
      "ar": 572,
      "he": 573,
      "st": 574,
      "le": 575,
      "and": 576,
      "ha": 577,
      "en": 578,
      "no": 579,
      "be": 580,
      "ve": 581,
      "se": 582,
      "ay": 583,
      "ic": 584,
      "as": 585,
      "so": 586,
      "wi": 587,
      "ke": 588,
      "we": 589,
      "ro": 590,
      "es": 591,
      "li": 592,
      "ho": 593,
      "go": 594,
      "al": 595,
      "for": 596,
      "ed": 597,
      "ac": 598,
      "id": 599,
      "ne": 600,
      "bu": 601,
      "of": 602,
      "et": 603,
      "all": 604,
      "lo": 605,
      "that": 606,
      "wh": 607,
      "do": 608,
      "are": 609,
      "ch": 610,
      "am": 611,
      "co": 612,
      "ad": 613,
      "gh": 614,
      "will": 615,
      "ld": 616,
      "ri": 617,
      "ok": 618,
      "su": 619,
      "ly": 620,
      "ab": 621,
      "ti": 622,
      "now": 623,
      "but": 624,
      "have": 625,
      "out": 626,
      "ver": 627,
      "what": 628,
      "can": 629,
      "ry": 630,
      "ju": 631,
      "ght": 632,
      "ie": 633,
      "one": 634,
      "la": 635,
      "with": 636,
      "my": 637,
      "not": 638,
      "day": 639,
      "jo": 640,
      "mar": 641,
      "some": 642,
      "ould": 643,
      "im": 644,
      "ir": 645,
      "mo": 646,
      "ye": 647,
      "she": 648,
      "te": 649,
      "know": 650,
      "na": 651,
      "don": 652,
      "ter": 653,
      "ma": 654,
      "ge": 655,
      "was": 656,
      "ant": 657,
      "if": 658,
      "od": 659,
      "her": 660,
      "thing": 661,
      "sh": 662,
      "de": 663,
      "just": 664,
      "ah": 665,
      "ally": 666,
      "un": 667,
      "fe": 668,
      "ther": 669,
      "they": 670,
      "ink": 671,
      "any": 672,
      "about": 673,
      "like": 674,
      "au": 675,
      "ate": 676,
      "wor": 677,
      "end": 678,
      "this": 679,
      "ra": 680,
      "pe": 681,
      "there": 682,
      "than": 683,
      "ia": 684,
      "whe": 685,
      "fi": 686,
      "pp": 687,
      "how": 688,
      "ce": 689,
      "get": 690,
      "up": 691,
      "tom": 692,
      "ine": 693,
      "your": 694,
      "see": 695,
      "pl": 696,
      "ion": 697,
      "bo": 698,
      "think": 699,
      "ack": 700,
      "want": 701,
      "nt": 702,
      "time": 703,
      "mi": 704,
      "did": 705,
      "ta": 706,
      "ice": 707,
      "our": 708,
      "ent": 709,
      "ick": 710,
      "sa": 711,
      "ill": 712,
      "ind": 713,
      "car": 714,
      "gre": 715,
      "ks": 716,
      "el": 717,
      "good": 718,
      "pro": 719,
      "lu": 720,
      "art": 721,
      "mu": 722,
      "nd": 723,
      "po": 724,
      "going": 725,
      "way": 726,
      "gu": 727,
      "very": 728,
      "ur": 729,
      "yes": 730,
      "ple": 731,
      "com": 732,
      "yeah": 733,
      "ss": 734,
      "sure": 735,
      "need": 736,
      "rom": 737,
      "con": 738,
      "ber": 739,
      "ex": 740,
      "has": 741,
      "file": 742,
      "too": 743,
      "ga": 744,
      "ris": 745,
      "from": 746,
      "come": 747,
      "ck": 748,
      "work": 749,
      "ol": 750,
      "haha": 751,
      "per": 752,
      "got": 753,
      "hi": 754,
      "well": 755,
      "really": 756,
      "anna": 757,
      "row": 758,
      "may": 759,
      "him": 760,
      "ru": 761,
      "his": 762,
      "would": 763,
      "new": 764,
      "che": 765,
      "ven": 766,
      "ound": 767,
      "let": 768,
      "ess": 769,
      "ard": 770,
      "ni": 771,
      "when": 772,
      "wee": 773,
      "pre": 774,
      "oh": 775,
      "meet": 776,
      "af": 777,
      "ide": 778,
      "us": 779,
      "mon": 780,
      "qu": 781,
      "by": 782,
      "ace": 783,
      "ny": 784,
      "other": 785,
      "them": 786,
      "thanks": 787,
      "red": 788,
      "il": 789,
      "br": 790,
      "then": 791,
      "right": 792,
      "ation": 793,
      "fr": 794,
      "look": 795,
      "should": 796,
      "ca": 797,
      "read": 798,
      "ct": 799,
      "orrow": 800,
      "ite": 801,
      "ph": 802,
      "fo": 803,
      "av": 804,
      "ty": 805,
      "ina": 806,
      "ble": 807,
      "gr": 808,
      "week": 809,
      "night": 810,
      "why": 811,
      "fu": 812,
      "ive": 813,
      "take": 814,
      "wa": 815,
      "tomorrow": 816,
      "act": 817,
      "ian": 818,
      "xt": 819,
      "pho": 820,
      "joh": 821,
      "more": 822,
      "sp": 823,
      "dan": 824,
      "great": 825,
      "back": 826,
      "hel": 827,
      "where": 828,
      "lie": 829,
      "bet": 830,
      "chris": 831,
      "home": 832,
      "had": 833,
      "pet": 834,
      "does": 835,
      "could": 836,
      "part": 837,
      "john": 838,
      "ja": 839,
      "love": 840,
      "much": 841,
      "every": 842,
      "cau": 843,
      "om": 844,
      "photo": 845,
      "tal": 846,
      "after": 847,
      "ste": 848,
      "ong": 849,
      "off": 850,
      "maybe": 851,
      "sor": 852,
      "happ": 853,
      "lly": 854,
      "hey": 855,
      "today": 856,
      "cause": 857,
      "ous": 858,
      "king": 859,
      "something": 860,
      "been": 861,
      "man": 862,
      "who": 863,
      "sed": 864,
      "je": 865,
      "wo": 866,
      "lis": 867,
      "wait": 868,
      "ale": 869,
      "make": 870,
      "ment": 871,
      "mat": 872,
      "ts": 873,
      "pa": 874,
      "ig": 875,
      "ough": 876,
      "call": 877,
      "say": 878,
      "jan": 879,
      "ked": 880,
      "ann": 881,
      "last": 882,
      "ff": 883,
      "pau": 884,
      "sam": 885,
      "wn": 886,
      "min": 887,
      "next": 888,
      "still": 889,
      "kate": 890,
      "der": 891,
      "won": 892,
      "ica": 893,
      "here": 894,
      "even": 895,
      "sorry": 896,
      "cy": 897,
      "ys": 898,
      "ara": 899,
      "mber": 900,
      "ut": 901,
      "ready": 902,
      "because": 903,
      "fri": 904,
      "didn": 905,
      "buy": 906,
      "wat": 907,
      "ep": 908,
      "fin": 909,
      "tell": 910,
      "ought": 911,
      "year": 912,
      "pat": 913,
      "lia": 914,
      "ers": 915,
      "friend": 916,
      "help": 917,
      "cho": 918,
      "place": 919,
      "jack": 920,
      "sto": 921,
      "mary": 922,
      "stu": 923,
      "cl": 924,
      "lol": 925,
      "try": 926,
      "ass": 927,
      "ast": 928,
      "peter": 929,
      "ure": 930,
      "oo": 931,
      "son": 932,
      "ag": 933,
      "mes": 934,
      "tion": 935,
      "nice": 936,
      "able": 937,
      "jen": 938,
      "ich": 939,
      "fran": 940,
      "alex": 941,
      "dy": 942,
      "lot": 943,
      "ting": 944,
      "mike": 945,
      "tr": 946,
      "ving": 947,
      "mis": 948,
      "har": 949,
      "over": 950,
      "lat": 951,
      "were": 952,
      "rest": 953,
      "feel": 954,
      "only": 955,
      "wants": 956,
      "ople": 957,
      "ish": 958,
      "people": 959,
      "paul": 960,
      "char": 961,
      "aga": 962,
      "ser": 963,
      "ning": 964,
      "ley": 965,
      "ci": 966,
      "coming": 967,
      "doesn": 968,
      "lf": 969,
      "cu": 970,
      "tha": 971,
      "du": 972,
      "ans": 973,
      "sy": 974,
      "better": 975,
      "mm": 976,
      "sho": 977,
      "ase": 978,
      "give": 979,
      "ben": 980,
      "bit": 981,
      "bro": 982,
      "talk": 983,
      "ways": 984,
      "thank": 985,
      "em": 986,
      "mark": 987,
      "mor": 988,
      "send": 989,
      "ies": 990,
      "fir": 991,
      "proble": 992,
      "find": 993,
      "cou": 994,
      "tra": 995,
      "again": 996,
      "problem": 997,
      "ange": 998,
      "bar": 999,
      "pm": 1000,
      "ity": 1001,
      "gan": 1002,
      "anything": 1003,
      "dis": 1004,
      "already": 1005,
      "hell": 1006,
      "mic": 1007,
      "da": 1008,
      "andy": 1009,
      "fore": 1010,
      "app": 1011,
      "late": 1012,
      "tonight": 1013,
      "party": 1014,
      "start": 1015,
      "book": 1016,
      "les": 1017,
      "vin": 1018,
      "ask": 1019,
      "ach": 1020,
      "mad": 1021,
      "fine": 1022,
      "play": 1023,
      "ort": 1024,
      "hope": 1025,
      "bre": 1026,
      "oli": 1027,
      "bab": 1028,
      "vis": 1029,
      "always": 1030,
      "fun": 1031,
      "guys": 1032,
      "long": 1033,
      "ary": 1034,
      "also": 1035,
      "ell": 1036,
      "tor": 1037,
      "di": 1038,
      "ason": 1039,
      "mean": 1040,
      "please": 1041,
      "ster": 1042,
      "watch": 1043,
      "fre": 1044,
      "jane": 1045,
      "cool": 1046,
      "dre": 1047,
      "irl": 1048,
      "their": 1049,
      "dr": 1050,
      "gif": 1051,
      "sound": 1052,
      "int": 1053,
      "xd": 1054,
      "lit": 1055,
      "cour": 1056,
      "idea": 1057,
      "ger": 1058,
      "lau": 1059,
      "girl": 1060,
      "ner": 1061,
      "pen": 1062,
      "happen": 1063,
      "before": 1064,
      "first": 1065,
      "stay": 1066,
      "around": 1067,
      "ev": 1068,
      "ang": 1069,
      "tim": 1070,
      "bring": 1071,
      "days": 1072,
      "never": 1073,
      "vi": 1074,
      "ten": 1075,
      "tle": 1076,
      "hour": 1077,
      "thought": 1078,
      "jim": 1079,
      "check": 1080,
      "its": 1081,
      "via": 1082,
      "tru": 1083,
      "soon": 1084,
      "reme": 1085,
      "guess": 1086,
      "wr": 1087,
      "course": 1088,
      "lind": 1089,
      "len": 1090,
      "pr": 1091,
      "bad": 1092,
      "okay": 1093,
      "yet": 1094,
      "meeting": 1095,
      "care": 1096,
      "ba": 1097,
      "ka": 1098,
      "iz": 1099,
      "sha": 1100,
      "which": 1101,
      "oney": 1102,
      "sent": 1103,
      "ren": 1104,
      "most": 1105,
      "rick": 1106,
      "later": 1107,
      "doing": 1108,
      "weekend": 1109,
      "spe": 1110,
      "pare": 1111,
      "ful": 1112,
      "self": 1113,
      "sar": 1114,
      "adam": 1115,
      "jess": 1116,
      "pic": 1117,
      "tri": 1118,
      "pu": 1119,
      "pick": 1120,
      "ose": 1121,
      "anne": 1122,
      "sounds": 1123,
      "ob": 1124,
      "job": 1125,
      "happy": 1126,
      "ash": 1127,
      "vic": 1128,
      "geor": 1129,
      "mom": 1130,
      "sarah": 1131,
      "lea": 1132,
      "frank": 1133,
      "tic": 1134,
      "que": 1135,
      "bert": 1136,
      "emi": 1137,
      "remember": 1138,
      "ses": 1139,
      "same": 1140,
      "old": 1141,
      "par": 1142,
      "sat": 1143,
      "anda": 1144,
      "ms": 1145,
      "two": 1146,
      "ually": 1147,
      "frid": 1148,
      "everything": 1149,
      "ise": 1150,
      "best": 1151,
      "danie": 1152,
      "down": 1153,
      "fa": 1154,
      "gg": 1155,
      "cor": 1156,
      "andre": 1157,
      "gon": 1158,
      "james": 1159,
      "josh": 1160,
      "rob": 1161,
      "hu": 1162,
      "month": 1163,
      "christ": 1164,
      "dav": 1165,
      "isa": 1166,
      "though": 1167,
      "ak": 1168,
      "ft": 1169,
      "matt": 1170,
      "nor": 1171,
      "vie": 1172,
      "jake": 1173,
      "din": 1174,
      "might": 1175,
      "ps": 1176,
      "looking": 1177,
      "scho": 1178,
      "told": 1179,
      "kid": 1180,
      "emma": 1181,
      "seen": 1182,
      "ton": 1183,
      "gonna": 1184,
      "bir": 1185,
      "mas": 1186,
      "mind": 1187,
      "lor": 1188,
      "lan": 1189,
      "ious": 1190,
      "david": 1191,
      "liz": 1192,
      "rent": 1193,
      "greg": 1194,
      "jac": 1195,
      "wed": 1196,
      "actually": 1197,
      "ily": 1198,
      "school": 1199,
      "nat": 1200,
      "room": 1201,
      "nothing": 1202,
      "ile": 1203,
      "hen": 1204,
      "harry": 1205,
      "kind": 1206,
      "sim": 1207,
      "kim": 1208,
      "join": 1209,
      "friday": 1210,
      "inv": 1211,
      "dad": 1212,
      "morning": 1213,
      "visit": 1214,
      "bill": 1215,
      "dif": 1216,
      "nick": 1217,
      "went": 1218,
      "tur": 1219,
      "ona": 1220,
      "xx": 1221,
      "monica": 1222,
      "little": 1223,
      "said": 1224,
      "ted": 1225,
      "show": 1226,
      "yester": 1227,
      "dec": 1228,
      "cer": 1229,
      "clo": 1230,
      "inte": 1231,
      "fred": 1232,
      "ody": 1233,
      "yesterday": 1234,
      "ding": 1235,
      "utes": 1236,
      "cle": 1237,
      "lla": 1238,
      "gether": 1239,
      "carol": 1240,
      "linda": 1241,
      "ear": 1242,
      "io": 1243,
      "ouse": 1244,
      "together": 1245,
      "minutes": 1246,
      "george": 1247,
      "aren": 1248,
      "under": 1249,
      "keep": 1250,
      "probab": 1251,
      "ken": 1252,
      "alice": 1253,
      "tty": 1254,
      "max": 1255,
      "daniel": 1256,
      "probably": 1257,
      "ow": 1258,
      "ap": 1259,
      "san": 1260,
      "mum": 1261,
      "few": 1262,
      "count": 1263,
      "joe": 1264,
      "interest": 1265,
      "hael": 1266,
      "hahaha": 1267,
      "cre": 1268,
      "laura": 1269,
      "fect": 1270,
      "lar": 1271,
      "things": 1272,
      "eat": 1273,
      "inter": 1274,
      "land": 1275,
      "wanna": 1276,
      "big": 1277,
      "cat": 1278,
      "getting": 1279,
      "emily": 1280,
      "mart": 1281,
      "free": 1282,
      "birth": 1283,
      "supp": 1284,
      "waiting": 1285,
      "thy": 1286,
      "needs": 1287,
      "drink": 1288,
      "done": 1289,
      "house": 1290,
      "soph": 1291,
      "os": 1292,
      "stand": 1293,
      "lucy": 1294,
      "many": 1295,
      "money": 1296,
      "nes": 1297,
      "wanted": 1298,
      "martha": 1299,
      "satur": 1300,
      "jenny": 1301,
      "sin": 1302,
      "sur": 1303,
      "med": 1304,
      "pay": 1305,
      "bri": 1306,
      "thinking": 1307,
      "haven": 1308,
      "ama": 1309,
      "working": 1310,
      "ire": 1311,
      "ward": 1312,
      "quite": 1313,
      "ric": 1314,
      "julia": 1315,
      "heard": 1316,
      "less": 1317,
      "saturday": 1318,
      "port": 1319,
      "joy": 1320,
      "left": 1321,
      "birthday": 1322,
      "den": 1323,
      "line": 1324,
      "ya": 1325,
      "dinner": 1326,
      "rive": 1327,
      "cent": 1328,
      "dar": 1329,
      "men": 1330,
      "mia": 1331,
      "exact": 1332,
      "sue": 1333,
      "ron": 1334,
      "hanna": 1335,
      "stuff": 1336,
      "ky": 1337,
      "bob": 1338,
      "rac": 1339,
      "saw": 1340,
      "lisa": 1341,
      "olivia": 1342,
      "ever": 1343,
      "sit": 1344,
      "cam": 1345,
      "lle": 1346,
      "leave": 1347,
      "sis": 1348,
      "age": 1349,
      "happened": 1350,
      "beth": 1351,
      "perfect": 1352,
      "maria": 1353,
      "luke": 1354,
      "phone": 1355,
      "tina": 1356,
      "fuck": 1357,
      "jeff": 1358,
      "ance": 1359,
      "friends": 1360,
      "exactly": 1361,
      "wal": 1362,
      "ild": 1363,
      "michael": 1364,
      "agre": 1365,
      "zy": 1366,
      "aa": 1367,
      "sle": 1368,
      "ture": 1369,
      "side": 1370,
      "bor": 1371,
      "sun": 1372,
      "hear": 1373,
      "fam": 1374,
      "eve": 1375,
      "pretty": 1376,
      "body": 1377,
      "cas": 1378,
      "dor": 1379,
      "food": 1380,
      "hello": 1381,
      "found": 1382,
      "steve": 1383,
      "bl": 1384,
      "anyway": 1385,
      "fli": 1386,
      "ancy": 1387,
      "belie": 1388,
      "someone": 1389,
      "ticke": 1390,
      "dian": 1391,
      "christmas": 1392,
      "looks": 1393,
      "true": 1394,
      "jacob": 1395,
      "nu": 1396,
      "henry": 1397,
      "die": 1398,
      "tu": 1399,
      "wow": 1400,
      "made": 1401,
      "robert": 1402,
      "office": 1403,
      "luck": 1404,
      "gina": 1405,
      "having": 1406,
      "busy": 1407,
      "kelly": 1408,
      "quest": 1409,
      "use": 1410,
      "comp": 1411,
      "andra": 1412,
      "amy": 1413,
      "miss": 1414,
      "lt": 1415,
      "sid": 1416,
      "else": 1417,
      "ip": 1418,
      "dress": 1419,
      "andrew": 1420,
      "shit": 1421,
      "lad": 1422,
      "such": 1423,
      "another": 1424,
      "live": 1425,
      "acy": 1426,
      "ava": 1427,
      "worry": 1428,
      "cra": 1429,
      "parent": 1430,
      "believe": 1431,
      "dam": 1432,
      "into": 1433,
      "life": 1434,
      "evening": 1435,
      "ee": 1436,
      "tt": 1437,
      "war": 1438,
      "forgot": 1439,
      "dont": 1440,
      "guy": 1441,
      "tori": 1442,
      "nie": 1443,
      "helen": 1444,
      "phi": 1445,
      "both": 1446,
      "hannah": 1447,
      "karen": 1448,
      "times": 1449,
      "tre": 1450,
      "jam": 1451,
      "serious": 1452,
      "susan": 1453,
      "hard": 1454,
      "away": 1455,
      "vide": 1456,
      "air": 1457,
      "parents": 1458,
      "game": 1459,
      "class": 1460,
      "years": 1461,
      "fer": 1462,
      "amanda": 1463,
      "turn": 1464,
      "des": 1465,
      "plan": 1466,
      "swe": 1467,
      "zo": 1468,
      "ated": 1469,
      "put": 1470,
      "bought": 1471,
      "lin": 1472,
      "zing": 1473,
      "sleep": 1474,
      "um": 1475,
      "diffe": 1476,
      "head": 1477,
      "pping": 1478,
      "rachel": 1479,
      "ject": 1480,
      "mend": 1481,
      "set": 1482,
      "ita": 1483,
      "lou": 1484,
      "mp": 1485,
      "martin": 1486,
      "ible": 1487,
      "jason": 1488,
      "those": 1489,
      "eric": 1490,
      "offe": 1491,
      "unch": 1492,
      "rose": 1493,
      "omg": 1494,
      "ago": 1495,
      "recom": 1496,
      "these": 1497,
      "everyone": 1498,
      "must": 1499,
      "jessica": 1500,
      "text": 1501,
      "recommend": 1502,
      "eas": 1503,
      "ana": 1504,
      "far": 1505,
      "change": 1506,
      "za": 1507,
      "kevin": 1508,
      "cla": 1509,
      "cont": 1510,
      "win": 1511,
      "dave": 1512,
      "number": 1513,
      "ating": 1514,
      "date": 1515,
      "family": 1516,
      "op": 1517,
      "while": 1518,
      "flo": 1519,
      "jose": 1520,
      "move": 1521,
      "barb": 1522,
      "post": 1523,
      "kids": 1524,
      "ign": 1525,
      "ier": 1526,
      "gest": 1527,
      "ations": 1528,
      "rich": 1529,
      "enjoy": 1530,
      "train": 1531,
      "gy": 1532,
      "stop": 1533,
      "stre": 1534,
      "ele": 1535,
      "enough": 1536,
      "hours": 1537,
      "sara": 1538,
      "worri": 1539,
      "ited": 1540,
      "lyn": 1541,
      "mr": 1542,
      "rence": 1543,
      "isn": 1544,
      "least": 1545,
      "mine": 1546,
      "vers": 1547,
      "nancy": 1548,
      "ney": 1549,
      "mail": 1550,
      "net": 1551,
      "sophie": 1552,
      "cha": 1553,
      "aron": 1554,
      "ither": 1555,
      "sick": 1556,
      "sug": 1557,
      "patrick": 1558,
      "gab": 1559,
      "nic": 1560,
      "cook": 1561,
      "picture": 1562,
      "wer": 1563,
      "amazing": 1564,
      "key": 1565,
      "movie": 1566,
      "trip": 1567,
      "jay": 1568,
      "thom": 1569,
      "understand": 1570,
      "clu": 1571,
      "tony": 1572,
      "each": 1573,
      "present": 1574,
      "eva": 1575,
      "kat": 1576,
      "exam": 1577,
      "tickets": 1578,
      "coffe": 1579,
      "thur": 1580,
      "sally": 1581,
      "different": 1582,
      "mall": 1583,
      "str": 1584,
      "paula": 1585,
      "ist": 1586,
      "person": 1587,
      "ction": 1588,
      "unti": 1589,
      "seems": 1590,
      "pris": 1591,
      "name": 1592,
      "bye": 1593,
      "lunch": 1594,
      "sandra": 1595,
      "bella": 1596,
      "charlie": 1597,
      "being": 1598,
      "watching": 1599,
      "ler": 1600,
      "ather": 1601,
      "oup": 1602,
      "brian": 1603,
      "betty": 1604,
      "weeks": 1605,
      "once": 1606,
      "ryan": 1607,
      "patric": 1608,
      "since": 1609,
      "coffee": 1610,
      "order": 1611,
      "video": 1612,
      "plann": 1613,
      "hmm": 1614,
      "ital": 1615,
      "yep": 1616,
      "erry": 1617,
      "thomas": 1618,
      "sk": 1619,
      "ence": 1620,
      "anyone": 1621,
      "toria": 1622,
      "ions": 1623,
      "run": 1624,
      "patricia": 1625,
      "ctor": 1626,
      "leo": 1627,
      "break": 1628,
      "hed": 1629,
      "nata": 1630,
      "diana": 1631,
      "usu": 1632,
      "whole": 1633,
      "own": 1634,
      "shopping": 1635,
      "open": 1636,
      "talking": 1637,
      "wonder": 1638,
      "awe": 1639,
      "sive": 1640,
      "poss": 1641,
      "ot": 1642,
      "test": 1643,
      "bed": 1644,
      "suggest": 1645,
      "ling": 1646,
      "town": 1647,
      "agree": 1648,
      "zoe": 1649,
      "form": 1650,
      "rough": 1651,
      "cial": 1652,
      "ank": 1653,
      "victoria": 1654,
      "plans": 1655,
      "called": 1656,
      "took": 1657,
      "noah": 1658,
      "project": 1659,
      "gi": 1660,
      "bru": 1661,
      "oked": 1662,
      "piz": 1663,
      "wish": 1664,
      "girls": 1665,
      "gen": 1666,
      "ald": 1667,
      "hand": 1668,
      "used": 1669,
      "ket": 1670,
      "defin": 1671,
      "icu": 1672,
      "bs": 1673,
      "sth": 1674,
      "lucas": 1675,
      "dia": 1676,
      "simon": 1677,
      "awesome": 1678,
      "blo": 1679,
      "lic": 1680,
      "beau": 1681,
      "until": 1682,
      "top": 1683,
      "oscar": 1684,
      "ison": 1685,
      "loe": 1686,
      "vo": 1687,
      "almost": 1688,
      "ces": 1689,
      "wear": 1690,
      "asked": 1691,
      "fiona": 1692,
      "surpris": 1693,
      "iam": 1694,
      "case": 1695,
      "ella": 1696,
      "mate": 1697,
      "super": 1698,
      "terry": 1699,
      "spend": 1700,
      "aw": 1701,
      "dd": 1702,
      "hun": 1703,
      "cond": 1704,
      "grace": 1705,
      "sweet": 1706,
      "met": 1707,
      "liam": 1708,
      "cked": 1709,
      "res": 1710,
      "real": 1711,
      "sunday": 1712,
      "val": 1713,
      "pizza": 1714,
      "kar": 1715,
      "stan": 1716,
      "pt": 1717,
      "att": 1718,
      "boy": 1719,
      "si": 1720,
      "chloe": 1721,
      "without": 1722,
      "expen": 1723,
      "ones": 1724,
      "lily": 1725,
      "william": 1726,
      "mel": 1727,
      "works": 1728,
      "pect": 1729,
      "lish": 1730,
      "tw": 1731,
      "brad": 1732,
      "cal": 1733,
      "city": 1734,
      "ethan": 1735,
      "couple": 1736,
      "through": 1737,
      "gail": 1738,
      "hate": 1739,
      "ror": 1740,
      "sing": 1741,
      "holi": 1742,
      "dog": 1743,
      "fav": 1744,
      "news": 1745,
      "wasn": 1746,
      "trying": 1747,
      "flight": 1748,
      "hor": 1749,
      "god": 1750,
      "pete": 1751,
      "definite": 1752,
      "feeling": 1753,
      "likes": 1754,
      "concer": 1755,
      "prepare": 1756,
      "ggie": 1757,
      "taking": 1758,
      "funny": 1759,
      "wrong": 1760,
      "ins": 1761,
      "mother": 1762,
      "osed": 1763,
      "definitely": 1764,
      "months": 1765,
      "sean": 1766,
      "helle": 1767,
      "interesting": 1768,
      "supposed": 1769,
      "claire": 1770,
      "dri": 1771,
      "ashley": 1772,
      "sal": 1773,
      "half": 1774,
      "megan": 1775,
      "noon": 1776,
      "julie": 1777,
      "came": 1778,
      "write": 1779,
      "sister": 1780,
      "hair": 1781,
      "monday": 1782,
      "kit": 1783,
      "charles": 1784,
      "lena": 1785,
      "thinks": 1786,
      "aving": 1787,
      "alan": 1788,
      "point": 1789,
      "arrive": 1790,
      "asses": 1791,
      "deal": 1792,
      "phil": 1793,
      "expensive": 1794,
      "sie": 1795,
      "endy": 1796,
      "joseph": 1797,
      "abi": 1798,
      "leaving": 1799,
      "bus": 1800,
      "organ": 1801,
      "group": 1802,
      "nina": 1803,
      "colle": 1804,
      "eu": 1805,
      "jill": 1806,
      "ssed": 1807,
      "wine": 1808,
      "fort": 1809,
      "child": 1810,
      "high": 1811,
      "fast": 1812,
      "chang": 1813,
      "finish": 1814,
      "michelle": 1815,
      "beer": 1816,
      "started": 1817,
      "iting": 1818,
      "listen": 1819,
      "view": 1820,
      "ame": 1821,
      "cks": 1822,
      "wouldn": 1823,
      "juli": 1824,
      "barbara": 1825,
      "sen": 1826,
      "wendy": 1827,
      "tired": 1828,
      "grand": 1829,
      "agnes": 1830,
      "eng": 1831,
      "rible": 1832,
      "face": 1833,
      "mit": 1834,
      "ross": 1835,
      "rie": 1836,
      "expect": 1837,
      "says": 1838,
      "baby": 1839,
      "caroline": 1840,
      "lost": 1841,
      "company": 1842,
      "dur": 1843,
      "raid": 1844,
      "hh": 1845,
      "myself": 1846,
      "partment": 1847,
      "glad": 1848,
      "cold": 1849,
      "antha": 1850,
      "tely": 1851,
      "ils": 1852,
      "samantha": 1853,
      "jenn": 1854,
      "oliver": 1855,
      "pass": 1856,
      "mmer": 1857,
      "cur": 1858,
      "ole": 1859,
      "mus": 1860,
      "bas": 1861,
      "mer": 1862,
      "vice": 1863,
      "llie": 1864,
      "igh": 1865,
      "nathan": 1866,
      "maya": 1867,
      "victor": 1868,
      "rant": 1869,
      "black": 1870,
      "easy": 1871,
      "planning": 1872,
      "possible": 1873,
      "clean": 1874,
      "doro": 1875,
      "drive": 1876,
      "ree": 1877,
      "hes": 1878,
      "afraid": 1879,
      "mir": 1880,
      "ola": 1881,
      "sco": 1882,
      "reci": 1883,
      "roy": 1884,
      "doctor": 1885,
      "study": 1886,
      "lee": 1887,
      "shop": 1888,
      "ifer": 1889,
      "dear": 1890,
      "marg": 1891,
      "tel": 1892,
      "natalie": 1893,
      "during": 1894,
      "bi": 1895,
      "vel": 1896,
      "couldn": 1897,
      "jerry": 1898,
      "ze": 1899,
      "cannot": 1900,
      "ird": 1901,
      "bla": 1902,
      "dou": 1903,
      "det": 1904,
      "lip": 1905,
      "alright": 1906,
      "aret": 1907,
      "ball": 1908,
      "arch": 1909,
      "early": 1910,
      "beauti": 1911,
      "van": 1912,
      "uni": 1913,
      "anymore": 1914,
      "gin": 1915,
      "isy": 1916,
      "tried": 1917,
      "thurs": 1918,
      "donna": 1919,
      "playing": 1920,
      "online": 1921,
      "wedding": 1922,
      "decid": 1923,
      "cus": 1924,
      "bur": 1925,
      "ds": 1926,
      "ates": 1927,
      "broke": 1928,
      "richard": 1929,
      "small": 1930,
      "lilly": 1931,
      "near": 1932,
      "joan": 1933,
      "interested": 1934,
      "ched": 1935,
      "oooo": 1936,
      "jor": 1937,
      "wel": 1938,
      "jennifer": 1939,
      "nope": 1940,
      "second": 1941,
      "asking": 1942,
      "finally": 1943,
      "aurant": 1944,
      "walk": 1945,
      "ila": 1946,
      "restaurant": 1947,
      "kris": 1948,
      "lon": 1949,
      "ical": 1950,
      "cine": 1951,
      "dent": 1952,
      "thew": 1953,
      "beautiful": 1954,
      "molly": 1955,
      "appo": 1956,
      "afternoon": 1957,
      "hur": 1958,
      "till": 1959,
      "ruth": 1960,
      "email": 1961,
      "vick": 1962,
      "exc": 1963,
      "margaret": 1964,
      "rid": 1965,
      "lain": 1966,
      "als": 1967,
      "summer": 1968,
      "maggie": 1969,
      "dorothy": 1970,
      "ith": 1971,
      "forget": 1972,
      "making": 1973,
      "abigail": 1974,
      "amelia": 1975,
      "fan": 1976,
      "acc": 1977,
      "crazy": 1978,
      "inst": 1979,
      "ves": 1980,
      "rain": 1981,
      "tracy": 1982,
      "honey": 1983,
      "thx": 1984,
      "thats": 1985,
      "cost": 1986,
      "contact": 1987,
      "annie": 1988,
      "dude": 1989,
      "concert": 1990,
      "either": 1991,
      "spo": 1992,
      "team": 1993,
      "jackie": 1994,
      "gabri": 1995,
      "vor": 1996,
      "yo": 1997,
      "meg": 1998,
      "yourself": 1999,
      "dro": 2000,
      "kyle": 2001,
      "gary": 2002,
      "tally": 2003,
      "lear": 2004,
      "daisy": 2005,
      "alone": 2006,
      "brother": 2007,
      "liked": 2008,
      "ments": 2009,
      "messa": 2010,
      "thursday": 2011,
      "lling": 2012,
      "marie": 2013,
      "import": 2014,
      "promis": 2015,
      "cr": 2016,
      "june": 2017,
      "joanna": 2018,
      "gue": 2019,
      "world": 2020,
      "appoint": 2021,
      "ced": 2022,
      "ral": 2023,
      "sty": 2024,
      "classes": 2025,
      "kay": 2026,
      "weather": 2027,
      "law": 2028,
      "totally": 2029,
      "ette": 2030,
      "lay": 2031,
      "song": 2032,
      "bel": 2033,
      "outside": 2034,
      "question": 2035,
      "ition": 2036,
      "ont": 2037,
      "boss": 2038,
      "ray": 2039,
      "station": 2040,
      "avail": 2041,
      "sad": 2042,
      "logan": 2043,
      "lovely": 2044,
      "important": 2045,
      "recent": 2046,
      "grat": 2047,
      "stead": 2048,
      "jimmy": 2049,
      "jamie": 2050,
      "bast": 2051,
      "ween": 2052,
      "close": 2053,
      "mid": 2054,
      "tv": 2055,
      "uel": 2056,
      "rece": 2057,
      "finis": 2058,
      "trans": 2059,
      "ellie": 2060,
      "pped": 2061,
      "upid": 2062,
      "flat": 2063,
      "ring": 2064,
      "stupid": 2065,
      "hasn": 2066,
      "gotta": 2067,
      "eli": 2068,
      "ery": 2069,
      "add": 2070,
      "mal": 2071,
      "somewhere": 2072,
      "cake": 2073,
      "angela": 2074,
      "special": 2075,
      "seriously": 2076,
      "sub": 2077,
      "exp": 2078,
      "peri": 2079,
      "worries": 2080,
      "decided": 2081,
      "jon": 2082,
      "rad": 2083,
      "season": 2084,
      "ident": 2085,
      "gra": 2086,
      "ouch": 2087,
      "cky": 2088,
      "cuss": 2089,
      "cinema": 2090,
      "suz": 2091,
      "imag": 2092,
      "ately": 2093,
      "wednes": 2094,
      "aaron": 2095,
      "makes": 2096,
      "lotte": 2097,
      "charlotte": 2098,
      "larry": 2099,
      "damn": 2100,
      "scar": 2101,
      "talked": 2102,
      "available": 2103,
      "band": 2104,
      "pack": 2105,
      "dead": 2106,
      "congrat": 2107,
      "music": 2108,
      "cri": 2109,
      "pri": 2110,
      "wis": 2111,
      "teac": 2112,
      "hone": 2113,
      "instead": 2114,
      "caron": 2115,
      "jere": 2116,
      "gar": 2117,
      "ved": 2118,
      "prof": 2119,
      "poor": 2120,
      "cute": 2121,
      "park": 2122,
      "pan": 2123,
      "hotel": 2124,
      "adri": 2125,
      "sometimes": 2126,
      "indy": 2127,
      "deta": 2128,
      "blu": 2129,
      "dra": 2130,
      "yea": 2131,
      "discuss": 2132,
      "solu": 2133,
      "moment": 2134,
      "event": 2135,
      "ize": 2136,
      "wednesday": 2137,
      "link": 2138,
      "inde": 2139,
      "light": 2140,
      "offer": 2141,
      "problems": 2142,
      "diff": 2143,
      "owen": 2144,
      "cli": 2145,
      "asha": 2146,
      "gets": 2147,
      "front": 2148,
      "tues": 2149,
      "low": 2150,
      "consid": 2151,
      "gave": 2152,
      "choose": 2153,
      "ons": 2154,
      "stin": 2155,
      "honest": 2156,
      "ul": 2157,
      "ade": 2158,
      "knows": 2159,
      "hm": 2160,
      "yup": 2161,
      "games": 2162,
      "prefer": 2163,
      "jean": 2164,
      "cel": 2165,
      "liza": 2166,
      "teacher": 2167,
      "account": 2168,
      "bon": 2169,
      "ight": 2170,
      "rather": 2171,
      "cele": 2172,
      "store": 2173,
      "books": 2174,
      "door": 2175,
      "main": 2176,
      "nda": 2177,
      "ges": 2178,
      "tory": 2179,
      "hosp": 2180,
      "whatever": 2181,
      "list": 2182,
      "water": 2183,
      "recently": 2184,
      "kill": 2185,
      "uu": 2186,
      "therine": 2187,
      "brand": 2188,
      "gift": 2189,
      "load": 2190,
      "apartment": 2191,
      "cis": 2192,
      "lier": 2193,
      "ki": 2194,
      "weird": 2195,
      "log": 2196,
      "shir": 2197,
      "tommy": 2198,
      "buying": 2199,
      "vious": 2200,
      "pend": 2201,
      "seeing": 2202,
      "photos": 2203,
      "matthew": 2204,
      "comes": 2205,
      "paper": 2206,
      "finished": 2207,
      "jas": 2208,
      "reason": 2209,
      "star": 2210,
      "comple": 2211,
      "worried": 2212,
      "euro": 2213,
      "usual": 2214,
      "melis": 2215,
      "ham": 2216,
      "hahah": 2217,
      "club": 2218,
      "english": 2219,
      "manag": 2220,
      "nicole": 2221,
      "melissa": 2222,
      "table": 2223,
      "gym": 2224,
      "fil": 2225,
      "carl": 2226,
      "street": 2227,
      "difficu": 2228,
      "cindy": 2229,
      "rek": 2230,
      "sel": 2231,
      "catch": 2232,
      "details": 2233,
      "ali": 2234,
      "tain": 2235,
      "patty": 2236,
      "pub": 2237,
      "welcome": 2238,
      "hospital": 2239,
      "fit": 2240,
      "earlier": 2241,
      "tuesday": 2242,
      "becky": 2243,
      "deb": 2244,
      "longer": 2245,
      "vicky": 2246,
      "lled": 2247,
      "lying": 2248,
      "rebe": 2249,
      "holly": 2250,
      "mag": 2251,
      "jeremy": 2252,
      "three": 2253,
      "safe": 2254,
      "bart": 2255,
      "hop": 2256,
      "busin": 2257,
      "marri": 2258,
      "short": 2259,
      "box": 2260,
      "babe": 2261,
      "fair": 2262,
      "veron": 2263,
      "fix": 2264,
      "ruby": 2265,
      "ideas": 2266,
      "tay": 2267,
      "tie": 2268,
      "unk": 2269,
      "eliza": 2270,
      "board": 2271,
      "card": 2272,
      "clara": 2273,
      "dylan": 2274,
      "beat": 2275,
      "white": 2276,
      "invited": 2277,
      "blue": 2278,
      "smi": 2279,
      "remind": 2280,
      "road": 2281,
      "amber": 2282,
      "favour": 2283,
      "imagine": 2284,
      "ute": 2285,
      "asks": 2286,
      "cheap": 2287,
      "business": 2288,
      "cant": 2289,
      "difficult": 2290,
      "taylor": 2291,
      "saying": 2292,
      "pictures": 2293,
      "pi": 2294,
      "neigh": 2295,
      "laure": 2296,
      "chedu": 2297,
      "syl": 2298,
      "brenda": 2299,
      "option": 2300,
      "ane": 2301,
      "gram": 2302,
      "fully": 2303,
      "essa": 2304,
      "danny": 2305,
      "watched": 2306,
      "boring": 2307,
      "steven": 2308,
      "missed": 2309,
      "price": 2310,
      "borrow": 2311,
      "derek": 2312,
      "knew": 2313,
      "yy": 2314,
      "ship": 2315,
      "children": 2316,
      "manage": 2317,
      "past": 2318,
      "cially": 2319,
      "ics": 2320,
      "angry": 2321,
      "trevor": 2322,
      "suggests": 2323,
      "learn": 2324,
      "veronica": 2325,
      "gard": 2326,
      "goes": 2327,
      "chick": 2328,
      "pain": 2329,
      "katie": 2330,
      "london": 2331,
      "excited": 2332,
      "consider": 2333,
      "ain": 2334,
      "pam": 2335,
      "llow": 2336,
      "lots": 2337,
      "brit": 2338,
      "sophia": 2339,
      "audre": 2340,
      "clar": 2341,
      "theo": 2342,
      "ira": 2343,
      "holiday": 2344,
      "andrea": 2345,
      "chedule": 2346,
      "thes": 2347,
      "heal": 2348,
      "quick": 2349,
      "paid": 2350,
      "staying": 2351,
      "audrey": 2352,
      "cess": 2353,
      "nch": 2354,
      "thon": 2355,
      "hot": 2356,
      "col": 2357,
      "father": 2358,
      "toby": 2359,
      "forward": 2360,
      "matter": 2361,
      "answer": 2362,
      "boyfriend": 2363,
      "ralph": 2364,
      "share": 2365,
      "decide": 2366,
      "reading": 2367,
      "ooo": 2368,
      "drunk": 2369,
      "speak": 2370,
      "dun": 2371,
      "oc": 2372,
      "pas": 2373,
      "yu": 2374,
      "experi": 2375,
      "others": 2376,
      "between": 2377,
      "feels": 2378,
      "invit": 2379,
      "ww": 2380,
      "ically": 2381,
      "etc": 2382,
      "cale": 2383,
      "xxx": 2384,
      "running": 2385,
      "sign": 2386,
      "leah": 2387,
      "chen": 2388,
      "ellen": 2389,
      "lucky": 2390,
      "inform": 2391,
      "leg": 2392,
      "lian": 2393,
      "series": 2394,
      "mandy": 2395,
      "aces": 2396,
      "absolu": 2397,
      "drinks": 2398,
      "accident": 2399,
      "cris": 2400,
      "tive": 2401,
      "lap": 2402,
      "worth": 2403,
      "steph": 2404,
      "indeed": 2405,
      "ford": 2406,
      "full": 2407,
      "clothes": 2408,
      "ii": 2409,
      "wall": 2410,
      "sebast": 2411,
      "ppy": 2412,
      "invite": 2413,
      "louis": 2414,
      "celebr": 2415,
      "ez": 2416,
      "por": 2417,
      "espe": 2418,
      "neither": 2419,
      "loves": 2420,
      "shall": 2421,
      "fucking": 2422,
      "especially": 2423,
      "fact": 2424,
      "iv": 2425,
      "worse": 2426,
      "press": 2427,
      "student": 2428,
      "profess": 2429,
      "fant": 2430,
      "mess": 2431,
      "chance": 2432,
      "gone": 2433,
      "glor": 2434,
      "usually": 2435,
      "cca": 2436,
      "advice": 2437,
      "notes": 2438,
      "dean": 2439,
      "cture": 2440,
      "girlfriend": 2441,
      "flix": 2442,
      "touch": 2443,
      "cop": 2444,
      "grab": 2445,
      "facebook": 2446,
      "message": 2447,
      "bag": 2448,
      "hang": 2449,
      "oper": 2450,
      "stanley": 2451,
      "driving": 2452,
      "miranda": 2453,
      "shar": 2454,
      "mil": 2455,
      "sort": 2456,
      "kimber": 2457,
      "cro": 2458,
      "gl": 2459,
      "uation": 2460,
      "hugh": 2461,
      "mention": 2462,
      "louise": 2463,
      "sebastian": 2464,
      "jes": 2465,
      "tan": 2466,
      "sex": 2467,
      "domin": 2468,
      "justin": 2469,
      "produ": 2470,
      "fish": 2471,
      "ffic": 2472,
      "writing": 2473,
      "kidding": 2474,
      "kinda": 2475,
      "internet": 2476,
      "airport": 2477,
      "surprise": 2478,
      "pie": 2479,
      "wife": 2480,
      "sharon": 2481,
      "confir": 2482,
      "rory": 2483,
      "blake": 2484,
      "shoes": 2485,
      "wards": 2486,
      "changed": 2487,
      "scott": 2488,
      "bour": 2489,
      "youn": 2490,
      "stra": 2491,
      "keys": 2492,
      "word": 2493,
      "samuel": 2494,
      "😂😂": 2495,
      "bored": 2496,
      "elle": 2497,
      "appointment": 2498,
      "btw": 2499,
      "mason": 2500,
      "sky": 2501,
      "vies": 2502,
      "ada": 2503,
      "ference": 2504,
      "brid": 2505,
      "takes": 2506,
      "due": 2507,
      "attend": 2508,
      "married": 2509,
      "gloria": 2510,
      "cut": 2511,
      "tam": 2512,
      "rect": 2513,
      "bobby": 2514,
      "netflix": 2515,
      "gle": 2516,
      "rita": 2517,
      "posit": 2518,
      "fortun": 2519,
      "ices": 2520,
      "mari": 2521,
      "elisa": 2522,
      "evan": 2523,
      "country": 2524,
      "pleas": 2525,
      "moved": 2526,
      "aking": 2527,
      "sandy": 2528,
      "ars": 2529,
      "judy": 2530,
      "movies": 2531,
      "yours": 2532,
      "janet": 2533,
      "ston": 2534,
      "huge": 2535,
      "nora": 2536,
      "drop": 2537,
      "sylvia": 2538,
      "absolutely": 2539,
      "melan": 2540,
      "ings": 2541,
      "depend": 2542,
      "booked": 2543,
      "freddie": 2544,
      "wise": 2545,
      "winter": 2546,
      "stair": 2547,
      "hall": 2548,
      "taken": 2549,
      "holidays": 2550,
      "rebecca": 2551,
      "erin": 2552,
      "asia": 2553,
      "arent": 2554,
      "carrie": 2555,
      "stuck": 2556,
      "resu": 2557,
      "ities": 2558,
      "ander": 2559,
      "edward": 2560,
      "green": 2561,
      "finn": 2562,
      "appreci": 2563,
      "isabella": 2564,
      "recommends": 2565,
      "ko": 2566,
      "oke": 2567,
      "rey": 2568,
      "looked": 2569,
      "bot": 2570,
      "receive": 2571,
      "anthon": 2572,
      "request": 2573,
      "search": 2574,
      "cept": 2575,
      "extra": 2576,
      "kitchen": 2577,
      "lauren": 2578,
      "anthony": 2579,
      "bie": 2580,
      "hol": 2581,
      "lola": 2582,
      "ril": 2583,
      "deli": 2584,
      "illa": 2585,
      "tyler": 2586,
      "died": 2587,
      "ef": 2588,
      "snow": 2589,
      "terrible": 2590,
      "jessie": 2591,
      "kimberly": 2592,
      "gent": 2593,
      "idk": 2594,
      "seem": 2595,
      "pair": 2596,
      "horrible": 2597,
      "ib": 2598,
      "ness": 2599,
      "ue": 2600,
      "chat": 2601,
      "donald": 2602,
      "checked": 2603,
      "minute": 2604,
      "choice": 2605,
      "heather": 2606,
      "iana": 2607,
      "pauline": 2608,
      "gener": 2609,
      "sense": 2610,
      "gn": 2611,
      "nobody": 2612,
      "francis": 2613,
      "traffic": 2614,
      "bath": 2615,
      "robin": 2616,
      "favourite": 2617,
      "stairs": 2618,
      "pics": 2619,
      "ticket": 2620,
      "diane": 2621,
      "adrian": 2622,
      "fall": 2623,
      "rela": 2624,
      "resp": 2625,
      "return": 2626,
      "erica": 2627,
      "enter": 2628,
      "ala": 2629,
      "shouldn": 2630,
      "fortunately": 2631,
      "cry": 2632,
      "ial": 2633,
      "lation": 2634,
      "vent": 2635,
      "zz": 2636,
      "cover": 2637,
      "cast": 2638,
      "match": 2639,
      "sending": 2640,
      "flu": 2641,
      "sec": 2642,
      "nah": 2643,
      "using": 2644,
      "sends": 2645,
      "trave": 2646,
      "darling": 2647,
      "warm": 2648,
      "client": 2649,
      "cru": 2650,
      "build": 2651,
      "tea": 2652,
      "epis": 2653,
      "barry": 2654,
      "presentation": 2655,
      "aid": 2656,
      "fru": 2657,
      "hit": 2658,
      "sw": 2659,
      "wash": 2660,
      "hahahaha": 2661,
      "ages": 2662,
      "dream": 2663,
      "trust": 2664,
      "jamin": 2665,
      "laptop": 2666,
      "episod": 2667,
      "poland": 2668,
      "conference": 2669,
      "benjamin": 2670,
      "apparent": 2671,
      "brow": 2672,
      "ption": 2673,
      "ount": 2674,
      "hehe": 2675,
      "leon": 2676,
      "moving": 2677,
      "wondering": 2678,
      "nate": 2679,
      "sell": 2680,
      "mins": 2681,
      "angel": 2682,
      "apparently": 2683,
      "bt": 2684,
      "gor": 2685,
      "ned": 2686,
      "places": 2687,
      "proper": 2688,
      "compu": 2689,
      "clau": 2690,
      "iley": 2691,
      "anie": 2692,
      "roger": 2693,
      "goo": 2694,
      "theresa": 2695,
      "fight": 2696,
      "story": 2697,
      "irene": 2698,
      "questions": 2699,
      "elizabeth": 2700,
      "bank": 2701,
      "vac": 2702,
      "isla": 2703,
      "lene": 2704,
      "action": 2705,
      "catherine": 2706,
      "opin": 2707,
      "fab": 2708,
      "rs": 2709,
      "scre": 2710,
      "throw": 2711,
      "means": 2712,
      "lydia": 2713,
      "abby": 2714,
      "market": 2715,
      "teach": 2716,
      "ters": 2717,
      "pop": 2718,
      "mma": 2719,
      "swi": 2720,
      "wers": 2721,
      "ari": 2722,
      "lecture": 2723,
      "philip": 2724,
      "ese": 2725,
      "fing": 2726,
      "han": 2727,
      "round": 2728,
      "schedule": 2729,
      "arr": 2730,
      "rod": 2731,
      "along": 2732,
      "dow": 2733,
      "ries": 2734,
      "mona": 2735,
      "pract": 2736,
      "film": 2737,
      "smith": 2738,
      "dry": 2739,
      "lately": 2740,
      "interview": 2741,
      "breakfast": 2742,
      "jordan": 2743,
      "gabriel": 2744,
      "chicken": 2745,
      "gs": 2746,
      "ua": 2747,
      "mela": 2748,
      "los": 2749,
      "everybody": 2750,
      "situation": 2751,
      "melanie": 2752,
      "ban": 2753,
      "cing": 2754,
      "tris": 2755,
      "webs": 2756,
      "suit": 2757,
      "shi": 2758,
      "pear": 2759,
      "aaaa": 2760,
      "promise": 2761,
      "relax": 2762,
      "lara": 2763,
      "zack": 2764,
      "starts": 2765,
      "giving": 2766,
      "arthur": 2767,
      "acey": 2768,
      "foot": 2769,
      "avier": 2770,
      "ual": 2771,
      "libr": 2772,
      "albert": 2773,
      "ared": 2774,
      "chill": 2775,
      "loved": 2776,
      "versity": 2777,
      "cooking": 2778,
      "ded": 2779,
      "sou": 2780,
      "va": 2781,
      "itch": 2782,
      "anybody": 2783,
      "surprised": 2784,
      "website": 2785,
      "nad": 2786,
      "wom": 2787,
      "asap": 2788,
      "address": 2789,
      "carmen": 2790,
      "polly": 2791,
      "spent": 2792,
      "cording": 2793,
      "suzie": 2794,
      "dunno": 2795,
      "fantast": 2796,
      "mick": 2797,
      "pur": 2798,
      "gust": 2799,
      "convin": 2800,
      "vio": 2801,
      "spect": 2802,
      "europe": 2803,
      "computer": 2804,
      "fantastic": 2805,
      "hold": 2806,
      "nee": 2807,
      "bud": 2808,
      "tian": 2809,
      "strange": 2810,
      "studying": 2811,
      "depends": 2812,
      "woman": 2813,
      "tf": 2814,
      "advis": 2815,
      "marc": 2816,
      "needed": 2817,
      "bruce": 2818,
      "library": 2819,
      "ata": 2820,
      "marta": 2821,
      "pol": 2822,
      "university": 2823,
      "milk": 2824,
      "mac": 2825,
      "scare": 2826,
      "hay": 2827,
      "sea": 2828,
      "unfortunately": 2829,
      "polit": 2830,
      "homework": 2831,
      "lynn": 2832,
      "fie": 2833,
      "jona": 2834,
      "omi": 2835,
      "tany": 2836,
      "oud": 2837,
      "happens": 2838,
      "damian": 2839,
      "explain": 2840,
      "jonathan": 2841,
      "hon": 2842,
      "rand": 2843,
      "anno": 2844,
      "whats": 2845,
      "ille": 2846,
      "travel": 2847,
      "madison": 2848,
      "joshua": 2849,
      "dora": 2850,
      "hurry": 2851,
      "completely": 2852,
      "neighbour": 2853,
      "google": 2854,
      "heart": 2855,
      "nold": 2856,
      "plus": 2857,
      "french": 2858,
      "italian": 2859,
      "tho": 2860,
      "reser": 2861,
      "begin": 2862,
      "poppy": 2863,
      "emp": 2864,
      "kai": 2865,
      "paris": 2866,
      "april": 2867,
      "walter": 2868,
      "complain": 2869,
      "cred": 2870,
      "gia": 2871,
      "ient": 2872,
      "wro": 2873,
      "inside": 2874,
      "icia": 2875,
      "often": 2876,
      "finds": 2877,
      "lindsay": 2878,
      "isabel": 2879,
      "drinking": 2880,
      "centre": 2881,
      "grandma": 2882,
      "fancy": 2883,
      "hank": 2884,
      "vey": 2885,
      "alison": 2886,
      "stella": 2887,
      "pamela": 2888,
      "lenny": 2889,
      "christine": 2890,
      "normal": 2891,
      "warsaw": 2892,
      "favor": 2893,
      "arrived": 2894,
      "bra": 2895,
      "fb": 2896,
      "nis": 2897,
      "ory": 2898,
      "follow": 2899,
      "step": 2900,
      "appro": 2901,
      "ying": 2902,
      "stacy": 2903,
      "hah": 2904,
      "sonia": 2905,
      "iled": 2906,
      "ski": 2907,
      "mb": 2908,
      "ped": 2909,
      "rice": 2910,
      "fire": 2911,
      "olga": 2912,
      "chea": 2913,
      "afford": 2914,
      "evelyn": 2915,
      "stephanie": 2916,
      "ebe": 2917,
      "fat": 2918,
      "rance": 2919,
      "enti": 2920,
      "kes": 2921,
      "broken": 2922,
      "angie": 2923,
      "certain": 2924,
      "cream": 2925,
      "italy": 2926,
      "basically": 2927,
      "kayla": 2928,
      "jasmine": 2929,
      "appreciate": 2930,
      "anita": 2931,
      "ants": 2932,
      "miles": 2933,
      "played": 2934,
      "ised": 2935,
      "belle": 2936,
      "wil": 2937,
      "living": 2938,
      "dered": 2939,
      "entrance": 2940,
      "visiting": 2941,
      "colour": 2942,
      "bat": 2943,
      "math": 2944,
      "phoebe": 2945,
      "brooke": 2946,
      "floor": 2947,
      "julian": 2948,
      "gw": 2949,
      "ollie": 2950,
      "thia": 2951,
      "lewis": 2952,
      "beach": 2953,
      "oking": 2954,
      "gemma": 2955,
      "aught": 2956,
      "starting": 2957,
      "eating": 2958,
      "experience": 2959,
      "hus": 2960,
      "tat": 2961,
      "himself": 2962,
      "history": 2963,
      "ches": 2964,
      "telling": 2965,
      "penny": 2966,
      "ela": 2967,
      "ika": 2968,
      "doll": 2969,
      "shut": 2970,
      "save": 2971,
      "lets": 2972,
      "offers": 2973,
      "shame": 2974,
      "eeee": 2975,
      "sleeping": 2976,
      "professor": 2977,
      "smo": 2978,
      "sey": 2979,
      "figu": 2980,
      "carter": 2981,
      "alexander": 2982,
      "ram": 2983,
      "sil": 2984,
      "lend": 2985,
      "conne": 2986,
      "obvious": 2987,
      "sitting": 2988,
      "camp": 2989,
      "agreed": 2990,
      "flying": 2991,
      "ming": 2992,
      "xi": 2993,
      "yor": 2994,
      "ats": 2995,
      "rosie": 2996,
      "uncle": 2997,
      "calling": 2998,
      "decis": 2999,
      "posted": 3000,
      "copy": 3001,
      "sucks": 3002,
      "muse": 3003,
      "garden": 3004,
      "apo": 3005,
      "opp": 3006,
      "tour": 3007,
      "wtf": 3008,
      "anim": 3009,
      "idi": 3010,
      "connor": 3011,
      "otherwise": 3012,
      "laugh": 3013,
      "camer": 3014,
      "easier": 3015,
      "current": 3016,
      "deadline": 3017,
      "opinion": 3018,
      "eh": 3019,
      "carlos": 3020,
      "grad": 3021,
      "plane": 3022,
      "training": 3023,
      "elisabeth": 3024,
      "bal": 3025,
      "joanne": 3026,
      "paulina": 3027,
      "lora": 3028,
      "iot": 3029,
      "suppose": 3030,
      "turned": 3031,
      "chery": 3032,
      "trou": 3033,
      "diet": 3034,
      "young": 3035,
      "bottle": 3036,
      "received": 3037,
      "cheryl": 3038,
      "lts": 3039,
      "pal": 3040,
      "ative": 3041,
      "jude": 3042,
      "worst": 3043,
      "mila": 3044,
      "pres": 3045,
      "hopefully": 3046,
      "confirm": 3047,
      "trouble": 3048,
      "tend": 3049,
      "ug": 3050,
      "uk": 3051,
      "vation": 3052,
      "wanda": 3053,
      "upset": 3054,
      "luc": 3055,
      "polish": 3056,
      "convers": 3057,
      "ronald": 3058,
      "contro": 3059,
      "scarlet": 3060,
      "ik": 3061,
      "theat": 3062,
      "arm": 3063,
      "host": 3064,
      "mario": 3065,
      "austin": 3066,
      "pool": 3067,
      "collect": 3068,
      "caleb": 3069,
      "husband": 3070,
      "ath": 3071,
      "bread": 3072,
      "hill": 3073,
      "okey": 3074,
      "riley": 3075,
      "cap": 3076,
      "harper": 3077,
      "honestly": 3078,
      "celebrate": 3079,
      "grow": 3080,
      "heidi": 3081,
      "according": 3082,
      "eline": 3083,
      "wayne": 3084,
      "writ": 3085,
      "ronnie": 3086,
      "dominic": 3087,
      "pleasure": 3088,
      "scared": 3089,
      "fau": 3090,
      "sir": 3091,
      "size": 3092,
      "slow": 3093,
      "todd": 3094,
      "sula": 3095,
      "artic": 3096,
      "cheese": 3097,
      "prepar": 3098,
      "ational": 3099,
      "afterwards": 3100,
      "women": 3101,
      "lizzy": 3102,
      "nicky": 3103,
      "lives": 3104,
      "window": 3105,
      "graph": 3106,
      "passed": 3107,
      "police": 3108,
      "wrote": 3109,
      "gwen": 3110,
      "arnold": 3111,
      "logy": 3112,
      "frances": 3113,
      "lady": 3114,
      "ging": 3115,
      "gry": 3116,
      "smart": 3117,
      "zara": 3118,
      "gnant": 3119,
      "daught": 3120,
      "ply": 3121,
      "pink": 3122,
      "vir": 3123,
      "led": 3124,
      "keith": 3125,
      "march": 3126,
      "sheila": 3127,
      "herself": 3128,
      "delic": 3129,
      "mming": 3130,
      "ggy": 3131,
      "bloody": 3132,
      "episode": 3133,
      "ged": 3134,
      "lary": 3135,
      "ines": 3136,
      "ida": 3137,
      "rious": 3138,
      "howard": 3139,
      "boo": 3140,
      "russ": 3141,
      "pregnant": 3142,
      "qui": 3143,
      "avo": 3144,
      "liter": 3145,
      "college": 3146,
      "violet": 3147,
      "cup": 3148,
      "xo": 3149,
      "gover": 3150,
      "july": 3151,
      "future": 3152,
      "katy": 3153,
      "guest": 3154,
      "tough": 3155,
      "rena": 3156,
      "report": 3157,
      "research": 3158,
      "seth": 3159,
      "although": 3160,
      "mode": 3161,
      "cafe": 3162,
      "choco": 3163,
      "harvey": 3164,
      "service": 3165,
      "example": 3166,
      "wonderful": 3167,
      "bryan": 3168,
      "kir": 3169,
      "sab": 3170,
      "anton": 3171,
      "dece": 3172,
      "felt": 3173,
      "matild": 3174,
      "twice": 3175,
      "congrats": 3176,
      "congratul": 3177,
      "considering": 3178,
      "results": 3179,
      "respon": 3180,
      "travelling": 3181,
      "owe": 3182,
      "sc": 3183,
      "info": 3184,
      "rome": 3185,
      "cance": 3186,
      "judi": 3187,
      "bother": 3188,
      "propo": 3189,
      "comfort": 3190,
      "assign": 3191,
      "alexis": 3192,
      "hungry": 3193,
      "organiz": 3194,
      "lli": 3195,
      "ties": 3196,
      "sport": 3197,
      "teddy": 3198,
      "calm": 3199,
      "single": 3200,
      "recipe": 3201,
      "shirt": 3202,
      "product": 3203,
      "december": 3204,
      "congratulations": 3205,
      "fur": 3206,
      "gro": 3207,
      "susie": 3208,
      "delay": 3209,
      "space": 3210,
      "dana": 3211,
      "christian": 3212,
      "proud": 3213,
      "kathy": 3214,
      "spec": 3215,
      "langu": 3216,
      "shower": 3217,
      "straight": 3218,
      "building": 3219,
      "cheaper": 3220,
      "york": 3221,
      "eye": 3222,
      "gill": 3223,
      "hind": 3224,
      "inclu": 3225,
      "issu": 3226,
      "lose": 3227,
      "power": 3228,
      "ground": 3229,
      "correct": 3230,
      "elena": 3231,
      "prepared": 3232,
      "vanessa": 3233,
      "priv": 3234,
      "ku": 3235,
      "kam": 3236,
      "lix": 3237,
      "note": 3238,
      "mill": 3239,
      "morgan": 3240,
      "billy": 3241,
      "missing": 3242,
      "students": 3243,
      "claudia": 3244,
      "xavier": 3245,
      "caro": 3246,
      "janice": 3247,
      "against": 3248,
      "downstairs": 3249,
      "support": 3250,
      "spot": 3251,
      "daughter": 3252,
      "tara": 3253,
      "resa": 3254,
      "haps": 3255,
      "iced": 3256,
      "spain": 3257,
      "viv": 3258,
      "dark": 3259,
      "enjoyed": 3260,
      "doubt": 3261,
      "brandon": 3262,
      "invites": 3263,
      "information": 3264,
      "mun": 3265,
      "randy": 3266,
      "sess": 3267,
      "perhaps": 3268,
      "quit": 3269,
      "stressed": 3270,
      "mrs": 3271,
      "style": 3272,
      "managed": 3273,
      "bathroom": 3274,
      "beginning": 3275,
      "crow": 3276,
      "hy": 3277,
      "kis": 3278,
      "stru": 3279,
      "behind": 3280,
      "kel": 3281,
      "fied": 3282,
      "greta": 3283,
      "pressed": 3284,
      "wake": 3285,
      "wont": 3286,
      "clear": 3287,
      "planned": 3288,
      "swimming": 3289,
      "fingers": 3290,
      "football": 3291,
      "fy": 3292,
      "lous": 3293,
      "non": 3294,
      "pis": 3295,
      "stal": 3296,
      "stick": 3297,
      "naomi": 3298,
      "felix": 3299,
      "program": 3300,
      "mond": 3301,
      "cats": 3302,
      "bike": 3303,
      "clark": 3304,
      "conversation": 3305,
      "judith": 3306,
      "bby": 3307,
      "cash": 3308,
      "tney": 3309,
      "refu": 3310,
      "island": 3311,
      "sooo": 3312,
      "mood": 3313,
      "gavin": 3314,
      "clare": 3315,
      "syste": 3316,
      "discount": 3317,
      "strong": 3318,
      "scarlett": 3319,
      "issues": 3320,
      "bb": 3321,
      "egg": 3322,
      "pill": 3323,
      "sau": 3324,
      "cos": 3325,
      "marion": 3326,
      "pot": 3327,
      "ursula": 3328,
      "conf": 3329,
      "cathy": 3330,
      "page": 3331,
      "tract": 3332,
      "danielle": 3333,
      "faith": 3334,
      "transfer": 3335,
      "decision": 3336,
      "dle": 3337,
      "meat": 3338,
      "argu": 3339,
      "marty": 3340,
      "marcus": 3341,
      "feed": 3342,
      "worked": 3343,
      "didnt": 3344,
      "promo": 3345,
      "ility": 3346,
      "type": 3347,
      "maddie": 3348,
      "publ": 3349,
      "georgia": 3350,
      "lesson": 3351,
      "ctions": 3352,
      "vote": 3353,
      "ivy": 3354,
      "museum": 3355,
      "public": 3356,
      "eyes": 3357,
      "fed": 3358,
      "relation": 3359,
      "ature": 3360,
      "medi": 3361,
      "ists": 3362,
      "ardo": 3363,
      "vegan": 3364,
      "geous": 3365,
      "bitch": 3366,
      "manager": 3367,
      "selves": 3368,
      "tit": 3369,
      "xmas": 3370,
      "flowers": 3371,
      "piece": 3372,
      "arrange": 3373,
      "delicious": 3374,
      "dating": 3375,
      "four": 3376,
      "national": 3377,
      "psy": 3378,
      "tiff": 3379,
      "ific": 3380,
      "fell": 3381,
      "whenever": 3382,
      "pls": 3383,
      "boys": 3384,
      "ilar": 3385,
      "grant": 3386,
      "deser": 3387,
      "stress": 3388,
      "dru": 3389,
      "pity": 3390,
      "xic": 3391,
      "regu": 3392,
      "ordered": 3393,
      "sted": 3394,
      "state": 3395,
      "social": 3396,
      "bucks": 3397,
      "timo": 3398,
      "hilary": 3399,
      "qual": 3400,
      "leslie": 3401,
      "treat": 3402,
      "florence": 3403,
      "possib": 3404,
      "ls": 3405,
      "nia": 3406,
      "tes": 3407,
      "ism": 3408,
      "vet": 3409,
      "secre": 3410,
      "docu": 3411,
      "rap": 3412,
      "essay": 3413,
      "pai": 3414,
      "ricky": 3415,
      "keeps": 3416,
      "bruno": 3417,
      "wearing": 3418,
      "health": 3419,
      "fault": 3420,
      "dir": 3421,
      "dies": 3422,
      "mach": 3423,
      "mount": 3424,
      "sm": 3425,
      "accept": 3426,
      "anywhere": 3427,
      "gree": 3428,
      "jackson": 3429,
      "stopped": 3430,
      "camilla": 3431,
      "agrees": 3432,
      "natalia": 3433,
      "kitty": 3434,
      "wishes": 3435,
      "washing": 3436,
      "practice": 3437,
      "favorite": 3438,
      "article": 3439,
      "chocolate": 3440,
      "system": 3441,
      "sci": 3442,
      "wha": 3443,
      "hood": 3444,
      "gold": 3445,
      "riet": 3446,
      "dest": 3447,
      "exer": 3448,
      "aster": 3449,
      "timmy": 3450,
      "emilia": 3451,
      "simple": 3452,
      "diego": 3453,
      "sides": 3454,
      "jesus": 3455,
      "cous": 3456,
      "fac": 3457,
      "gio": 3458,
      "pes": 3459,
      "sher": 3460,
      "zie": 3461,
      "memor": 3462,
      "weight": 3463,
      "area": 3464,
      "chur": 3465,
      "mob": 3466,
      "dance": 3467,
      "brook": 3468,
      "happening": 3469,
      "christina": 3470,
      "cookies": 3471,
      "icular": 3472,
      "layla": 3473,
      "field": 3474,
      "timothy": 3475,
      "dick": 3476,
      "dale": 3477,
      "ker": 3478,
      "soup": 3479,
      "troy": 3480,
      "reg": 3481,
      "erick": 3482,
      "alous": 3483,
      "aller": 3484,
      "arely": 3485,
      "tek": 3486,
      "teresa": 3487,
      "luis": 3488,
      "particular": 3489,
      "apple": 3490,
      "vier": 3491,
      "print": 3492,
      "hunter": 3493,
      "preparing": 3494,
      "cancelled": 3495,
      "fic": 3496,
      "gas": 3497,
      "spl": 3498,
      "ania": 3499,
      "color": 3500,
      "anyways": 3501,
      "quin": 3502,
      "agatha": 3503,
      "brilli": 3504,
      "kylie": 3505,
      "hurt": 3506,
      "costs": 3507,
      "gorgeous": 3508,
      "brilliant": 3509,
      "rina": 3510,
      "istic": 3511,
      "enna": 3512,
      "serena": 3513,
      "sol": 3514,
      "notice": 3515,
      "decor": 3516,
      "illy": 3517,
      "cheers": 3518,
      "jealous": 3519,
      "mostly": 3520,
      "similar": 3521,
      "joyce": 3522,
      "crap": 3523,
      "crossed": 3524,
      "tiffany": 3525,
      "cation": 3526,
      "mare": 3527,
      "uary": 3528,
      "anny": 3529,
      "regina": 3530,
      "arri": 3531,
      "ofc": 3532,
      "noticed": 3533,
      "iris": 3534,
      "dee": 3535,
      "cell": 3536,
      "span": 3537,
      "johnny": 3538,
      "gives": 3539,
      "hahahah": 3540,
      "topher": 3541,
      "valer": 3542,
      "bridget": 3543,
      "theatre": 3544,
      "ride": 3545,
      "tess": 3546,
      "leep": 3547,
      "level": 3548,
      "asleep": 3549,
      "chand": 3550,
      "tech": 3551,
      "micha": 3552,
      "queen": 3553,
      "hugo": 3554,
      "natasha": 3555,
      "dennis": 3556,
      "desk": 3557,
      "awful": 3558,
      "language": 3559,
      "mell": 3560,
      "roll": 3561,
      "dom": 3562,
      "iel": 3563,
      "temp": 3564,
      "acks": 3565,
      "january": 3566,
      "charac": 3567,
      "prin": 3568,
      "isaac": 3569,
      "born": 3570,
      "regular": 3571,
      "ilet": 3572,
      "nthia": 3573,
      "pac": 3574,
      "reach": 3575,
      "review": 3576,
      "chan": 3577,
      "previous": 3578,
      "gregory": 3579,
      "tube": 3580,
      "heading": 3581,
      "cleaning": 3582,
      "middle": 3583,
      "private": 3584,
      "chandler": 3585,
      "kasia": 3586,
      "zac": 3587,
      "renee": 3588,
      "rosa": 3589,
      "impress": 3590,
      "tem": 3591,
      "department": 3592,
      "berlin": 3593,
      "sammy": 3594,
      "fresh": 3595,
      "drew": 3596,
      "lawrence": 3597,
      "aiden": 3598,
      "obviously": 3599,
      "mobile": 3600,
      "kon": 3601,
      "ran": 3602,
      "iti": 3603,
      "orts": 3604,
      "lda": 3605,
      "ended": 3606,
      "filip": 3607,
      "everywhere": 3608,
      "france": 3609,
      "fridge": 3610,
      "joey": 3611,
      "daria": 3612,
      "instru": 3613,
      "options": 3614,
      "brown": 3615,
      "vacation": 3616,
      "church": 3617,
      "split": 3618,
      "spanish": 3619,
      "cin": 3620,
      "vous": 3621,
      "topic": 3622,
      "alicia": 3623,
      "ache": 3624,
      "riam": 3625,
      "cancel": 3626,
      "dev": 3627,
      "miriam": 3628,
      "gues": 3629,
      "manuel": 3630,
      "tells": 3631,
      "brett": 3632,
      "media": 3633,
      "elect": 3634,
      "expected": 3635,
      "secret": 3636,
      "aks": 3637,
      "fly": 3638,
      "glen": 3639,
      "jour": 3640,
      "squ": 3641,
      "oun": 3642,
      "youre": 3643,
      "veget": 3644,
      "sof": 3645,
      "aly": 3646,
      "shif": 3647,
      "ppl": 3648,
      "cep": 3649,
      "nty": 3650,
      "urgent": 3651,
      "plenty": 3652,
      "spir": 3653,
      "disappoint": 3654,
      "gifts": 3655,
      "boris": 3656,
      "listening": 3657,
      "healthy": 3658,
      "jesse": 3659,
      "apolog": 3660,
      "comfortable": 3661,
      "relationship": 3662,
      "chad": 3663,
      "fl": 3664,
      "ugh": 3665,
      "mexic": 3666,
      "vered": 3667,
      "sold": 3668,
      "chu": 3669,
      "cooper": 3670,
      "tiv": 3671,
      "jody": 3672,
      "terri": 3673,
      "words": 3674,
      "exhi": 3675,
      "helped": 3676,
      "katherine": 3677,
      "isabelle": 3678,
      "medic": 3679,
      "walking": 3680,
      "ladies": 3681,
      "craig": 3682,
      "entire": 3683,
      "bio": 3684,
      "toilet": 3685,
      "hailey": 3686,
      "bum": 3687,
      "chi": 3688,
      "juan": 3689,
      "felic": 3690,
      "ianne": 3691,
      "dio": 3692,
      "decent": 3693,
      "karl": 3694,
      "dentist": 3695,
      "annoying": 3696,
      "products": 3697,
      "exhibit": 3698,
      "bing": 3699,
      "cass": 3700,
      "fers": 3701,
      "hates": 3702,
      "kas": 3703,
      "sand": 3704,
      "infor": 3705,
      "reck": 3706,
      "isha": 3707,
      "wever": 3708,
      "however": 3709,
      "bull": 3710,
      "covered": 3711,
      "anytime": 3712,
      "chel": 3713,
      "wood": 3714,
      "mickey": 3715,
      "olivier": 3716,
      "checking": 3717,
      "famous": 3718,
      "flights": 3719,
      "doug": 3720,
      "screen": 3721,
      "sabrina": 3722,
      "assignment": 3723,
      "ivan": 3724,
      "sli": 3725,
      "yer": 3726,
      "thor": 3727,
      "regre": 3728,
      "meal": 3729,
      "aria": 3730,
      "brought": 3731,
      "mistake": 3732,
      "lated": 3733,
      "german": 3734,
      "nervous": 3735,
      "picking": 3736,
      "jacket": 3737,
      "darren": 3738,
      "jayden": 3739,
      "changing": 3740,
      "debbie": 3741,
      "ula": 3742,
      "rea": 3743,
      "thea": 3744,
      "final": 3745,
      "alexandra": 3746,
      "gery": 3747,
      "prices": 3748,
      "mission": 3749,
      "archie": 3750,
      "figure": 3751,
      "cousin": 3752,
      "cand": 3753,
      "dare": 3754,
      "dates": 3755,
      "become": 3756,
      "americ": 3757,
      "tery": 3758,
      "unless": 3759,
      "prob": 3760,
      "excu": 3761,
      "focus": 3762,
      "dancing": 3763,
      "stefan": 3764,
      "mater": 3765,
      "descri": 3766,
      "blood": 3767,
      "gabrielle": 3768,
      "subject": 3769,
      "hoping": 3770,
      "tamara": 3771,
      "control": 3772,
      "matilda": 3773,
      "vy": 3774,
      "third": 3775,
      "gage": 3776,
      "caught": 3777,
      "cul": 3778,
      "huh": 3779,
      "bigger": 3780,
      "personal": 3781,
      "josephine": 3782,
      "changes": 3783,
      "yoga": 3784,
      "magda": 3785,
      "stephen": 3786,
      "machine": 3787,
      "joking": 3788,
      "kk": 3789,
      "xit": 3790,
      "ater": 3791,
      "member": 3792,
      "gosh": 3793,
      "somehow": 3794,
      "whether": 3795,
      "nights": 3796,
      "franklin": 3797,
      "custom": 3798,
      "south": 3799,
      "hillary": 3800,
      "avoid": 3801,
      "econ": 3802,
      "gara": 3803,
      "gers": 3804,
      "rr": 3805,
      "uber": 3806,
      "toes": 3807,
      "youtube": 3808,
      "nelly": 3809,
      "laun": 3810,
      "carson": 3811,
      "grey": 3812,
      "popu": 3813,
      "cynthia": 3814,
      "cuba": 3815,
      "vincent": 3816,
      "lori": 3817,
      "exams": 3818,
      "hmmm": 3819,
      "dogs": 3820,
      "olaf": 3821,
      "beatrice": 3822,
      "mentioned": 3823,
      "eggs": 3824,
      "chelsea": 3825,
      "fle": 3826,
      "rd": 3827,
      "sses": 3828,
      "ising": 3829,
      "besides": 3830,
      "selling": 3831,
      "edgar": 3832,
      "colin": 3833,
      "ima": 3834,
      "impro": 3835,
      "natha": 3836,
      "cards": 3837,
      "vince": 3838,
      "evie": 3839,
      "cora": 3840,
      "simone": 3841,
      "denise": 3842,
      "aaa": 3843,
      "insta": 3844,
      "shirley": 3845,
      "delivery": 3846,
      "disappointed": 3847,
      "nathalie": 3848,
      "nan": 3849,
      "silly": 3850,
      "tessa": 3851,
      "meant": 3852,
      "stri": 3853,
      "chine": 3854,
      "somebody": 3855,
      "ceci": 3856,
      "chester": 3857,
      "spare": 3858,
      "helps": 3859,
      "jenna": 3860,
      "satis": 3861,
      "shows": 3862,
      "closed": 3863,
      "chase": 3864,
      "access": 3865,
      "raining": 3866,
      "pasta": 3867,
      "hayden": 3868,
      "dollars": 3869,
      "literally": 3870,
      "grocer": 3871,
      "quality": 3872,
      "cise": 3873,
      "fif": 3874,
      "gil": 3875,
      "zach": 3876,
      "issue": 3877,
      "nel": 3878,
      "neth": 3879,
      "lake": 3880,
      "joel": 3881,
      "five": 3882,
      "carla": 3883,
      "aff": 3884,
      "japan": 3885,
      "curious": 3886,
      "intro": 3887,
      "given": 3888,
      "driver": 3889,
      "position": 3890,
      "reservation": 3891,
      "sofia": 3892,
      "chinese": 3893,
      "aven": 3894,
      "ike": 3895,
      "vale": 3896,
      "yl": 3897,
      "lent": 3898,
      "ense": 3899,
      "sever": 3900,
      "teen": 3901,
      "pper": 3902,
      "letter": 3903,
      "calls": 3904,
      "charge": 3905,
      "shoot": 3906,
      "joining": 3907,
      "visited": 3908,
      "darcy": 3909,
      "design": 3910,
      "settle": 3911,
      "exciting": 3912,
      "scary": 3913,
      "brittany": 3914,
      "yuri": 3915,
      "wilson": 3916,
      "written": 3917,
      "kamil": 3918,
      "chuck": 3919,
      "cate": 3920,
      "las": 3921,
      "yann": 3922,
      "regard": 3923,
      "orig": 3924,
      "lila": 3925,
      "alco": 3926,
      "bun": 3927,
      "local": 3928,
      "coll": 3929,
      "cole": 3930,
      "admit": 3931,
      "term": 3932,
      "prefers": 3933,
      "danger": 3934,
      "appe": 3935,
      "jeffrey": 3936,
      "horror": 3937,
      "suzanne": 3938,
      "wallet": 3939,
      "silvia": 3940,
      "origin": 3941,
      "bin": 3942,
      "ctive": 3943,
      "jer": 3944,
      "jared": 3945,
      "vol": 3946,
      "llo": 3947,
      "stat": 3948,
      "sten": 3949,
      "havent": 3950,
      "esme": 3951,
      "allie": 3952,
      "adele": 3953,
      "luna": 3954,
      "johnson": 3955,
      "stayed": 3956,
      "human": 3957,
      "lessons": 3958,
      "slept": 3959,
      "casper": 3960,
      "sweetie": 3961,
      "organize": 3962,
      "invitation": 3963,
      "advises": 3964,
      "destroy": 3965,
      "swee": 3966,
      "code": 3967,
      "fever": 3968,
      "millie": 3969,
      "connie": 3970,
      "cheer": 3971,
      "nik": 3972,
      "monika": 3973,
      "woke": 3974,
      "harris": 3975,
      "brexit": 3976,
      "courtney": 3977,
      "failed": 3978,
      "corner": 3979,
      "mitch": 3980,
      "ridicu": 3981,
      "songs": 3982,
      "package": 3983,
      "general": 3984,
      "crystal": 3985,
      "trish": 3986,
      "certainly": 3987,
      "apart": 3988,
      "tin": 3989,
      "kept": 3990,
      "lied": 3991,
      "jump": 3992,
      "within": 3993,
      "marco": 3994,
      "marry": 3995,
      "shelly": 3996,
      "antic": 3997,
      "def": 3998,
      "unt": 3999,
      "sale": 4000,
      "commun": 4001,
      "perfor": 4002,
      "trick": 4003,
      "harold": 4004,
      "parking": 4005,
      "sane": 4006,
      "doris": 4007,
      "paige": 4008,
      "bry": 4009,
      "dden": 4010,
      "macy": 4011,
      "tte": 4012,
      "ints": 4013,
      "total": 4014,
      "atten": 4015,
      "wes": 4016,
      "idiot": 4017,
      "necess": 4018,
      "adv": 4019,
      "sup": 4020,
      "sudden": 4021,
      "butter": 4022,
      "marge": 4023,
      "phones": 4024,
      "spa": 4025,
      "offic": 4026,
      "surgery": 4027,
      "texting": 4028,
      "promised": 4029,
      "neighbor": 4030,
      "guests": 4031,
      "psycho": 4032,
      "ridiculous": 4033,
      "bh": 4034,
      "cab": 4035,
      "rout": 4036,
      "sasha": 4037,
      "recor": 4038,
      "ond": 4039,
      "alys": 4040,
      "known": 4041,
      "carly": 4042,
      "stor": 4043,
      "ables": 4044,
      "tran": 4045,
      "harriet": 4046,
      "morris": 4047,
      "paying": 4048,
      "awww": 4049,
      "tesco": 4050,
      "exhibition": 4051,
      "instagram": 4052,
      "ahead": 4053,
      "gig": 4054,
      "ien": 4055,
      "mand": 4056,
      "anni": 4057,
      "thesis": 4058,
      "lies": 4059,
      "neil": 4060,
      "impossible": 4061,
      "bow": 4062,
      "luca": 4063,
      "cking": 4064,
      "christopher": 4065,
      "track": 4066,
      "latest": 4067,
      "ortun": 4068,
      "ilyn": 4069,
      "sidney": 4070,
      "videos": 4071,
      "turns": 4072,
      "condition": 4073,
      "collea": 4074,
      "kristen": 4075,
      "opportun": 4076,
      "specific": 4077,
      "session": 4078,
      "several": 4079,
      "ains": 4080,
      "ey": 4081,
      "phe": 4082,
      "sn": 4083,
      "vid": 4084,
      "itar": 4085,
      "eddie": 4086,
      "peggy": 4087,
      "profile": 4088,
      "helping": 4089,
      "mindy": 4090,
      "earth": 4091,
      "denis": 4092,
      "recommended": 4093,
      "contin": 4094,
      "chap": 4095,
      "skin": 4096,
      "voice": 4097,
      "pearl": 4098,
      "nadia": 4099,
      "credit": 4100,
      "pissed": 4101,
      "regret": 4102,
      "bian": 4103,
      "cross": 4104,
      "kin": 4105,
      "insane": 4106,
      "ress": 4107,
      "respect": 4108,
      "tobi": 4109,
      "stacey": 4110,
      "lead": 4111,
      "nove": 4112,
      "kev": 4113,
      "album": 4114,
      "ghan": 4115,
      "riel": 4116,
      "maur": 4117,
      "mix": 4118,
      "common": 4119,
      "ext": 4120,
      "sports": 4121,
      "bringing": 4122,
      "lindsey": 4123,
      "frankie": 4124,
      "invol": 4125,
      "clock": 4126,
      "create": 4127,
      "messages": 4128,
      "frustr": 4129,
      "convinced": 4130,
      "tatiana": 4131,
      "barely": 4132,
      "kier": 4133,
      "sant": 4134,
      "srs": 4135,
      "velo": 4136,
      "allison": 4137,
      "suc": 4138,
      "gel": 4139,
      "shane": 4140,
      "death": 4141,
      "compet": 4142,
      "surely": 4143,
      "rus": 4144,
      "iano": 4145,
      "apply": 4146,
      "trump": 4147,
      "careful": 4148,
      "hallo": 4149,
      "valent": 4150,
      "elo": 4151,
      "gic": 4152,
      "jade": 4153,
      "scr": 4154,
      "tab": 4155,
      "zu": 4156,
      "repair": 4157,
      "toma": 4158,
      "issa": 4159,
      "helena": 4160,
      "sep": 4161,
      "goss": 4162,
      "accep": 4163,
      "lazy": 4164,
      "joke": 4165,
      "gress": 4166,
      "const": 4167,
      "jax": 4168,
      "tions": 4169,
      "alexa": 4170,
      "tors": 4171,
      "direct": 4172,
      "download": 4173,
      "difference": 4174,
      "nichol": 4175,
      "karol": 4176,
      "salad": 4177,
      "finishing": 4178,
      "reminds": 4179,
      "glass": 4180,
      "garage": 4181,
      "ikea": 4182,
      "alcohol": 4183,
      "dangerous": 4184,
      "srsly": 4185,
      "cir": 4186,
      "sac": 4187,
      "anette": 4188,
      "staff": 4189,
      "keira": 4190,
      "jud": 4191,
      "mathew": 4192,
      "shan": 4193,
      "gray": 4194,
      "paint": 4195,
      "pages": 4196,
      "claim": 4197,
      "presents": 4198,
      "spending": 4199,
      "vicki": 4200,
      "square": 4201,
      "attention": 4202,
      "brain": 4203,
      "center": 4204,
      "rly": 4205,
      "wy": 4206,
      "zer": 4207,
      "ays": 4208,
      "wild": 4209,
      "channe": 4210,
      "mod": 4211,
      "union": 4212,
      "febru": 4213,
      "saving": 4214,
      "contract": 4215,
      "speaking": 4216,
      "annette": 4217,
      "rooms": 4218,
      "amaz": 4219,
      "otto": 4220,
      "expecting": 4221,
      "install": 4222,
      "bastard": 4223,
      "graham": 4224,
      "tanya": 4225,
      "cameron": 4226,
      "regis": 4227,
      "valerie": 4228,
      "introdu": 4229,
      "halloween": 4230,
      "february": 4231,
      "gay": 4232,
      "gri": 4233,
      "kick": 4234,
      "nite": 4235,
      "tro": 4236,
      "tbh": 4237,
      "vod": 4238,
      "reen": 4239,
      "ering": 4240,
      "leen": 4241,
      "noel": 4242,
      "hole": 4243,
      "active": 4244,
      "location": 4245,
      "tember": 4246,
      "fest": 4247,
      "guitar": 4248,
      "ural": 4249,
      "conven": 4250,
      "except": 4251,
      "waste": 4252,
      "studies": 4253,
      "mmm": 4254,
      "shops": 4255,
      "embar": 4256,
      "dire": 4257,
      "kath": 4258,
      "kenneth": 4259,
      "camille": 4260,
      "sunny": 4261,
      "versary": 4262,
      "papers": 4263,
      "skype": 4264,
      "empty": 4265,
      "pressure": 4266,
      "realiz": 4267,
      "anniversary": 4268,
      "september": 4269,
      "aunt": 4270,
      "dig": 4271,
      "fash": 4272,
      "none": 4273,
      "site": 4274,
      "west": 4275,
      "sushi": 4276,
      "shes": 4277,
      "tered": 4278,
      "geez": 4279,
      "miley": 4280,
      "roman": 4281,
      "berta": 4282,
      "olas": 4283,
      "cape": 4284,
      "partner": 4285,
      "xddd": 4286,
      "bethany": 4287,
      "sight": 4288,
      "bradley": 4289,
      "basket": 4290,
      "learning": 4291,
      "profession": 4292,
      "positive": 4293,
      "quiet": 4294,
      "mountains": 4295,
      "performan": 4296,
      "nicholas": 4297,
      "dic": 4298,
      "fro": 4299,
      "hans": 4300,
      "ime": 4301,
      "jah": 4302,
      "lam": 4303,
      "nit": 4304,
      "😍😍": 4305,
      "reco": 4306,
      "ora": 4307,
      "heav": 4308,
      "bear": 4309,
      "coco": 4310,
      "jules": 4311,
      "debor": 4312,
      "august": 4313,
      "seemed": 4314,
      "bren": 4315,
      "pical": 4316,
      "picked": 4317,
      "pump": 4318,
      "lana": 4319,
      "central": 4320,
      "swear": 4321,
      "awk": 4322,
      "sienna": 4323,
      "singing": 4324,
      "uuuu": 4325,
      "laundry": 4326,
      "november": 4327,
      "extreme": 4328,
      "fashion": 4329,
      "blan": 4330,
      "mn": 4331,
      "ore": 4332,
      "pad": 4333,
      "pier": 4334,
      "wing": 4335,
      "meghan": 4336,
      "leila": 4337,
      "soci": 4338,
      "soft": 4339,
      "bunch": 4340,
      "willow": 4341,
      "marianne": 4342,
      "dex": 4343,
      "inder": 4344,
      "conrad": 4345,
      "iler": 4346,
      "forever": 4347,
      "ellis": 4348,
      "spee": 4349,
      "gged": 4350,
      "turning": 4351,
      "offered": 4352,
      "gabi": 4353,
      "password": 4354,
      "double": 4355,
      "reception": 4356,
      "loads": 4357,
      "properly": 4358,
      "throwing": 4359,
      "possibly": 4360,
      "awkward": 4361,
      "flora": 4362,
      "gate": 4363,
      "mc": 4364,
      "vill": 4365,
      "xy": 4366,
      "yay": 4367,
      "theart": 4368,
      "beers": 4369,
      "alfred": 4370,
      "allan": 4371,
      "aming": 4372,
      "river": 4373,
      "ablo": 4374,
      "vera": 4375,
      "juice": 4376,
      "shy": 4377,
      "cars": 4378,
      "fucked": 4379,
      "weren": 4380,
      "dison": 4381,
      "apples": 4382,
      "bake": 4383,
      "medical": 4384,
      "believes": 4385,
      "postp": 4386,
      "gaby": 4387,
      "six": 4388,
      "itional": 4389,
      "elijah": 4390,
      "debra": 4391,
      "cristina": 4392,
      "bridge": 4393,
      "rodney": 4394,
      "animal": 4395,
      "american": 4396,
      "sweetheart": 4397,
      "ado": 4398,
      "emo": 4399,
      "fla": 4400,
      "relie": 4401,
      "tee": 4402,
      "decl": 4403,
      "taxi": 4404,
      "conor": 4405,
      "consu": 4406,
      "cted": 4407,
      "mates": 4408,
      "syd": 4409,
      "shawn": 4410,
      "shares": 4411,
      "older": 4412,
      "closer": 4413,
      "landed": 4414,
      "sugar": 4415,
      "complete": 4416,
      "fixed": 4417,
      "quickly": 4418,
      "deliver": 4419,
      "clients": 4420,
      "fruit": 4421,
      "random": 4422,
      "skiing": 4423,
      "bf": 4424,
      "pound": 4425,
      "zen": 4426,
      "replace": 4427,
      "erik": 4428,
      "ingrid": 4429,
      "leigh": 4430,
      "nooo": 4431,
      "lift": 4432,
      "sus": 4433,
      "aubre": 4434,
      "taste": 4435,
      "exchange": 4436,
      "gabe": 4437,
      "pretend": 4438,
      "iling": 4439,
      "charity": 4440,
      "sooner": 4441,
      "version": 4442,
      "bonnie": 4443,
      "occas": 4444,
      "skyler": 4445,
      "budget": 4446,
      "excuse": 4447,
      "satisfied": 4448,
      "gossip": 4449,
      "channel": 4450,
      "vodka": 4451,
      "aubrey": 4452,
      "bang": 4453,
      "candy": 4454,
      "gal": 4455,
      "sry": 4456,
      "tar": 4457,
      "wind": 4458,
      "zel": 4459,
      "inve": 4460,
      "incred": 4461,
      "rett": 4462,
      "eral": 4463,
      "icy": 4464,
      "assu": 4465,
      "soooo": 4466,
      "nest": 4467,
      "ety": 4468,
      "pose": 4469,
      "pota": 4470,
      "romantic": 4471,
      "presid": 4472,
      "finding": 4473,
      "disgust": 4474,
      "freya": 4475,
      "keeping": 4476,
      "forgotten": 4477,
      "wins": 4478,
      "enjoying": 4479,
      "elias": 4480,
      "shift": 4481,
      "volun": 4482,
      "modation": 4483,
      "performance": 4484,
      "data": 4485,
      "equ": 4486,
      "ras": 4487,
      "xie": 4488,
      "repor": 4489,
      "itu": 4490,
      "icated": 4491,
      "keen": 4492,
      "kets": 4493,
      "accom": 4494,
      "immedi": 4495,
      "hero": 4496,
      "fill": 4497,
      "upload": 4498,
      "plu": 4499,
      "points": 4500,
      "phill": 4501,
      "dresses": 4502,
      "truth": 4503,
      "parties": 4504,
      "gging": 4505,
      "creep": 4506,
      "martina": 4507,
      "luckily": 4508,
      "raymond": 4509,
      "midnight": 4510,
      "radio": 4511,
      "switch": 4512,
      "buddy": 4513,
      "ugly": 4514,
      "scen": 4515,
      "document": 4516,
      "quinn": 4517,
      "journey": 4518,
      "mexico": 4519,
      "bianca": 4520,
      "jar": 4521,
      "pc": 4522,
      "zi": 4523,
      "ert": 4524,
      "mek": 4525,
      "bey": 4526,
      "bell": 4527,
      "lidia": 4528,
      "eter": 4529,
      "loren": 4530,
      "suits": 4531,
      "tial": 4532,
      "moder": 4533,
      "male": 4534,
      "destin": 4535,
      "develo": 4536,
      "justine": 4537,
      "muriel": 4538,
      "partic": 4539,
      "manchester": 4540,
      "alec": 4541,
      "hary": 4542,
      "divor": 4543,
      "standing": 4544,
      "payment": 4545,
      "opening": 4546,
      "opened": 4547,
      "glasses": 4548,
      "emplo": 4549,
      "complaining": 4550,
      "zachary": 4551,
      "electric": 4552,
      "storm": 4553,
      "speech": 4554,
      "alive": 4555,
      "ek": 4556,
      "pio": 4557,
      "insur": 4558,
      "rep": 4559,
      "reply": 4560,
      "reunion": 4561,
      "toni": 4562,
      "orange": 4563,
      "behave": 4564,
      "asy": 4565,
      "ached": 4566,
      "suff": 4567,
      "nap": 4568,
      "names": 4569,
      "boston": 4570,
      "risk": 4571,
      "cath": 4572,
      "igno": 4573,
      "helpful": 4574,
      "stood": 4575,
      "funeral": 4576,
      "simply": 4577,
      "fanny": 4578,
      "cakes": 4579,
      "period": 4580,
      "events": 4581,
      "political": 4582,
      "politics": 4583,
      "laughing": 4584,
      "konrad": 4585,
      "opportunity": 4586,
      "santa": 4587,
      "sydney": 4588,
      "base": 4589,
      "git": 4590,
      "kian": 4591,
      "ns": 4592,
      "rup": 4593,
      "yed": 4594,
      "itter": 4595,
      "het": 4596,
      "tips": 4597,
      "aul": 4598,
      "ruin": 4599,
      "rush": 4600,
      "nightmare": 4601,
      "everyday": 4602,
      "stef": 4603,
      "kinga": 4604,
      "jana": 4605,
      "announ": 4606,
      "viola": 4607,
      "pray": 4608,
      "tics": 4609,
      "tree": 4610,
      "putting": 4611,
      "supermarket": 4612,
      "garry": 4613,
      "british": 4614,
      "delayed": 4615,
      "raphael": 4616,
      "packed": 4617,
      "popular": 4618,
      "piotr": 4619,
      "insurance": 4620,
      "est": 4621,
      "glo": 4622,
      "ience": 4623,
      "nal": 4624,
      "uses": 4625,
      "react": 4626,
      "amount": 4627,
      "plant": 4628,
      "confu": 4629,
      "files": 4630,
      "hiya": 4631,
      "phys": 4632,
      "spen": 4633,
      "sergio": 4634,
      "travis": 4635,
      "olive": 4636,
      "eee": 4637,
      "chair": 4638,
      "skill": 4639,
      "hands": 4640,
      "beauty": 4641,
      "crit": 4642,
      "submit": 4643,
      "tania": 4644,
      "pleasant": 4645,
      "generally": 4646,
      "dirty": 4647,
      "tobias": 4648,
      "avery": 4649,
      "dish": 4650,
      "gf": 4651,
      "hat": 4652,
      "task": 4653,
      "nov": 4654,
      "icked": 4655,
      "allow": 4656,
      "costu": 4657,
      "margot": 4658,
      "marilyn": 4659,
      "demand": 4660,
      "ahh": 4661,
      "ahmed": 4662,
      "auror": 4663,
      "ends": 4664,
      "update": 4665,
      "milena": 4666,
      "indu": 4667,
      "carry": 4668,
      "gus": 4669,
      "tooth": 4670,
      "letting": 4671,
      "grate": 4672,
      "dumb": 4673,
      "shot": 4674,
      "emer": 4675,
      "plays": 4676,
      "thoughts": 4677,
      "meetings": 4678,
      "jacqu": 4679,
      "dresser": 4680,
      "texted": 4681,
      "tests": 4682,
      "beatri": 4683,
      "convince": 4684,
      "graphy": 4685,
      "title": 4686,
      "bullshit": 4687,
      "fifa": 4688,
      "transport": 4689,
      "success": 4690,
      "accepted": 4691,
      "deborah": 4692,
      "confused": 4693,
      "aurora": 4694,
      "easter": 4695,
      "kale": 4696,
      "nb": 4697,
      "ino": 4698,
      "oups": 4699,
      "atmo": 4700,
      "beha": 4701,
      "rock": 4702,
      "lill": 4703,
      "activ": 4704,
      "laila": 4705,
      "jodie": 4706,
      "iron": 4707,
      "rage": 4708,
      "theres": 4709,
      "compl": 4710,
      "berry": 4711,
      "petra": 4712,
      "trad": 4713,
      "madeline": 4714,
      "georgina": 4715,
      "frederick": 4716,
      "perfectly": 4717,
      "headache": 4718,
      "easily": 4719,
      "winston": 4720,
      "attack": 4721,
      "organise": 4722,
      "added": 4723,
      "tristan": 4724,
      "neighbours": 4725,
      "approach": 4726,
      "currently": 4727,
      "organizing": 4728,
      "greece": 4729,
      "brooklyn": 4730,
      "festi": 4731,
      "heavy": 4732,
      "disgusting": 4733,
      "immediately": 4734,
      "spencer": 4735,
      "atmosp": 4736,
      "cia": 4737,
      "dina": 4738,
      "dary": 4739,
      "fits": 4740,
      "kno": 4741,
      "nand": 4742,
      "nment": 4743,
      "pra": 4744,
      "von": 4745,
      "yum": 4746,
      "ider": 4747,
      "allen": 4748,
      "doc": 4749,
      "china": 4750,
      "abo": 4751,
      "vert": 4752,
      "lains": 4753,
      "iffer": 4754,
      "sage": 4755,
      "themselves": 4756,
      "typical": 4757,
      "spring": 4758,
      "dying": 4759,
      "thai": 4760,
      "meaning": 4761,
      "bills": 4762,
      "reschedule": 4763,
      "mira": 4764,
      "ginny": 4765,
      "jorge": 4766,
      "calend": 4767,
      "arianna": 4768,
      "government": 4769,
      "necessary": 4770,
      "extremely": 4771,
      "invest": 4772,
      "volunte": 4773,
      "behavi": 4774,
      "pun": 4775,
      "pablo": 4776,
      "sion": 4777,
      "var": 4778,
      "oul": 4779,
      "stage": 4780,
      "nooooo": 4781,
      "kee": 4782,
      "esther": 4783,
      "america": 4784,
      "cody": 4785,
      "willing": 4786,
      "nails": 4787,
      "major": 4788,
      "ours": 4789,
      "urt": 4790,
      "excell": 4791,
      "ohhh": 4792,
      "groups": 4793,
      "janette": 4794,
      "gerald": 4795,
      "mummy": 4796,
      "eaten": 4797,
      "calvin": 4798,
      "eventually": 4799,
      "crying": 4800,
      "angelica": 4801,
      "kuba": 4802,
      "bunny": 4803,
      "president": 4804,
      "festival": 4805,
      "aver": 4806,
      "bout": 4807,
      "cil": 4808,
      "gie": 4809,
      "omy": 4810,
      "une": 4811,
      "yas": 4812,
      "reggie": 4813,
      "ency": 4814,
      "seat": 4815,
      "rowed": 4816,
      "ably": 4817,
      "therap": 4818,
      "commit": 4819,
      "rude": 4820,
      "chose": 4821,
      "stories": 4822,
      "serge": 4823,
      "applic": 4824,
      "booking": 4825,
      "elliot": 4826,
      "freaking": 4827,
      "bailey": 4828,
      "shared": 4829,
      "fake": 4830,
      "norma": 4831,
      "lance": 4832,
      "useful": 4833,
      "compan": 4834,
      "lines": 4835,
      "surprising": 4836,
      "hairdresser": 4837,
      "subway": 4838,
      "parker": 4839,
      "ezra": 4840,
      "younger": 4841,
      "angelina": 4842,
      "xoxo": 4843,
      "million": 4844,
      "michaela": 4845,
      "improve": 4846,
      "original": 4847,
      "advance": 4848,
      "occasion": 4849,
      "phillip": 4850,
      "daryl": 4851,
      "cv": 4852,
      "kerry": 4853,
      "kira": 4854,
      "lma": 4855,
      "mack": 4856,
      "nar": 4857,
      "stom": 4858,
      "rell": 4859,
      "stun": 4860,
      "nose": 4861,
      "seats": 4862,
      "whis": 4863,
      "rik": 4864,
      "oken": 4865,
      "shed": 4866,
      "master": 4867,
      "depart": 4868,
      "cara": 4869,
      "els": 4870,
      "plea": 4871,
      "patient": 4872,
      "friendly": 4873,
      "cue": 4874,
      "couch": 4875,
      "bartek": 4876,
      "player": 4877,
      "norman": 4878,
      "appear": 4879,
      "sweater": 4880,
      "handle": 4881,
      "handsome": 4882,
      "workshop": 4883,
      "dropped": 4884,
      "hopes": 4885,
      "respons": 4886,
      "teaching": 4887,
      "animals": 4888,
      "carolyn": 4889,
      "character": 4890,
      "informs": 4891,
      "phew": 4892,
      "kieran": 4893,
      "lorenzo": 4894,
      "atmosphere": 4895,
      "excellent": 4896,
      "ahaha": 4897,
      "bay": 4898,
      "raul": 4899,
      "uro": 4900,
      "rele": 4901,
      "related": 4902,
      "towards": 4903,
      "sting": 4904,
      "lexi": 4905,
      "enger": 4906,
      "lore": 4907,
      "tia": 4908,
      "marsha": 4909,
      "sheet": 4910,
      "ending": 4911,
      "peace": 4912,
      "bott": 4913,
      "tax": 4914,
      "bernie": 4915,
      "nigel": 4916,
      "ians": 4917,
      "annon": 4918,
      "studio": 4919,
      "cuz": 4920,
      "dishes": 4921,
      "breaking": 4922,
      "natural": 4923,
      "invo": 4924,
      "turkey": 4925,
      "setting": 4926,
      "voted": 4927,
      "juliet": 4928,
      "jasper": 4929,
      "signed": 4930,
      "pedro": 4931,
      "model": 4932,
      "modern": 4933,
      "aunti": 4934,
      "aisha": 4935,
      "bday": 4936,
      "ehh": 4937,
      "kane": 4938,
      "np": 4939,
      "ooh": 4940,
      "slight": 4941,
      "smell": 4942,
      "una": 4943,
      "ware": 4944,
      "coat": 4945,
      "cooked": 4946,
      "adays": 4947,
      "ria": 4948,
      "cancer": 4949,
      "marshall": 4950,
      "shel": 4951,
      "shout": 4952,
      "shannon": 4953,
      "author": 4954,
      "papa": 4955,
      "dustin": 4956,
      "showed": 4957,
      "penelo": 4958,
      "trudy": 4959,
      "badly": 4960,
      "borrowed": 4961,
      "shitty": 4962,
      "chall": 4963,
      "gene": 4964,
      "strugg": 4965,
      "allergic": 4966,
      "arriving": 4967,
      "settled": 4968,
      "reports": 4969,
      "accommodation": 4970,
      "responsible": 4971,
      "fol": 4972,
      "kara": 4973,
      "merry": 4974,
      "omar": 4975,
      "thri": 4976,
      "inju": 4977,
      "ariana": 4978,
      "liv": 4979,
      "lder": 4980,
      "suspect": 4981,
      "nowadays": 4982,
      "canada": 4983,
      "ahhh": 4984,
      "sav": 4985,
      "elsa": 4986,
      "elsie": 4987,
      "process": 4988,
      "gain": 4989,
      "bray": 4990,
      "mmmm": 4991,
      "shocked": 4992,
      "trailer": 4993,
      "truly": 4994,
      "kaz": 4995,
      "jobs": 4996,
      "parcel": 4997,
      "xxxx": 4998,
      "clem": 4999,
      "eleon": 5000,
      "suggestions": 5001,
      "nearly": 5002,
      "nearby": 5003,
      "killing": 5004,
      "maths": 5005,
      "connection": 5006,
      "ginger": 5007,
      "exercis": 5008,
      "snacks": 5009,
      "wyatt": 5010,
      "professional": 5011,
      "jacqueline": 5012,
      "penelope": 5013,
      "km": 5014,
      "mou": 5015,
      "mie": 5016,
      "nam": 5017,
      "spre": 5018,
      "thre": 5019,
      "reli": 5020,
      "hetty": 5021,
      "lete": 5022,
      "sofa": 5023,
      "josie": 5024,
      "marisa": 5025,
      "impressed": 5026,
      "degre": 5027,
      "plants": 5028,
      "boat": 5029,
      "greet": 5030,
      "comment": 5031,
      "rum": 5032,
      "quire": 5033,
      "byn": 5034,
      "forest": 5035,
      "jenson": 5036,
      "lennon": 5037,
      "baking": 5038,
      "based": 5039,
      "izzy": 5040,
      "inviting": 5041,
      "ricardo": 5042,
      "leaves": 5043,
      "airb": 5044,
      "loud": 5045,
      "recommendations": 5046,
      "owner": 5047,
      "suggested": 5048,
      "adrien": 5049,
      "killed": 5050,
      "starving": 5051,
      "starbucks": 5052,
      "croat": 5053,
      "dreams": 5054,
      "episodes": 5055,
      "smoke": 5056,
      "pills": 5057,
      "chapter": 5058,
      "grateful": 5059,
      "complicated": 5060,
      "auntie": 5061,
      "degrees": 5062,
      "lina": 5063,
      "race": 5064,
      "rica": 5065,
      "slo": 5066,
      "anor": 5067,
      "hector": 5068,
      "bea": 5069,
      "robyn": 5070,
      "holy": 5071,
      "alo": 5072,
      "across": 5073,
      "advent": 5074,
      "addison": 5075,
      "moon": 5076,
      "teo": 5077,
      "delete": 5078,
      "autu": 5079,
      "lug": 5080,
      "mur": 5081,
      "annah": 5082,
      "stock": 5083,
      "germany": 5084,
      "push": 5085,
      "lord": 5086,
      "showing": 5087,
      "nestor": 5088,
      "rachael": 5089,
      "clair": 5090,
      "projects": 5091,
      "gency": 5092,
      "amelie": 5093,
      "grandpa": 5094,
      "score": 5095,
      "burn": 5096,
      "spoke": 5097,
      "packing": 5098,
      "films": 5099,
      "selma": 5100,
      "octo": 5101,
      "operation": 5102,
      "marika": 5103,
      "castle": 5104,
      "hayley": 5105,
      "following": 5106,
      "vivian": 5107,
      "felicia": 5108,
      "sandw": 5109,
      "competition": 5110,
      "scrat": 5111,
      "directly": 5112,
      "pounds": 5113,
      "particip": 5114,
      "autumn": 5115,
      "bac": 5116,
      "bly": 5117,
      "crac": 5118,
      "hir": 5119,
      "ique": 5120,
      "jtek": 5121,
      "kend": 5122,
      "klau": 5123,
      "pure": 5124,
      "sour": 5125,
      "vive": 5126,
      "iness": 5127,
      "atic": 5128,
      "onto": 5129,
      "onso": 5130,
      "ens": 5131,
      "encou": 5132,
      "roberta": 5133,
      "dot": 5134,
      "ads": 5135,
      "tight": 5136,
      "irma": 5137,
      "tasty": 5138,
      "talent": 5139,
      "comments": 5140,
      "hilar": 5141,
      "whom": 5142,
      "wojtek": 5143,
      "jeniffer": 5144,
      "dum": 5145,
      "rences": 5146,
      "countries": 5147,
      "numbers": 5148,
      "eleanor": 5149,
      "supervis": 5150,
      "gabriella": 5151,
      "lights": 5152,
      "sharing": 5153,
      "😂😂😂": 5154,
      "purpose": 5155,
      "marcin": 5156,
      "crowded": 5157,
      "argument": 5158,
      "cecilia": 5159,
      "destroyed": 5160,
      "suddenly": 5161,
      "colleagues": 5162,
      "grayson": 5163,
      "claims": 5164,
      "creepy": 5165,
      "emergency": 5166,
      "calendar": 5167,
      "mouth": 5168,
      "october": 5169,
      "klaudia": 5170,
      "dess": 5171,
      "dated": 5172,
      "fas": 5173,
      "jet": 5174,
      "rate": 5175,
      "scan": 5176,
      "anti": 5177,
      "hazel": 5178,
      "enga": 5179,
      "escape": 5180,
      "imo": 5181,
      "yellow": 5182,
      "celia": 5183,
      "parts": 5184,
      "assing": 5185,
      "fami": 5186,
      "blin": 5187,
      "nuts": 5188,
      "damien": 5189,
      "skip": 5190,
      "casey": 5191,
      "aware": 5192,
      "drake": 5193,
      "britney": 5194,
      "temper": 5195,
      "appeared": 5196,
      "valentine": 5197,
      "incredible": 5198,
      "airbnb": 5199,
      "cig": 5200,
      "fay": 5201,
      "iphone": 5202,
      "rn": 5203,
      "influ": 5204,
      "relea": 5205,
      "recover": 5206,
      "envy": 5207,
      "noo": 5208,
      "bever": 5209,
      "web": 5210,
      "nasty": 5211,
      "depressed": 5212,
      "ups": 5213,
      "plat": 5214,
      "ourselves": 5215,
      "provid": 5216,
      "luisa": 5217,
      "compare": 5218,
      "quid": 5219,
      "quent": 5220,
      "iland": 5221,
      "ignor": 5222,
      "asshole": 5223,
      "agata": 5224,
      "charger": 5225,
      "daily": 5226,
      "players": 5227,
      "corn": 5228,
      "cory": 5229,
      "robbie": 5230,
      "north": 5231,
      "lane": 5232,
      "osing": 5233,
      "survive": 5234,
      "damon": 5235,
      "richie": 5236,
      "aww": 5237,
      "reese": 5238,
      "promises": 5239,
      "jonas": 5240,
      "discussing": 5241,
      "yyyy": 5242,
      "experien": 5243,
      "iiii": 5244,
      "mariah": 5245,
      "camera": 5246,
      "slowly": 5247,
      "smoking": 5248,
      "solve": 5249,
      "vegetables": 5250,
      "involved": 5251,
      "amazon": 5252,
      "develop": 5253,
      "bottles": 5254,
      "croatia": 5255,
      "hilarious": 5256,
      "released": 5257,
      "aj": 5258,
      "bble": 5259,
      "ema": 5260,
      "gun": 5261,
      "ias": 5262,
      "rit": 5263,
      "tinder": 5264,
      "ville": 5265,
      "wol": 5266,
      "mechan": 5267,
      "hal": 5268,
      "hau": 5269,
      "noise": 5270,
      "allo": 5271,
      "suck": 5272,
      "marks": 5273,
      "delet": 5274,
      "likely": 5275,
      "mian": 5276,
      "yesss": 5277,
      "gather": 5278,
      "hip": 5279,
      "ards": 5280,
      "bless": 5281,
      "janine": 5282,
      "samsun": 5283,
      "serve": 5284,
      "drama": 5285,
      "kenny": 5286,
      "supper": 5287,
      "darrell": 5288,
      "sist": 5289,
      "hardly": 5290,
      "jonah": 5291,
      "babes": 5292,
      "messenger": 5293,
      "confirmed": 5294,
      "entertain": 5295,
      "memories": 5296,
      "communic": 5297,
      "invoice": 5298,
      "luggage": 5299,
      "samsung": 5300,
      "fet": 5301,
      "oy": 5302,
      "pants": 5303,
      "sple": 5304,
      "tabby": 5305,
      "vable": 5306,
      "refe": 5307,
      "require": 5308,
      "hemian": 5309,
      "seme": 5310,
      "robe": 5311,
      "alvin": 5312,
      "alba": 5313,
      "cock": 5314,
      "abroad": 5315,
      "ability": 5316,
      "marlene": 5317,
      "sometime": 5318,
      "deep": 5319,
      "delive": 5320,
      "ender": 5321,
      "celine": 5322,
      "bohemian": 5323,
      "sake": 5324,
      "progress": 5325,
      "exhau": 5326,
      "path": 5327,
      "erson": 5328,
      "trash": 5329,
      "thailand": 5330,
      "moro": 5331,
      "barcel": 5332,
      "maddy": 5333,
      "babys": 5334,
      "career": 5335,
      "speed": 5336,
      "pull": 5337,
      "tons": 5338,
      "tonia": 5339,
      "freezing": 5340,
      "border": 5341,
      "tune": 5342,
      "texts": 5343,
      "understanding": 5344,
      "ordering": 5345,
      "formal": 5346,
      "sweets": 5347,
      "burger": 5348,
      "smaller": 5349,
      "reasonable": 5350,
      "octa": 5351,
      "effect": 5352,
      "smoo": 5353,
      "lucia": 5354,
      "capital": 5355,
      "responsi": 5356,
      "refuses": 5357,
      "characters": 5358,
      "grocery": 5359,
      "bryce": 5360,
      "alyssa": 5361,
      "skills": 5362,
      "lillian": 5363,
      "delivered": 5364,
      "barcelona": 5365,
      "blind": 5366,
      "ult": 5367,
      "itself": 5368,
      "hamm": 5369,
      "became": 5370,
      "rot": 5371,
      "role": 5372,
      "gos": 5373,
      "alfie": 5374,
      "amp": 5375,
      "raine": 5376,
      "rail": 5377,
      "sapp": 5378,
      "mut": 5379,
      "exag": 5380,
      "fox": 5381,
      "arabella": 5382,
      "jacky": 5383,
      "geri": 5384,
      "downtown": 5385,
      "menu": 5386,
      "lived": 5387,
      "dddd": 5388,
      "twitter": 5389,
      "grandmother": 5390,
      "cleaner": 5391,
      "burg": 5392,
      "lawyer": 5393,
      "considers": 5394,
      "jeanette": 5395,
      "shirts": 5396,
      "smile": 5397,
      "answering": 5398,
      "fishing": 5399,
      "fabian": 5400,
      "honda": 5401,
      "neighbourhood": 5402,
      "battery": 5403,
      "virgin": 5404,
      "deserve": 5405,
      "documents": 5406,
      "stefano": 5407,
      "material": 5408,
      "tiny": 5409,
      "wesley": 5410,
      "record": 5411,
      "ave": 5412,
      "jada": 5413,
      "mass": 5414,
      "pig": 5415,
      "rash": 5416,
      "sig": 5417,
      "yd": 5418,
      "thin": 5419,
      "oned": 5420,
      "semin": 5421,
      "asure": 5422,
      "sooooo": 5423,
      "idence": 5424,
      "loose": 5425,
      "ador": 5426,
      "suzy": 5427,
      "til": 5428,
      "tiring": 5429,
      "whatsapp": 5430,
      "marla": 5431,
      "motor": 5432,
      "mollie": 5433,
      "hers": 5434,
      "pei": 5435,
      "saved": 5436,
      "berto": 5437,
      "quel": 5438,
      "backpack": 5439,
      "hadn": 5440,
      "sorted": 5441,
      "ffy": 5442,
      "clin": 5443,
      "barbe": 5444,
      "dist": 5445,
      "printer": 5446,
      "ashton": 5447,
      "bird": 5448,
      "suppor": 5449,
      "katia": 5450,
      "collection": 5451,
      "juliette": 5452,
      "basic": 5453,
      "hurts": 5454,
      "spoil": 5455,
      "cription": 5456,
      "independ": 5457,
      "boarding": 5458,
      "painting": 5459,
      "matters": 5460,
      "hanging": 5461,
      "falling": 5462,
      "scheduled": 5463,
      "russian": 5464,
      "kirk": 5465,
      "felicity": 5466,
      "customer": 5467,
      "continue": 5468,
      "application": 5469,
      "dessert": 5470,
      "engaged": 5471,
      "semester": 5472,
      "east": 5473,
      "hr": 5474,
      "iah": 5475,
      "ius": 5476,
      "kass": 5477,
      "kins": 5478,
      "oven": 5479,
      "tasks": 5480,
      "twins": 5481,
      "ury": 5482,
      "hesit": 5483,
      "edu": 5484,
      "nego": 5485,
      "neck": 5486,
      "lois": 5487,
      "coach": 5488,
      "marvin": 5489,
      "tomas": 5490,
      "probs": 5491,
      "ssy": 5492,
      "exper": 5493,
      "workers": 5494,
      "perfu": 5495,
      "ohh": 5496,
      "lottie": 5497,
      "freak": 5498,
      "dressed": 5499,
      "weekends": 5500,
      "tries": 5501,
      "earn": 5502,
      "created": 5503,
      "portug": 5504,
      "reality": 5505,
      "archite": 5506,
      "decides": 5507,
      "glas": 5508,
      "sexy": 5509,
      "gradu": 5510,
      "francesca": 5511,
      "kirsten": 5512,
      "proposed": 5513,
      "kisses": 5514,
      "arrival": 5515,
      "michal": 5516,
      "culture": 5517,
      "village": 5518,
      "beatrix": 5519,
      "stunning": 5520,
      "savannah": 5521,
      "wolf": 5522,
      "portugal": 5523,
      "dred": 5524,
      "fal": 5525,
      "gala": 5526,
      "ior": 5527,
      "jad": 5528,
      "lab": 5529,
      "ndid": 5530,
      "nur": 5531,
      "ners": 5532,
      "uh": 5533,
      "attr": 5534,
      "ernest": 5535,
      "meals": 5536,
      "lemon": 5537,
      "novel": 5538,
      "aside": 5539,
      "sore": 5540,
      "lim": 5541,
      "loo": 5542,
      "lock": 5543,
      "coz": 5544,
      "abor": 5545,
      "named": 5546,
      "depress": 5547,
      "upstairs": 5548,
      "tag": 5549,
      "tage": 5550,
      "africa": 5551,
      "quiz": 5552,
      "ilities": 5553,
      "granny": 5554,
      "wasted": 5555,
      "assist": 5556,
      "asts": 5557,
      "vision": 5558,
      "drank": 5559,
      "inten": 5560,
      "laurie": 5561,
      "emil": 5562,
      "renting": 5563,
      "maxine": 5564,
      "ows": 5565,
      "lands": 5566,
      "payton": 5567,
      "brianna": 5568,
      "posts": 5569,
      "agreement": 5570,
      "hundred": 5571,
      "resign": 5572,
      "value": 5573,
      "faster": 5574,
      "nathaniel": 5575,
      "cleaned": 5576,
      "effort": 5577,
      "aida": 5578,
      "hangover": 5579,
      "promotion": 5580,
      "tomatoes": 5581,
      "embarr": 5582,
      "pleased": 5583,
      "exercises": 5584,
      "spread": 5585,
      "beverly": 5586,
      "splendid": 5587,
      "smooth": 5588,
      "responsib": 5589,
      "ied": 5590,
      "lone": 5591,
      "pit": 5592,
      "plast": 5593,
      "piano": 5594,
      "uhm": 5595,
      "yvon": 5596,
      "anast": 5597,
      "inc": 5598,
      "ariel": 5599,
      "andro": 5600,
      "ena": 5601,
      "soo": 5602,
      "sody": 5603,
      "tific": 5604,
      "verse": 5605,
      "knowing": 5606,
      "antly": 5607,
      "audi": 5608,
      "proof": 5609,
      "spag": 5610,
      "telle": 5611,
      "answers": 5612,
      "coun": 5613,
      "ized": 5614,
      "norm": 5615,
      "native": 5616,
      "understood": 5617,
      "creative": 5618,
      "camila": 5619,
      "dorian": 5620,
      "skir": 5621,
      "bedroom": 5622,
      "blog": 5623,
      "blocked": 5624,
      "concerned": 5625,
      "doctors": 5626,
      "restaurants": 5627,
      "translation": 5628,
      "pieces": 5629,
      "gentle": 5630,
      "cruise": 5631,
      "swim": 5632,
      "arrang": 5633,
      "further": 5634,
      "notebook": 5635,
      "stressful": 5636,
      "reviews": 5637,
      "impressive": 5638,
      "chips": 5639,
      "nelson": 5640,
      "regarding": 5641,
      "official": 5642,
      "basketball": 5643,
      "potatoes": 5644,
      "hetti": 5645,
      "stomach": 5646,
      "hiram": 5647,
      "exagger": 5648,
      "anastasia": 5649,
      "cket": 5650,
      "fra": 5651,
      "ials": 5652,
      "javier": 5653,
      "uhh": 5654,
      "reaction": 5655,
      "arian": 5656,
      "heating": 5657,
      "sters": 5658,
      "ener": 5659,
      "enne": 5660,
      "sees": 5661,
      "secur": 5662,
      "weed": 5663,
      "libby": 5664,
      "neva": 5665,
      "outfit": 5666,
      "jojo": 5667,
      "moira": 5668,
      "pest": 5669,
      "goodbye": 5670,
      "prote": 5671,
      "lukas": 5672,
      "cheated": 5673,
      "precise": 5674,
      "helmut": 5675,
      "jennie": 5676,
      "misty": 5677,
      "dump": 5678,
      "benny": 5679,
      "discovered": 5680,
      "babies": 5681,
      "tennis": 5682,
      "vices": 5683,
      "ttyl": 5684,
      "lars": 5685,
      "useless": 5686,
      "rosemary": 5687,
      "realised": 5688,
      "karina": 5689,
      "salmon": 5690,
      "blair": 5691,
      "emails": 5692,
      "sadie": 5693,
      "rings": 5694,
      "draw": 5695,
      "logist": 5696,
      "sharpei": 5697,
      "advise": 5698,
      "oppos": 5699,
      "booze": 5700,
      "furnit": 5701,
      "kelvin": 5702,
      "exercise": 5703,
      "technic": 5704,
      "medicine": 5705,
      "groceries": 5706,
      "bowling": 5707,
      "frustrated": 5708,
      "sightseeing": 5709,
      "declan": 5710,
      "assume": 5711,
      "slightly": 5712,
      "hammad": 5713,
      "barbecue": 5714,
      "spaghetti": 5715,
      "normally": 5716,
      "security": 5717,
      "furniture": 5718,
      "aha": 5719,
      "caf": 5720,
      "lack": 5721,
      "py": 5722,
      "thous": 5723,
      "repe": 5724,
      "rend": 5725,
      "ark": 5726,
      "arnie": 5727,
      "argue": 5728,
      "leine": 5729,
      "haley": 5730,
      "weak": 5731,
      "fortune": 5732,
      "neville": 5733,
      "lower": 5734,
      "jokes": 5735,
      "terms": 5736,
      "rafa": 5737,
      "fired": 5738,
      "cecil": 5739,
      "sales": 5740,
      "hiking": 5741,
      "nies": 5742,
      "usz": 5743,
      "cali": 5744,
      "ctic": 5745,
      "pharm": 5746,
      "gran": 5747,
      "jazz": 5748,
      "lisbon": 5749,
      "dublin": 5750,
      "cares": 5751,
      "shape": 5752,
      "large": 5753,
      "recommendation": 5754,
      "zoey": 5755,
      "block": 5756,
      "karin": 5757,
      "curry": 5758,
      "scarf": 5759,
      "solution": 5760,
      "legs": 5761,
      "bags": 5762,
      "european": 5763,
      "randall": 5764,
      "grown": 5765,
      "islands": 5766,
      "decorations": 5767,
      "members": 5768,
      "judge": 5769,
      "dexter": 5770,
      "ciao": 5771,
      "keegan": 5772,
      "adventure": 5773,
      "negoti": 5774,
      "expert": 5775,
      "dim": 5776,
      "dwayne": 5777,
      "kok": 5778,
      "mme": 5779,
      "sven": 5780,
      "vouch": 5781,
      "wit": 5782,
      "thro": 5783,
      "thus": 5784,
      "thron": 5785,
      "remo": 5786,
      "theme": 5787,
      "sum": 5788,
      "jun": 5789,
      "demo": 5790,
      "ppa": 5791,
      "carlie": 5792,
      "artur": 5793,
      "qua": 5794,
      "bron": 5795,
      "phy": 5796,
      "phne": 5797,
      "grade": 5798,
      "acting": 5799,
      "johny": 5800,
      "mental": 5801,
      "cya": 5802,
      "dul": 5803,
      "brody": 5804,
      "daphne": 5805,
      "forecast": 5806,
      "janek": 5807,
      "shake": 5808,
      "crew": 5809,
      "brigit": 5810,
      "fuckin": 5811,
      "walt": 5812,
      "believable": 5813,
      "madeleine": 5814,
      "flower": 5815,
      "election": 5816,
      "nicolas": 5817,
      "salary": 5818,
      "haircut": 5819,
      "arrives": 5820,
      "highly": 5821,
      "oleg": 5822,
      "recipes": 5823,
      "fantasy": 5824,
      "result": 5825,
      "kota": 5826,
      "returned": 5827,
      "campus": 5828,
      "potter": 5829,
      "dirk": 5830,
      "memory": 5831,
      "spirit": 5832,
      "apologize": 5833,
      "reckons": 5834,
      "itude": 5835,
      "plumber": 5836,
      "destiny": 5837,
      "divorce": 5838,
      "platform": 5839,
      "allowed": 5840,
      "thrones": 5841,
      "brigitte": 5842,
      "cad": 5843,
      "glu": 5844,
      "kow": 5845,
      "kurt": 5846,
      "sier": 5847,
      "tall": 5848,
      "tann": 5849,
      "wan": 5850,
      "wade": 5851,
      "rehear": 5852,
      "alter": 5853,
      "edith": 5854,
      "coast": 5855,
      "ceed": 5856,
      "pln": 5857,
      "elise": 5858,
      "provide": 5859,
      "mul": 5860,
      "hilda": 5861,
      "preston": 5862,
      "thanksgiving": 5863,
      "spider": 5864,
      "callum": 5865,
      "patience": 5866,
      "oops": 5867,
      "aggie": 5868,
      "misses": 5869,
      "partying": 5870,
      "madrid": 5871,
      "gerard": 5872,
      "remem": 5873,
      "biggest": 5874,
      "century": 5875,
      "flies": 5876,
      "desp": 5877,
      "clue": 5878,
      "organising": 5879,
      "views": 5880,
      "finishes": 5881,
      "explains": 5882,
      "boxes": 5883,
      "management": 5884,
      "milton": 5885,
      "swit": 5886,
      "gordon": 5887,
      "fighting": 5888,
      "ships": 5889,
      "annoyed": 5890,
      "ledge": 5891,
      "including": 5892,
      "kelsey": 5893,
      "refused": 5894,
      "flash": 5895,
      "postpone": 5896,
      "employe": 5897,
      "temperature": 5898,
      "yvonne": 5899,
      "thousand": 5900,
      "dson": 5901,
      "gart": 5902,
      "kla": 5903,
      "knee": 5904,
      "lac": 5905,
      "plot": 5906,
      "rhonda": 5907,
      "sink": 5908,
      "sash": 5909,
      "tis": 5910,
      "isse": 5911,
      "ises": 5912,
      "isher": 5913,
      "aran": 5914,
      "hap": 5915,
      "section": 5916,
      "whit": 5917,
      "chip": 5918,
      "coke": 5919,
      "advert": 5920,
      "ldon": 5921,
      "joona": 5922,
      "knowledge": 5923,
      "terrence": 5924,
      "maps": 5925,
      "gees": 5926,
      "shona": 5927,
      "milan": 5928,
      "india": 5929,
      "comfy": 5930,
      "cheating": 5931,
      "ilt": 5932,
      "spam": 5933,
      "spoken": 5934,
      "happiness": 5935,
      "mistakes": 5936,
      "ciara": 5937,
      "disaster": 5938,
      "hum": 5939,
      "freda": 5940,
      "freddy": 5941,
      "lley": 5942,
      "desper": 5943,
      "umbre": 5944,
      "barbie": 5945,
      "deals": 5946,
      "higher": 5947,
      "engine": 5948,
      "pancakes": 5949,
      "hotels": 5950,
      "logical": 5951,
      "learned": 5952,
      "painful": 5953,
      "clarisse": 5954,
      "bottom": 5955,
      "cruel": 5956,
      "colours": 5957,
      "ramona": 5958,
      "windows": 5959,
      "propose": 5960,
      "included": 5961,
      "sauce": 5962,
      "impression": 5963,
      "yannick": 5964,
      "convenient": 5965,
      "costume": 5966,
      "activities": 5967,
      "yummy": 5968,
      "above": 5969,
      "unex": 5970,
      "deleted": 5971,
      "opposite": 5972,
      "ao": 5973,
      "ease": 5974,
      "fans": 5975,
      "lona": 5976,
      "oting": 5977,
      "rh": 5978,
      "sch": 5979,
      "ini": 5980,
      "inspir": 5981,
      "mered": 5982,
      "heat": 5983,
      "held": 5984,
      "stro": 5985,
      "enzie": 5986,
      "bered": 5987,
      "separ": 5988,
      "icja": 5989,
      "aldo": 5990,
      "alicja": 5991,
      "accu": 5992,
      "subs": 5993,
      "marvel": 5994,
      "marcel": 5995,
      "image": 5996,
      "nav": 5997,
      "geo": 5998,
      "inkill": 5999,
      "rael": 6000,
      "raquel": 6001,
      "luv": 6002,
      "polic": 6003,
      "predic": 6004,
      "grac": 6005,
      "painkill": 6006,
      "iggy": 6007,
      "jannet": 6008,
      "mini": 6009,
      "watches": 6010,
      "finan": 6011,
      "choices": 6012,
      "choosing": 6013,
      "stops": 6014,
      "lates": 6015,
      "cum": 6016,
      "bits": 6017,
      "speaks": 6018,
      "sites": 6019,
      "linn": 6020,
      "sleepy": 6021,
      "mercy": 6022,
      "mirror": 6023,
      "burgers": 6024,
      "kristina": 6025,
      "congratu": 6026,
      "reasons": 6027,
      "snowing": 6028,
      "warming": 6029,
      "wilma": 6030,
      "describe": 6031,
      "description": 6032,
      "japanese": 6033,
      "avengers": 6034,
      "maurice": 6035,
      "emotion": 6036,
      "nandez": 6037,
      "therapy": 6038,
      "fascin": 6039,
      "clinic": 6040,
      "distance": 6041,
      "lonely": 6042,
      "sierra": 6043,
      "despite": 6044,
      "cie": 6045,
      "cough": 6046,
      "ea": 6047,
      "oil": 6048,
      "pru": 6049,
      "vit": 6050,
      "yi": 6051,
      "yah": 6052,
      "ano": 6053,
      "antoni": 6054,
      "tops": 6055,
      "issac": 6056,
      "sele": 6057,
      "actor": 6058,
      "losing": 6059,
      "doreen": 6060,
      "lah": 6061,
      "jogging": 6062,
      "mara": 6063,
      "sheldon": 6064,
      "geoff": 6065,
      "fear": 6066,
      "plac": 6067,
      "constru": 6068,
      "permission": 6069,
      "kings": 6070,
      "chosen": 6071,
      "stole": 6072,
      "studied": 6073,
      "agency": 6074,
      "tram": 6075,
      "applied": 6076,
      "breaks": 6077,
      "gerry": 6078,
      "baked": 6079,
      "obli": 6080,
      "ireland": 6081,
      "cambridge": 6082,
      "content": 6083,
      "julianna": 6084,
      "additional": 6085,
      "garlic": 6086,
      "shortly": 6087,
      "celebrating": 6088,
      "attending": 6089,
      "hitting": 6090,
      "confirmation": 6091,
      "russia": 6092,
      "matilde": 6093,
      "kiss": 6094,
      "cosme": 6095,
      "science": 6096,
      "golden": 6097,
      "istics": 6098,
      "biology": 6099,
      "behaviour": 6100,
      "railway": 6101,
      "multi": 6102,
      "umbrella": 6103,
      "unexpect": 6104,
      "meredith": 6105,
      "antonio": 6106,
      "bald": 6107,
      "dit": 6108,
      "gise": 6109,
      "gloves": 6110,
      "hou": 6111,
      "kra": 6112,
      "mck": 6113,
      "morrow": 6114,
      "nac": 6115,
      "nab": 6116,
      "pla": 6117,
      "rhap": 6118,
      "yr": 6119,
      "🤣🤣": 6120,
      "measure": 6121,
      "ories": 6122,
      "ordin": 6123,
      "heh": 6124,
      "stic": 6125,
      "states": 6126,
      "noooo": 6127,
      "becoming": 6128,
      "roof": 6129,
      "lik": 6130,
      "hob": 6131,
      "force": 6132,
      "aches": 6133,
      "loss": 6134,
      "dol": 6135,
      "cow": 6136,
      "adult": 6137,
      "iran": 6138,
      "nail": 6139,
      "delia": 6140,
      "unbelievable": 6141,
      "female": 6142,
      "austri": 6143,
      "tail": 6144,
      "muff": 6145,
      "gur": 6146,
      "rise": 6147,
      "talks": 6148,
      "ager": 6149,
      "tracey": 6150,
      "moron": 6151,
      "stays": 6152,
      "league": 6153,
      "nature": 6154,
      "roommate": 6155,
      "nicki": 6156,
      "closing": 6157,
      "campa": 6158,
      "desig": 6159,
      "champ": 6160,
      "volu": 6161,
      "attitude": 6162,
      "england": 6163,
      "blame": 6164,
      "crack": 6165,
      "euros": 6166,
      "marriage": 6167,
      "laurel": 6168,
      "legal": 6169,
      "sharp": 6170,
      "opinions": 6171,
      "tattoo": 6172,
      "grades": 6173,
      "organized": 6174,
      "confident": 6175,
      "factory": 6176,
      "devil": 6177,
      "collins": 6178,
      "introduce": 6179,
      "various": 6180,
      "release": 6181,
      "shelter": 6182,
      "quentin": 6183,
      "referend": 6184,
      "remembered": 6185,
      "fascinating": 6186,
      "pruden": 6187,
      "cosmetics": 6188,
      "unexpected": 6189,
      "rhapsody": 6190,
      "aat": 6191,
      "bris": 6192,
      "bass": 6193,
      "cit": 6194,
      "ccer": 6195,
      "dama": 6196,
      "ewa": 6197,
      "ghost": 6198,
      "kent": 6199,
      "otic": 6200,
      "pin": 6201,
      "tou": 6202,
      "anca": 6203,
      "atm": 6204,
      "lemme": 6205,
      "enthus": 6206,
      "soccer": 6207,
      "wifi": 6208,
      "ros": 6209,
      "rox": 6210,
      "liar": 6211,
      "bug": 6212,
      "among": 6213,
      "amka": 6214,
      "adul": 6215,
      "susp": 6216,
      "ryn": 6217,
      "iest": 6218,
      "marly": 6219,
      "imi": 6220,
      "maid": 6221,
      "whel": 6222,
      "updated": 6223,
      "migu": 6224,
      "lux": 6225,
      "poly": 6226,
      "poten": 6227,
      "express": 6228,
      "pers": 6229,
      "rowan": 6230,
      "bran": 6231,
      "items": 6232,
      "fool": 6233,
      "jaz": 6234,
      "whoa": 6235,
      "jeans": 6236,
      "mattie": 6237,
      "matteo": 6238,
      "samara": 6239,
      "trous": 6240,
      "tricia": 6241,
      "serv": 6242,
      "cies": 6243,
      "sybill": 6244,
      "shock": 6245,
      "foreign": 6246,
      "lesley": 6247,
      "brings": 6248,
      "viet": 6249,
      "puppy": 6250,
      "frankly": 6251,
      "sitive": 6252,
      "casual": 6253,
      "dressing": 6254,
      "sweat": 6255,
      "heads": 6256,
      "skye": 6257,
      "melvin": 6258,
      "passion": 6259,
      "oooooooo": 6260,
      "kaylee": 6261,
      "panic": 6262,
      "magic": 6263,
      "crush": 6264,
      "fruits": 6265,
      "banana": 6266,
      "soul": 6267,
      "fatima": 6268,
      "connected": 6269,
      "literature": 6270,
      "clearly": 6271,
      "drug": 6272,
      "princess": 6273,
      "devast": 6274,
      "reckon": 6275,
      "materials": 6276,
      "economy": 6277,
      "lasag": 6278,
      "tricky": 6279,
      "karolina": 6280,
      "kathryn": 6281,
      "bangkok": 6282,
      "ignore": 6283,
      "companies": 6284,
      "fetch": 6285,
      "virginia": 6286,
      "seminar": 6287,
      "perfume": 6288,
      "embarrassing": 6289,
      "plastic": 6290,
      "arranged": 6291,
      "referendum": 6292,
      "damage": 6293,
      "miguel": 6294,
      "sybille": 6295,
      "aqu": 6296,
      "fisher": 6297,
      "ji": 6298,
      "jace": 6299,
      "jones": 6300,
      "kah": 6301,
      "kicked": 6302,
      "mama": 6303,
      "ppe": 6304,
      "witch": 6305,
      "❤❤": 6306,
      "😊😊": 6307,
      "anger": 6308,
      "ining": 6309,
      "theory": 6310,
      "tomek": 6311,
      "ingred": 6312,
      "seven": 6313,
      "alarm": 6314,
      "nelia": 6315,
      "nett": 6316,
      "bulous": 6317,
      "nowhere": 6318,
      "joys": 6319,
      "malia": 6320,
      "maure": 6321,
      "del": 6322,
      "deposit": 6323,
      "fee": 6324,
      "thern": 6325,
      "austra": 6326,
      "raoul": 6327,
      "pepper": 6328,
      "icking": 6329,
      "poll": 6330,
      "cait": 6331,
      "furious": 6332,
      "chrissy": 6333,
      "doesnt": 6334,
      "jeez": 6335,
      "minis": 6336,
      "stone": 6337,
      "cious": 6338,
      "shots": 6339,
      "bennett": 6340,
      "distur": 6341,
      "breath": 6342,
      "vik": 6343,
      "courses": 6344,
      "cornelia": 6345,
      "hubert": 6346,
      "kinder": 6347,
      "sana": 6348,
      "meds": 6349,
      "blon": 6350,
      "farm": 6351,
      "strate": 6352,
      "karine": 6353,
      "julius": 6354,
      "sensitive": 6355,
      "scot": 6356,
      "gino": 6357,
      "lawrie": 6358,
      "receip": 6359,
      "addic": 6360,
      "cliff": 6361,
      "teachers": 6362,
      "sels": 6363,
      "clarice": 6364,
      "copies": 6365,
      "traveling": 6366,
      "fabio": 6367,
      "reserve": 6368,
      "regularly": 6369,
      "cinthia": 6370,
      "informed": 6371,
      "tomato": 6372,
      "realized": 6373,
      "recogn": 6374,
      "traditional": 6375,
      "struggling": 6376,
      "greetings": 6377,
      "supervisor": 6378,
      "families": 6379,
      "adorable": 6380,
      "skirt": 6381,
      "pharmacy": 6382,
      "throat": 6383,
      "tanner": 6384,
      "garten": 6385,
      "adults": 6386,
      "ingredient": 6387,
      "maureen": 6388,
      "eth": 6389,
      "gb": 6390,
      "gim": 6391,
      "gru": 6392,
      "hide": 6393,
      "ired": 6394,
      "nx": 6395,
      "oma": 6396,
      "pod": 6397,
      "ud": 6398,
      "insis": 6399,
      "rene": 6400,
      "recording": 6401,
      "renov": 6402,
      "melo": 6403,
      "metal": 6404,
      "helene": 6405,
      "hawa": 6406,
      "hallie": 6407,
      "enjoys": 6408,
      "beck": 6409,
      "keiran": 6410,
      "wet": 6411,
      "limit": 6412,
      "hoc": 6413,
      "eddy": 6414,
      "acad": 6415,
      "idy": 6416,
      "buys": 6417,
      "bubble": 6418,
      "cher": 6419,
      "cope": 6420,
      "willy": 6421,
      "tire": 6422,
      "irish": 6423,
      "washer": 6424,
      "ify": 6425,
      "odd": 6426,
      "shor": 6427,
      "delight": 6428,
      "raise": 6429,
      "pey": 6430,
      "hows": 6431,
      "guard": 6432,
      "ples": 6433,
      "commer": 6434,
      "comedy": 6435,
      "perry": 6436,
      "rule": 6437,
      "chet": 6438,
      "mony": 6439,
      "pets": 6440,
      "clay": 6441,
      "overwhel": 6442,
      "served": 6443,
      "angelo": 6444,
      "disappeared": 6445,
      "dakota": 6446,
      "applying": 6447,
      "vivi": 6448,
      "lence": 6449,
      "fail": 6450,
      "fabulous": 6451,
      "corin": 6452,
      "tonite": 6453,
      "natty": 6454,
      "landing": 6455,
      "walked": 6456,
      "foundation": 6457,
      "tutor": 6458,
      "warren": 6459,
      "lincol": 6460,
      "headphones": 6461,
      "leroy": 6462,
      "organised": 6463,
      "passing": 6464,
      "meryl": 6465,
      "contacted": 6466,
      "translate": 6467,
      "drawer": 6468,
      "jasna": 6469,
      "magdale": 6470,
      "roads": 6471,
      "yyy": 6472,
      "lectures": 6473,
      "suitcase": 6474,
      "purple": 6475,
      "macie": 6476,
      "collecting": 6477,
      "growing": 6478,
      "promoted": 6479,
      "rolls": 6480,
      "tempor": 6481,
      "vegetarian": 6482,
      "pumpkin": 6483,
      "replied": 6484,
      "folks": 6485,
      "karaoke": 6486,
      "brayden": 6487,
      "cracow": 6488,
      "influence": 6489,
      "policy": 6490,
      "painkillers": 6491,
      "campaign": 6492,
      "trousers": 6493,
      "academ": 6494,
      "lincoln": 6495,
      "bts": 6496,
      "cles": 6497,
      "df": 6498,
      "eco": 6499,
      "gian": 6500,
      "hid": 6501,
      "hated": 6502,
      "ilo": 6503,
      "itor": 6504,
      "rarely": 6505,
      "sna": 6506,
      "usa": 6507,
      "xp": 6508,
      "reed": 6509,
      "remove": 6510,
      "tol": 6511,
      "towel": 6512,
      "meh": 6513,
      "arlo": 6514,
      "arily": 6515,
      "heels": 6516,
      "belong": 6517,
      "lid": 6518,
      "dos": 6519,
      "cherry": 6520,
      "ami": 6521,
      "ambu": 6522,
      "amster": 6523,
      "cot": 6524,
      "adding": 6525,
      "canteen": 6526,
      "lame": 6527,
      "margo": 6528,
      "irdre": 6529,
      "shine": 6530,
      "deirdre": 6531,
      "safer": 6532,
      "indian": 6533,
      "proced": 6534,
      "lukass": 6535,
      "bernad": 6536,
      "pret": 6537,
      "nyc": 6538,
      "folder": 6539,
      "alene": 6540,
      "clint": 6541,
      "gang": 6542,
      "prze": 6543,
      "kaja": 6544,
      "corpor": 6545,
      "hugs": 6546,
      "daddy": 6547,
      "clever": 6548,
      "wardrobe": 6549,
      "ilda": 6550,
      "trey": 6551,
      "classic": 6552,
      "clubs": 6553,
      "brus": 6554,
      "metro": 6555,
      "feelings": 6556,
      "curtis": 6557,
      "balls": 6558,
      "prior": 6559,
      "climb": 6560,
      "ulrich": 6561,
      "pascal": 6562,
      "passport": 6563,
      "appreciated": 6564,
      "screw": 6565,
      "micky": 6566,
      "brave": 6567,
      "batman": 6568,
      "boots": 6569,
      "crowd": 6570,
      "programme": 6571,
      "colors": 6572,
      "marek": 6573,
      "prince": 6574,
      "instructor": 6575,
      "instructions": 6576,
      "candid": 6577,
      "jerk": 6578,
      "direction": 6579,
      "realize": 6580,
      "mcdonald": 6581,
      "consult": 6582,
      "cathie": 6583,
      "announced": 6584,
      "critic": 6585,
      "induction": 6586,
      "surprisingly": 6587,
      "scratch": 6588,
      "imogen": 6589,
      "nevaeh": 6590,
      "peyton": 6591,
      "amsterdam": 6592,
      "bernadette": 6593,
      "przemek": 6594,
      "ahahah": 6595,
      "awake": 6596,
      "bible": 6597,
      "clip": 6598,
      "cities": 6599,
      "fying": 6600,
      "gaming": 6601,
      "hrs": 6602,
      "kg": 6603,
      "mina": 6604,
      "mous": 6605,
      "mash": 6606,
      "pon": 6607,
      "ping": 6608,
      "sb": 6609,
      "ues": 6610,
      "😁😁": 6611,
      "thum": 6612,
      "ani": 6613,
      "tos": 6614,
      "isol": 6615,
      "itions": 6616,
      "lion": 6617,
      "aco": 6618,
      "acu": 6619,
      "eta": 6620,
      "locked": 6621,
      "chica": 6622,
      "tilda": 6623,
      "lav": 6624,
      "joce": 6625,
      "marina": 6626,
      "dona": 6627,
      "dell": 6628,
      "unusual": 6629,
      "unfair": 6630,
      "femin": 6631,
      "peg": 6632,
      "thered": 6633,
      "cey": 6634,
      "mika": 6635,
      "mush": 6636,
      "poo": 6637,
      "cony": 6638,
      "perform": 6639,
      "gotten": 6640,
      "rubb": 6641,
      "precious": 6642,
      "affect": 6643,
      "quo": 6644,
      "ilty": 6645,
      "spon": 6646,
      "whose": 6647,
      "alej": 6648,
      "aleks": 6649,
      "chores": 6650,
      "franco": 6651,
      "trin": 6652,
      "misha": 6653,
      "harsh": 6654,
      "cuis": 6655,
      "duh": 6656,
      "emmanuel": 6657,
      "barney": 6658,
      "vienna": 6659,
      "bage": 6660,
      "parked": 6661,
      "birds": 6662,
      "lize": 6663,
      "tutori": 6664,
      "worrying": 6665,
      "barbra": 6666,
      "personally": 6667,
      "deter": 6668,
      "burnt": 6669,
      "contacts": 6670,
      "contacting": 6671,
      "links": 6672,
      "reminding": 6673,
      "piper": 6674,
      "holding": 6675,
      "tatum": 6676,
      "figured": 6677,
      "balcony": 6678,
      "antonia": 6679,
      "drugs": 6680,
      "techno": 6681,
      "econom": 6682,
      "griff": 6683,
      "kathleen": 6684,
      "knock": 6685,
      "mackenzie": 6686,
      "injured": 6687,
      "eleonor": 6688,
      "relig": 6689,
      "faye": 6690,
      "ignoring": 6691,
      "communicate": 6692,
      "babysit": 6693,
      "octavia": 6694,
      "audience": 6695,
      "rafael": 6696,
      "dimit": 6697,
      "gracie": 6698,
      "muffins": 6699,
      "melody": 6700,
      "hockey": 6701,
      "commercial": 6702,
      "procedure": 6703,
      "chicago": 6704,
      "jocelyn": 6705,
      "ahah": 6706,
      "eme": 6707,
      "gni": 6708,
      "nut": 6709,
      "ome": 6710,
      "ost": 6711,
      "sne": 6712,
      "sile": 6713,
      "uum": 6714,
      "vom": 6715,
      "reve": 6716,
      "ller": 6717,
      "orion": 6718,
      "leanne": 6719,
      "ences": 6720,
      "ict": 6721,
      "sole": 6722,
      "socks": 6723,
      "hoo": 6724,
      "hollie": 6725,
      "goin": 6726,
      "alf": 6727,
      "edna": 6728,
      "accent": 6729,
      "rio": 6730,
      "lyric": 6731,
      "abra": 6732,
      "marissa": 6733,
      "terence": 6734,
      "mae": 6735,
      "maja": 6736,
      "odin": 6737,
      "unhappy": 6738,
      "ppers": 6739,
      "bore": 6740,
      "milo": 6741,
      "tast": 6742,
      "pola": 6743,
      "bern": 6744,
      "rules": 6745,
      "caz": 6746,
      "stew": 6747,
      "igor": 6748,
      "aged": 6749,
      "tration": 6750,
      "miser": 6751,
      "shooting": 6752,
      "distr": 6753,
      "micah": 6754,
      "hopeless": 6755,
      "bret": 6756,
      "function": 6757,
      "xdd": 6758,
      "nerd": 6759,
      "priti": 6760,
      "iza": 6761,
      "trips": 6762,
      "parad": 6763,
      "jacqui": 6764,
      "henriet": 6765,
      "cleo": 6766,
      "international": 6767,
      "brie": 6768,
      "darcey": 6769,
      "classy": 6770,
      "orders": 6771,
      "genius": 6772,
      "horse": 6773,
      "salon": 6774,
      "riding": 6775,
      "crash": 6776,
      "ashamed": 6777,
      "doors": 6778,
      "paperwork": 6779,
      "streets": 6780,
      "rebeca": 6781,
      "tammy": 6782,
      "trisha": 6783,
      "nadine": 6784,
      "paloma": 6785,
      "region": 6786,
      "journal": 6787,
      "shifts": 6788,
      "darek": 6789,
      "regards": 6790,
      "harrison": 6791,
      "jumping": 6792,
      "route": 6793,
      "colleague": 6794,
      "mixed": 6795,
      "brennan": 6796,
      "susanne": 6797,
      "documentary": 6798,
      "electricity": 6799,
      "kaleigh": 6800,
      "lmao": 6801,
      "exhausted": 6802,
      "emotional": 6803,
      "devastated": 6804,
      "blonde": 6805,
      "magdalene": 6806,
      "brussels": 6807,
      "silent": 6808,
      "abraham": 6809,
      "henrietta": 6810,
      "abe": 6811,
      "bou": 6812,
      "cun": 6813,
      "eg": 6814,
      "elie": 6815,
      "ester": 6816,
      "gross": 6817,
      "ially": 6818,
      "lace": 6819,
      "lang": 6820,
      "mhm": 6821,
      "sno": 6822,
      "sask": 6823,
      "tun": 6824,
      "tent": 6825,
      "trent": 6826,
      "tabi": 6827,
      "zoo": 6828,
      "remain": 6829,
      "meggy": 6830,
      "sta": 6831,
      "lexie": 6832,
      "hav": 6833,
      "envir": 6834,
      "beef": 6835,
      "ayla": 6836,
      "wie": 6837,
      "neg": 6838,
      "buba": 6839,
      "rique": 6840,
      "donnie": 6841,
      "della": 6842,
      "united": 6843,
      "auto": 6844,
      "iceland": 6845,
      "guid": 6846,
      "niall": 6847,
      "brunch": 6848,
      "phon": 6849,
      "actual": 6850,
      "whereas": 6851,
      "whoever": 6852,
      "wooo": 6853,
      "lished": 6854,
      "waited": 6855,
      "wondered": 6856,
      "jensen": 6857,
      "harm": 6858,
      "dislike": 6859,
      "intense": 6860,
      "ggies": 6861,
      "hug": 6862,
      "massage": 6863,
      "joined": 6864,
      "clement": 6865,
      "carolina": 6866,
      "landlord": 6867,
      "cated": 6868,
      "eveline": 6869,
      "trees": 6870,
      "jayson": 6871,
      "twis": 6872,
      "mirac": 6873,
      "douglas": 6874,
      "safely": 6875,
      "duncan": 6876,
      "delilah": 6877,
      "leonardo": 6878,
      "finger": 6879,
      "shuttle": 6880,
      "kirsty": 6881,
      "respond": 6882,
      "owes": 6883,
      "include": 6884,
      "medication": 6885,
      "cassie": 6886,
      "candles": 6887,
      "collin": 6888,
      "officially": 6889,
      "frustrating": 6890,
      "russell": 6891,
      "circum": 6892,
      "relieved": 6893,
      "equip": 6894,
      "suffering": 6895,
      "global": 6896,
      "challeng": 6897,
      "sandwich": 6898,
      "education": 6899,
      "architecture": 6900,
      "energy": 6901,
      "repeat": 6902,
      "gluten": 6903,
      "desperate": 6904,
      "marathon": 6905,
      "houses": 6906,
      "potential": 6907,
      "jacek": 6908,
      "australia": 6909,
      "kindergarten": 6910,
      "ingredients": 6911,
      "cuisine": 6912,
      "tabitha": 6913,
      "environ": 6914,
      "airl": 6915,
      "bright": 6916,
      "bite": 6917,
      "cd": 6918,
      "dus": 6919,
      "fare": 6920,
      "fus": 6921,
      "gis": 6922,
      "gam": 6923,
      "gies": 6924,
      "glit": 6925,
      "mble": 6926,
      "mpa": 6927,
      "pher": 6928,
      "zzy": 6929,
      "recall": 6930,
      "relat": 6931,
      "tose": 6932,
      "melinda": 6933,
      "inga": 6934,
      "ors": 6935,
      "arlene": 6936,
      "lili": 6937,
      "hola": 6938,
      "homer": 6939,
      "fornia": 6940,
      "suic": 6941,
      "timis": 6942,
      "jolene": 6943,
      "moti": 6944,
      "shelf": 6945,
      "teas": 6946,
      "map": 6947,
      "malik": 6948,
      "demi": 6949,
      "feet": 6950,
      "fection": 6951,
      "ferences": 6952,
      "iona": 6953,
      "boob": 6954,
      "comic": 6955,
      "hahahahaha": 6956,
      "hired": 6957,
      "christy": 6958,
      "steam": 6959,
      "mani": 6960,
      "minnie": 6961,
      "fries": 6962,
      "storage": 6963,
      "francine": 6964,
      "trade": 6965,
      "emmy": 6966,
      "angella": 6967,
      "fund": 6968,
      "court": 6969,
      "gerardo": 6970,
      "bak": 6971,
      "izes": 6972,
      "jessy": 6973,
      "henning": 6974,
      "sisi": 6975,
      "dianne": 6976,
      "optimis": 6977,
      "flow": 6978,
      "posting": 6979,
      "trains": 6980,
      "keyboard": 6981,
      "tonya": 6982,
      "wonders": 6983,
      "gib": 6984,
      "karla": 6985,
      "singer": 6986,
      "drill": 6987,
      "organis": 6988,
      "childhood": 6989,
      "listened": 6990,
      "spots": 6991,
      "crime": 6992,
      "cried": 6993,
      "panel": 6994,
      "celeste": 6995,
      "fitz": 6996,
      "reminder": 6997,
      "accidentally": 6998,
      "opera": 6999,
      "searching": 7000,
      "pairs": 7001,
      "suitable": 7002,
      "eeeeeeee": 7003,
      "tourists": 7004,
      "palm": 7005,
      "ukraine": 7006,
      "hostel": 7007,
      "scand": 7008,
      "gillian": 7009,
      "deserves": 7010,
      "possibility": 7011,
      "flex": 7012,
      "nikki": 7013,
      "installed": 7014,
      "replacement": 7015,
      "jarod": 7016,
      "prague": 7017,
      "departure": 7018,
      "attractive": 7019,
      "responsibility": 7020,
      "california": 7021,
      "rehearsal": 7022,
      "lactose": 7023,
      "academic": 7024,
      "rubbish": 7025,
      "tastes": 7026,
      "ai": 7027,
      "dye": 7028,
      "kad": 7029,
      "kers": 7030,
      "mps": 7031,
      "para": 7032,
      "sque": 7033,
      "szy": 7034,
      "tmr": 7035,
      "yard": 7036,
      "👏👏": 7037,
      "ined": 7038,
      "insu": 7039,
      "inting": 7040,
      "onion": 7041,
      "error": 7042,
      "youll": 7043,
      "enge": 7044,
      "engage": 7045,
      "bev": 7046,
      "below": 7047,
      "assure": 7048,
      "associ": 7049,
      "wia": 7050,
      "idan": 7051,
      "dope": 7052,
      "myster": 7053,
      "imp": 7054,
      "wasnt": 7055,
      "degree": 7056,
      "uncomfortable": 7057,
      "theyre": 7058,
      "pean": 7059,
      "cement": 7060,
      "bomb": 7061,
      "bojana": 7062,
      "goodness": 7063,
      "comin": 7064,
      "exist": 7065,
      "worker": 7066,
      "workout": 7067,
      "brb": 7068,
      "cases": 7069,
      "actress": 7070,
      "background": 7071,
      "janny": 7072,
      "click": 7073,
      "oooh": 7074,
      "brea": 7075,
      "funding": 7076,
      "dixie": 7077,
      "pens": 7078,
      "evans": 7079,
      "tension": 7080,
      "remeber": 7081,
      "shay": 7082,
      "queue": 7083,
      "aki": 7084,
      "diner": 7085,
      "lizzie": 7086,
      "frederic": 7087,
      "maxwell": 7088,
      "counting": 7089,
      "rict": 7090,
      "sissy": 7091,
      "philo": 7092,
      "classroom": 7093,
      "gabrie": 7094,
      "nicer": 7095,
      "nicola": 7096,
      "skating": 7097,
      "ankle": 7098,
      "brush": 7099,
      "pointless": 7100,
      "lonya": 7101,
      "costa": 7102,
      "explo": 7103,
      "priate": 7104,
      "mainly": 7105,
      "uuu": 7106,
      "hoped": 7107,
      "boxing": 7108,
      "facts": 7109,
      "sharol": 7110,
      "reynold": 7111,
      "leonard": 7112,
      "vacuum": 7113,
      "popcorn": 7114,
      "aaaaaaaa": 7115,
      "relaxing": 7116,
      "purchase": 7117,
      "polite": 7118,
      "politic": 7119,
      "cheapest": 7120,
      "avoca": 7121,
      "miller": 7122,
      "hypo": 7123,
      "conflic": 7124,
      "fedora": 7125,
      "treatment": 7126,
      "paired": 7127,
      "whaaat": 7128,
      "tessy": 7129,
      "mexican": 7130,
      "subjects": 7131,
      "statistics": 7132,
      "recorded": 7133,
      "zuri": 7134,
      "zuza": 7135,
      "savings": 7136,
      "recogni": 7137,
      "paddy": 7138,
      "scene": 7139,
      "eteria": 7140,
      "rupt": 7141,
      "ruined": 7142,
      "volunteers": 7143,
      "shouting": 7144,
      "participate": 7145,
      "encoura": 7146,
      "experienced": 7147,
      "signing": 7148,
      "independent": 7149,
      "cafeteria": 7150,
      "ordinary": 7151,
      "hobbs": 7152,
      "austria": 7153,
      "equipment": 7154,
      "gibson": 7155,
      "bis": 7156,
      "bia": 7157,
      "cmon": 7158,
      "fond": 7159,
      "gth": 7160,
      "hp": 7161,
      "iga": 7162,
      "pir": 7163,
      "pdf": 7164,
      "sions": 7165,
      "tch": 7166,
      "tick": 7167,
      "vari": 7168,
      "yt": 7169,
      "zil": 7170,
      "‍♀": 7171,
      "rel": 7172,
      "republic": 7173,
      "reached": 7174,
      "thekla": 7175,
      "isis": 7176,
      "ished": 7177,
      "israel": 7178,
      "stink": 7179,
      "veg": 7180,
      "sett": 7181,
      "ashed": 7182,
      "wid": 7183,
      "wester": 7184,
      "aline": 7185,
      "alina": 7186,
      "forgive": 7187,
      "eds": 7188,
      "neat": 7189,
      "newest": 7190,
      "loan": 7191,
      "core": 7192,
      "colu": 7193,
      "adie": 7194,
      "tify": 7195,
      "jodi": 7196,
      "motiv": 7197,
      "makayla": 7198,
      "geon": 7199,
      "iff": 7200,
      "unsure": 7201,
      "unpleasant": 7202,
      "pel": 7203,
      "filled": 7204,
      "bol": 7205,
      "sages": 7206,
      "prove": 7207,
      "commu": 7208,
      "berries": 7209,
      "rights": 7210,
      "cage": 7211,
      "item": 7212,
      "spice": 7213,
      "photogra": 7214,
      "steps": 7215,
      "jem": 7216,
      "matic": 7217,
      "minim": 7218,
      "patrik": 7219,
      "ciaran": 7220,
      "benef": 7221,
      "brock": 7222,
      "disco": 7223,
      "discus": 7224,
      "meanwhile": 7225,
      "dram": 7226,
      "vibe": 7227,
      "viki": 7228,
      "truck": 7229,
      "pric": 7230,
      "carefully": 7231,
      "shaun": 7232,
      "tical": 7233,
      "kindle": 7234,
      "tural": 7235,
      "intern": 7236,
      "yaz": 7237,
      "tual": 7238,
      "treating": 7239,
      "jamal": 7240,
      "mpy": 7241,
      "claw": 7242,
      "gabby": 7243,
      "stranger": 7244,
      "license": 7245,
      "superhero": 7246,
      "realise": 7247,
      "eugene": 7248,
      "juliana": 7249,
      "blah": 7250,
      "lipstick": 7251,
      "sadly": 7252,
      "prize": 7253,
      "garrett": 7254,
      "bonny": 7255,
      "magn": 7256,
      "reminded": 7257,
      "speaker": 7258,
      "attended": 7259,
      "countryside": 7260,
      "chatting": 7261,
      "actions": 7262,
      "screwed": 7263,
      "practical": 7264,
      "approve": 7265,
      "silver": 7266,
      "lucie": 7267,
      "theater": 7268,
      "response": 7269,
      "bbq": 7270,
      "mountain": 7271,
      "tempting": 7272,
      "binge": 7273,
      "customers": 7274,
      "lilah": 7275,
      "gigi": 7276,
      "shanon": 7277,
      "register": 7278,
      "frozen": 7279,
      "brendon": 7280,
      "pierce": 7281,
      "ignored": 7282,
      "dishwasher": 7283,
      "indust": 7284,
      "successful": 7285,
      "narcos": 7286,
      "challenge": 7287,
      "source": 7288,
      "voucher": 7289,
      "sneak": 7290,
      "dusan": 7291,
      "bakery": 7292,
      "gabriela": 7293,
      "bc": 7294,
      "blast": 7295,
      "cable": 7296,
      "dat": 7297,
      "egy": 7298,
      "gall": 7299,
      "swed": 7300,
      "sible": 7301,
      "tac": 7302,
      "tate": 7303,
      "tank": 7304,
      "uts": 7305,
      "windy": 7306,
      "wings": 7307,
      "zan": 7308,
      "😭😭": 7309,
      "ths": 7310,
      "iny": 7311,
      "resist": 7312,
      "topics": 7313,
      "isie": 7314,
      "strict": 7315,
      "enor": 7316,
      "enrique": 7317,
      "nola": 7318,
      "nolan": 7319,
      "beans": 7320,
      "veggies": 7321,
      "seaside": 7322,
      "iches": 7323,
      "wire": 7324,
      "wide": 7325,
      "wered": 7326,
      "lif": 7327,
      "lil": 7328,
      "aling": 7329,
      "nell": 7330,
      "bul": 7331,
      "built": 7332,
      "doable": 7333,
      "aman": 7334,
      "adar": 7335,
      "abdul": 7336,
      "ryl": 7337,
      "laint": 7338,
      "launch": 7339,
      "marisol": 7340,
      "irwin": 7341,
      "yeee": 7342,
      "hernandez": 7343,
      "devin": 7344,
      "fellow": 7345,
      "raven": 7346,
      "grew": 7347,
      "luka": 7348,
      "guilty": 7349,
      "concent": 7350,
      "chest": 7351,
      "leticia": 7352,
      "quar": 7353,
      "fuel": 7354,
      "ives": 7355,
      "wore": 7356,
      "mats": 7357,
      "matth": 7358,
      "patter": 7359,
      "sons": 7360,
      "lating": 7361,
      "cutie": 7362,
      "bene": 7363,
      "broad": 7364,
      "bars": 7365,
      "disease": 7366,
      "ellio": 7367,
      "dialo": 7368,
      "evil": 7369,
      "isaiah": 7370,
      "norah": 7371,
      "dinny": 7372,
      "ileen": 7373,
      "kenzie": 7374,
      "landon": 7375,
      "lander": 7376,
      "catan": 7377,
      "surfing": 7378,
      "portu": 7379,
      "darryl": 7380,
      "useppe": 7381,
      "compli": 7382,
      "complaint": 7383,
      "wars": 7384,
      "warning": 7385,
      "ryanair": 7386,
      "suggestion": 7387,
      "giuseppe": 7388,
      "attached": 7389,
      "salt": 7390,
      "organic": 7391,
      "doubts": 7392,
      "walker": 7393,
      "lonnie": 7394,
      "transla": 7395,
      "seasons": 7396,
      "drawing": 7397,
      "discussion": 7398,
      "brands": 7399,
      "swing": 7400,
      "relaxed": 7401,
      "chilling": 7402,
      "reserved": 7403,
      "brazil": 7404,
      "decisions": 7405,
      "graduation": 7406,
      "models": 7407,
      "bbc": 7408,
      "arguing": 7409,
      "feedback": 7410,
      "atures": 7411,
      "medium": 7412,
      "fiction": 7413,
      "solved": 7414,
      "terribly": 7415,
      "entirely": 7416,
      "cultural": 7417,
      "cecily": 7418,
      "neighbors": 7419,
      "digital": 7420,
      "society": 7421,
      "postponed": 7422,
      "baseball": 7423,
      "eastern": 7424,
      "investig": 7425,
      "geraldine": 7426,
      "dumpl": 7427,
      "abortion": 7428,
      "counter": 7429,
      "precisely": 7430,
      "rhys": 7431,
      "receipt": 7432,
      "bubbles": 7433,
      "shorter": 7434,
      "alfonso": 7435,
      "bernard": 7436,
      "miserable": 7437,
      "paradise": 7438,
      "motivation": 7439,
      "boobs": 7440,
      "szymon": 7441,
      "western": 7442,
      "elliott": 7443,
      "cm": 7444,
      "ewan": 7445,
      "flor": 7446,
      "hut": 7447,
      "ija": 7448,
      "kha": 7449,
      "lacey": 7450,
      "mimi": 7451,
      "nn": 7452,
      "rink": 7453,
      "range": 7454,
      "rasha": 7455,
      "uma": 7456,
      "😻😻": 7457,
      "incre": 7458,
      "initi": 7459,
      "reject": 7460,
      "recru": 7461,
      "tore": 7462,
      "enzo": 7463,
      "bean": 7464,
      "behaving": 7465,
      "seb": 7466,
      "kebab": 7467,
      "rocky": 7468,
      "liver": 7469,
      "lips": 7470,
      "alberto": 7471,
      "forced": 7472,
      "edit": 7473,
      "eden": 7474,
      "editing": 7475,
      "acha": 7476,
      "bury": 7477,
      "loving": 7478,
      "dolo": 7479,
      "arest": 7480,
      "corey": 7481,
      "ady": 7482,
      "rip": 7483,
      "riette": 7484,
      "okie": 7485,
      "abdi": 7486,
      "tip": 7487,
      "button": 7488,
      "someday": 7489,
      "moments": 7490,
      "ods": 7491,
      "ception": 7492,
      "wanting": 7493,
      "sailing": 7494,
      "yess": 7495,
      "compar": 7496,
      "combin": 7497,
      "conserv": 7498,
      "gale": 7499,
      "affair": 7500,
      "byron": 7501,
      "brat": 7502,
      "phd": 7503,
      "follo": 7504,
      "gration": 7505,
      "spicy": 7506,
      "caused": 7507,
      "paola": 7508,
      "stolen": 7509,
      "stones": 7510,
      "dyn": 7511,
      "overnight": 7512,
      "latin": 7513,
      "dislikes": 7514,
      "hellen": 7515,
      "meantime": 7516,
      "hudson": 7517,
      "monthly": 7518,
      "rented": 7519,
      "ears": 7520,
      "ferry": 7521,
      "winning": 7522,
      "prison": 7523,
      "otes": 7524,
      "spends": 7525,
      "horri": 7526,
      "julien": 7527,
      "basis": 7528,
      "reece": 7529,
      "drove": 7530,
      "guese": 7531,
      "laws": 7532,
      "dragon": 7533,
      "www": 7534,
      "absolute": 7535,
      "crisis": 7536,
      "cristian": 7537,
      "sexual": 7538,
      "hania": 7539,
      "rodger": 7540,
      "advised": 7541,
      "travels": 7542,
      "affordable": 7543,
      "ramon": 7544,
      "ramsay": 7545,
      "proposes": 7546,
      "grounded": 7547,
      "argued": 7548,
      "deserved": 7549,
      "acceptable": 7550,
      "decorate": 7551,
      "queens": 7552,
      "glenn": 7553,
      "urgently": 7554,
      "psychology": 7555,
      "constantly": 7556,
      "convenience": 7557,
      "software": 7558,
      "relief": 7559,
      "divorced": 7560,
      "prayers": 7561,
      "estim": 7562,
      "costumes": 7563,
      "settings": 7564,
      "eleonore": 7565,
      "threw": 7566,
      "necklace": 7567,
      "galaxy": 7568,
      "assistant": 7569,
      "incident": 7570,
      "switched": 7571,
      "whitney": 7572,
      "citiz": 7573,
      "scotland": 7574,
      "gimme": 7575,
      "maciek": 7576,
      "ambulance": 7577,
      "stewart": 7578,
      "negative": 7579,
      "shayla": 7580,
      "portuguese": 7581,
      "conservative": 7582,
      "followed": 7583,
      "award": 7584,
      "cilla": 7585,
      "ckets": 7586,
      "drow": 7587,
      "dread": 7588,
      "ec": 7589,
      "elly": 7590,
      "elder": 7591,
      "fs": 7592,
      "fina": 7593,
      "gant": 7594,
      "jama": 7595,
      "kie": 7596,
      "klara": 7597,
      "oce": 7598,
      "pia": 7599,
      "pip": 7600,
      "rze": 7601,
      "tx": 7602,
      "tasha": 7603,
      "vs": 7604,
      "zom": 7605,
      "zak": 7606,
      "thnx": 7607,
      "rese": 7608,
      "repaired": 7609,
      "toy": 7610,
      "toys": 7611,
      "attract": 7612,
      "attemp": 7613,
      "eras": 7614,
      "isnt": 7615,
      "oring": 7616,
      "arab": 7617,
      "arrest": 7618,
      "aries": 7619,
      "argent": 7620,
      "stit": 7621,
      "andrze": 7622,
      "vegas": 7623,
      "roma": 7624,
      "hobby": 7625,
      "alon": 7626,
      "alot": 7627,
      "alban": 7628,
      "alonso": 7629,
      "edy": 7630,
      "edly": 7631,
      "acon": 7632,
      "nephew": 7633,
      "buses": 7634,
      "dotty": 7635,
      "chic": 7636,
      "willie": 7637,
      "absent": 7638,
      "shelley": 7639,
      "telly": 7640,
      "gear": 7641,
      "washed": 7642,
      "ife": 7643,
      "fective": 7644,
      "enda": 7645,
      "therese": 7646,
      "inez": 7647,
      "plz": 7648,
      "bothered": 7649,
      "milly": 7650,
      "arturo": 7651,
      "conclu": 7652,
      "exotic": 7653,
      "chee": 7654,
      "chemis": 7655,
      "venus": 7656,
      "venue": 7657,
      "grrr": 7658,
      "spray": 7659,
      "helga": 7660,
      "couldnt": 7661,
      "derrick": 7662,
      "finlay": 7663,
      "maryann": 7664,
      "nicely": 7665,
      "disney": 7666,
      "disagree": 7667,
      "micro": 7668,
      "dai": 7669,
      "visits": 7670,
      "shaw": 7671,
      "pussy": 7672,
      "object": 7673,
      "mommy": 7674,
      "andreas": 7675,
      "lized": 7676,
      "medit": 7677,
      "sunshine": 7678,
      "hearing": 7679,
      "bling": 7680,
      "flir": 7681,
      "treated": 7682,
      "louie": 7683,
      "priscilla": 7684,
      "runs": 7685,
      "hunting": 7686,
      "sweety": 7687,
      "concerning": 7688,
      "kitten": 7689,
      "julio": 7690,
      "expectations": 7691,
      "gladly": 7692,
      "royal": 7693,
      "zelda": 7694,
      "universe": 7695,
      "kristel": 7696,
      "rainy": 7697,
      "spoons": 7698,
      "drag": 7699,
      "solutions": 7700,
      "offering": 7701,
      "alid": 7702,
      "experiment": 7703,
      "invitations": 7704,
      "legend": 7705,
      "falls": 7706,
      "zzzz": 7707,
      "fluffy": 7708,
      "aidan": 7709,
      "swan": 7710,
      "spectacu": 7711,
      "marciano": 7712,
      "honor": 7713,
      "googled": 7714,
      "battle": 7715,
      "elaine": 7716,
      "connect": 7717,
      "cupboard": 7718,
      "washington": 7719,
      "sheryl": 7720,
      "kerri": 7721,
      "chances": 7722,
      "itius": 7723,
      "lloyd": 7724,
      "advant": 7725,
      "awwww": 7726,
      "leader": 7727,
      "mauritius": 7728,
      "tablet": 7729,
      "registration": 7730,
      "adop": 7731,
      "potato": 7732,
      "beyonce": 7733,
      "suffer": 7734,
      "chairs": 7735,
      "demanding": 7736,
      "volunteer": 7737,
      "whiskey": 7738,
      "suspects": 7739,
      "threat": 7740,
      "reliable": 7741,
      "murder": 7742,
      "sandwiches": 7743,
      "talented": 7744,
      "mechanic": 7745,
      "effects": 7746,
      "supportive": 7747,
      "hesitate": 7748,
      "depression": 7749,
      "alternative": 7750,
      "employees": 7751,
      "financial": 7752,
      "construction": 7753,
      "prudence": 7754,
      "bassy": 7755,
      "enthusia": 7756,
      "suspic": 7757,
      "sanaz": 7758,
      "strategy": 7759,
      "podcast": 7760,
      "tutorial": 7761,
      "technology": 7762,
      "environment": 7763,
      "suicide": 7764,
      "flexible": 7765,
      "ocean": 7766,
      "erasmus": 7767,
      "andrzej": 7768,
      "spectacular": 7769,
      "aim": 7770,
      "bid": 7771,
      "dough": 7772,
      "gmail": 7773,
      "jk": 7774,
      "kia": 7775,
      "olo": 7776,
      "passes": 7777,
      "pitch": 7778,
      "rare": 7779,
      "sme": 7780,
      "sic": 7781,
      "shad": 7782,
      "snap": 7783,
      "vlad": 7784,
      "xbox": 7785,
      "yoli": 7786,
      "yrs": 7787,
      "zor": 7788,
      "zay": 7789,
      "zone": 7790,
      "analy": 7791,
      "insp": 7792,
      "resid": 7793,
      "thetic": 7794,
      "meth": 7795,
      "memes": 7796,
      "iso": 7797,
      "stable": 7798,
      "stain": 7799,
      "beasts": 7800,
      "som": 7801,
      "wik": 7802,
      "aland": 7803,
      "alphon": 7804,
      "edom": 7805,
      "accompany": 7806,
      "budd": 7807,
      "lover": 7808,
      "dore": 7809,
      "dome": 7810,
      "ades": 7811,
      "admi": 7812,
      "tied": 7813,
      "tires": 7814,
      "juni": 7815,
      "ield": 7816,
      "laos": 7817,
      "mars": 7818,
      "marke": 7819,
      "donate": 7820,
      "maia": 7821,
      "ified": 7822,
      "shiny": 7823,
      "demon": 7824,
      "deacon": 7825,
      "audio": 7826,
      "cere": 7827,
      "toms": 7828,
      "bos": 7829,
      "taw": 7830,
      "carri": 7831,
      "greate": 7832,
      "elton": 7833,
      "berg": 7834,
      "beryl": 7835,
      "excel": 7836,
      "cker": 7837,
      "persu": 7838,
      "perman": 7839,
      "hike": 7840,
      "rug": 7841,
      "preferences": 7842,
      "avi": 7843,
      "offended": 7844,
      "jewel": 7845,
      "stores": 7846,
      "marylin": 7847,
      "jenni": 7848,
      "lottery": 7849,
      "overall": 7850,
      "shocking": 7851,
      "benson": 7852,
      "morty": 7853,
      "morton": 7854,
      "bookstore": 7855,
      "achie": 7856,
      "brent": 7857,
      "visa": 7858,
      "toronto": 7859,
      "hubby": 7860,
      "davis": 7861,
      "northern": 7862,
      "nickie": 7863,
      "apt": 7864,
      "standard": 7865,
      "ires": 7866,
      "situ": 7867,
      "intoler": 7868,
      "trend": 7869,
      "winnie": 7870,
      "network": 7871,
      "chay": 7872,
      "lery": 7873,
      "giles": 7874,
      "gium": 7875,
      "kettle": 7876,
      "wears": 7877,
      "grandparents": 7878,
      "mitche": 7879,
      "bib": 7880,
      "jordyn": 7881,
      "cedes": 7882,
      "belgium": 7883,
      "midday": 7884,
      "debby": 7885,
      "rebekah": 7886,
      "fairly": 7887,
      "pipe": 7888,
      "aneous": 7889,
      "ooooh": 7890,
      "yuval": 7891,
      "confirms": 7892,
      "straw": 7893,
      "depending": 7894,
      "reyna": 7895,
      "claude": 7896,
      "fabric": 7897,
      "dryer": 7898,
      "interviews": 7899,
      "explained": 7900,
      "hahha": 7901,
      "articles": 7902,
      "proposal": 7903,
      "languages": 7904,
      "piss": 7905,
      "refuse": 7906,
      "statement": 7907,
      "fleur": 7908,
      "alyson": 7909,
      "russel": 7910,
      "director": 7911,
      "lamp": 7912,
      "blanket": 7913,
      "pierre": 7914,
      "uploaded": 7915,
      "behavior": 7916,
      "yasmin": 7917,
      "folk": 7918,
      "development": 7919,
      "limited": 7920,
      "spiderman": 7921,
      "multiple": 7922,
      "nacho": 7923,
      "vietnam": 7924,
      "grumpy": 7925,
      "delighted": 7926,
      "temporary": 7927,
      "airlines": 7928,
      "philosoph": 7929,
      "magnus": 7930,
      "matthias": 7931,
      "dolores": 7932,
      "alphonse": 7933,
      "permanent": 7934,
      "aint": 7935,
      "bam": 7936,
      "dima": 7937,
      "eze": 7938,
      "gender": 7939,
      "hloe": 7940,
      "ige": 7941,
      "kour": 7942,
      "khloe": 7943,
      "lass": 7944,
      "nada": 7945,
      "slu": 7946,
      "vil": 7947,
      "yon": 7948,
      "zka": 7949,
      "😱😱": 7950,
      "thir": 7951,
      "anka": 7952,
      "oured": 7953,
      "rely": 7954,
      "thelma": 7955,
      "hem": 7956,
      "stall": 7957,
      "stroll": 7958,
      "lef": 7959,
      "entered": 7960,
      "sequ": 7961,
      "rolling": 7962,
      "lio": 7963,
      "idio": 7964,
      "buck": 7965,
      "bump": 7966,
      "lobby": 7967,
      "areth": 7968,
      "amir": 7969,
      "adeline": 7970,
      "susy": 7971,
      "outlander": 7972,
      "rylen": 7973,
      "irrit": 7974,
      "mohammad": 7975,
      "shee": 7976,
      "sheer": 7977,
      "tele": 7978,
      "donte": 7979,
      "shri": 7980,
      "shite": 7981,
      "unlike": 7982,
      "peel": 7983,
      "saga": 7984,
      "carrot": 7985,
      "muhammad": 7986,
      "pold": 7987,
      "pocket": 7988,
      "exit": 7989,
      "hire": 7990,
      "rufus": 7991,
      "newspa": 7992,
      "cheat": 7993,
      "venice": 7994,
      "letters": 7995,
      "mondays": 7996,
      "ively": 7997,
      "wag": 7998,
      "spill": 7999,
      "spark": 8000,
      "christie": 8001,
      "homemade": 8002,
      "omer": 8003,
      "manual": 8004,
      "makeup": 8005,
      "cycle": 8006,
      "patti": 8007,
      "agnies": 8008,
      "missy": 8009,
      "disappear": 8010,
      "daki": 8011,
      "babs": 8012,
      "puzz": 8013,
      "obses": 8014,
      "fai": 8015,
      "norway": 8016,
      "scholar": 8017,
      "eats": 8018,
      "surround": 8019,
      "brief": 8020,
      "amalia": 8021,
      "stuffed": 8022,
      "complains": 8023,
      "warmer": 8024,
      "fernand": 8025,
      "linked": 8026,
      "elections": 8027,
      "leopold": 8028,
      "pizz": 8029,
      "wishing": 8030,
      "ketch": 8031,
      "superb": 8032,
      "stances": 8033,
      "lilyana": 8034,
      "williams": 8035,
      "mercedes": 8036,
      "telma": 8037,
      "teams": 8038,
      "suzan": 8039,
      "hahahha": 8040,
      "tables": 8041,
      "catching": 8042,
      "fixing": 8043,
      "speakers": 8044,
      "yuki": 8045,
      "kimberley": 8046,
      "dominique": 8047,
      "skylar": 8048,
      "sells": 8049,
      "ential": 8050,
      "captain": 8051,
      "graphics": 8052,
      "quired": 8053,
      "cups": 8054,
      "feeding": 8055,
      "arrangements": 8056,
      "greek": 8057,
      "sheridan": 8058,
      "valerio": 8059,
      "levels": 8060,
      "slides": 8061,
      "neighborhood": 8062,
      "routine": 8063,
      "harriett": 8064,
      "constance": 8065,
      "shantelle": 8066,
      "painted": 8067,
      "teeth": 8068,
      "destination": 8069,
      "thrilled": 8070,
      "graduated": 8071,
      "loool": 8072,
      "subscription": 8073,
      "vitam": 8074,
      "baldwin": 8075,
      "krakow": 8076,
      "insists": 8077,
      "district": 8078,
      "twisted": 8079,
      "discussed": 8080,
      "industry": 8081,
      "marketing": 8082,
      "kourtney": 8083,
      "agnieszka": 8084,
      "obsessed": 8085,
      "bod": 8086,
      "bent": 8087,
      "cke": 8088,
      "dj": 8089,
      "fart": 8090,
      "gir": 8091,
      "gles": 8092,
      "jed": 8093,
      "knit": 8094,
      "lg": 8095,
      "lice": 8096,
      "macey": 8097,
      "nge": 8098,
      "ox": 8099,
      "och": 8100,
      "osto": 8101,
      "pour": 8102,
      "plain": 8103,
      "rat": 8104,
      "sla": 8105,
      "sche": 8106,
      "sang": 8107,
      "twe": 8108,
      "uri": 8109,
      "ulia": 8110,
      "ums": 8111,
      "vacc": 8112,
      "zard": 8113,
      "😙😙": 8114,
      "😜😜": 8115,
      "anime": 8116,
      "aneta": 8117,
      "rec": 8118,
      "rex": 8119,
      "resort": 8120,
      "replac": 8121,
      "memp": 8122,
      "isson": 8123,
      "isiah": 8124,
      "ington": 8125,
      "ori": 8126,
      "aro": 8127,
      "arse": 8128,
      "arms": 8129,
      "ario": 8130,
      "heee": 8131,
      "heaven": 8132,
      "sets": 8133,
      "aston": 8134,
      "sober": 8135,
      "soap": 8136,
      "rots": 8137,
      "roxy": 8138,
      "lib": 8139,
      "goal": 8140,
      "goals": 8141,
      "alain": 8142,
      "actors": 8143,
      "bugs": 8144,
      "adjust": 8145,
      "oker": 8146,
      "lyla": 8147,
      "jum": 8148,
      "juana": 8149,
      "lag": 8150,
      "marin": 8151,
      "maisie": 8152,
      "austen": 8153,
      "rae": 8154,
      "peadar": 8155,
      "wheel": 8156,
      "fiance": 8157,
      "ppies": 8158,
      "upcoming": 8159,
      "saf": 8160,
      "indiv": 8161,
      "carbon": 8162,
      "goodnight": 8163,
      "artist": 8164,
      "pover": 8165,
      "sss": 8166,
      "romania": 8167,
      "tool": 8168,
      "rows": 8169,
      "monique": 8170,
      "quali": 8171,
      "tyre": 8172,
      "types": 8173,
      "wax": 8174,
      "wave": 8175,
      "hometown": 8176,
      "photography": 8177,
      "stein": 8178,
      "manu": 8179,
      "aled": 8180,
      "lasts": 8181,
      "minor": 8182,
      "minny": 8183,
      "agenda": 8184,
      "francie": 8185,
      "overtime": 8186,
      "overslept": 8187,
      "charged": 8188,
      "sery": 8189,
      "answered": 8190,
      "funds": 8191,
      "lita": 8192,
      "picnic": 8193,
      "birming": 8194,
      "lorna": 8195,
      "shown": 8196,
      "clemen": 8197,
      "earrings": 8198,
      "larissa": 8199,
      "catering": 8200,
      "walks": 8201,
      "slee": 8202,
      "ipad": 8203,
      "evenings": 8204,
      "jamas": 8205,
      "lounge": 8206,
      "mpia": 8207,
      "trainer": 8208,
      "stream": 8209,
      "understandable": 8210,
      "presentations": 8211,
      "istan": 8212,
      "blow": 8213,
      "superman": 8214,
      "conditions": 8215,
      "horace": 8216,
      "horses": 8217,
      "salsa": 8218,
      "jillian": 8219,
      "basics": 8220,
      "burned": 8221,
      "ooooo": 8222,
      "spotify": 8223,
      "cribed": 8224,
      "stars": 8225,
      "fitness": 8226,
      "debate": 8227,
      "pieter": 8228,
      "grammar": 8229,
      "colby": 8230,
      "walls": 8231,
      "tanvi": 8232,
      "tamar": 8233,
      "marijuana": 8234,
      "melania": 8235,
      "kore": 8236,
      "alaina": 8237,
      "vail": 8238,
      "marcia": 8239,
      "camping": 8240,
      "palace": 8241,
      "graphic": 8242,
      "virus": 8243,
      "romeo": 8244,
      "assignments": 8245,
      "nonsense": 8246,
      "allergy": 8247,
      "community": 8248,
      "necessarily": 8249,
      "cabin": 8250,
      "router": 8251,
      "eloise": 8252,
      "zero": 8253,
      "amazed": 8254,
      "bearable": 8255,
      "scenario": 8256,
      "beyond": 8257,
      "committee": 8258,
      "antibio": 8259,
      "recovering": 8260,
      "compared": 8261,
      "nursery": 8262,
      "android": 8263,
      "dumped": 8264,
      "technical": 8265,
      "dolph": 8266,
      "designer": 8267,
      "sponsor": 8268,
      "saskia": 8269,
      "clementine": 8270,
      "optimistic": 8271,
      "association": 8272,
      "recognize": 8273,
      "settling": 8274,
      "photographer": 8275,
      "tacos": 8276,
      "chemistry": 8277,
      "enthusiastic": 8278,
      "ceremony": 8279,
      "greatest": 8280,
      "jewelry": 8281,
      "mitchell": 8282,
      "glesny": 8283,
      "ostoja": 8284,
      "memphis": 8285,
      "birmingham": 8286,
      "abu": 8287,
      "bber": 8288,
      "bale": 8289,
      "clive": 8290,
      "cables": 8291,
      "dding": 8292,
      "ely": 8293,
      "eager": 8294,
      "faces": 8295,
      "gp": 8296,
      "jp": 8297,
      "kn": 8298,
      "kendy": 8299,
      "lun": 8300,
      "nity": 8301,
      "sly": 8302,
      "skate": 8303,
      "tter": 8304,
      "tack": 8305,
      "umm": 8306,
      "upper": 8307,
      "vant": 8308,
      "villa": 8309,
      "vamp": 8310,
      "wra": 8311,
      "wank": 8312,
      "woken": 8313,
      "xton": 8314,
      "zane": 8315,
      "～～": 8316,
      "🎉🎉": 8317,
      "😘😘": 8318,
      "thru": 8319,
      "anas": 8320,
      "oug": 8321,
      "retake": 8322,
      "reference": 8323,
      "returning": 8324,
      "toll": 8325,
      "isley": 8326,
      "itive": 8327,
      "orch": 8328,
      "heater": 8329,
      "hectic": 8330,
      "anderson": 8331,
      "hamed": 8332,
      "noelle": 8333,
      "bee": 8334,
      "belinda": 8335,
      "icing": 8336,
      "icio": 8337,
      "rore": 8338,
      "liquid": 8339,
      "holes": 8340,
      "howie": 8341,
      "goat": 8342,
      "eding": 8343,
      "acked": 8344,
      "neomi": 8345,
      "ets": 8346,
      "alley": 8347,
      "located": 8348,
      "doin": 8349,
      "dolly": 8350,
      "arett": 8351,
      "chie": 8352,
      "chant": 8353,
      "colo": 8354,
      "ghurt": 8355,
      "rien": 8356,
      "rigu": 8357,
      "suf": 8358,
      "lynda": 8359,
      "abs": 8360,
      "abbey": 8361,
      "outfits": 8362,
      "cancun": 8363,
      "onel": 8364,
      "lavin": 8365,
      "marleen": 8366,
      "moore": 8367,
      "mohamed": 8368,
      "termin": 8369,
      "terrace": 8370,
      "gee": 8371,
      "ode": 8372,
      "herbert": 8373,
      "autom": 8374,
      "aurore": 8375,
      "ravi": 8376,
      "raised": 8377,
      "plates": 8378,
      "bolog": 8379,
      "miah": 8380,
      "tains": 8381,
      "entry": 8382,
      "protest": 8383,
      "pos": 8384,
      "pockets": 8385,
      "urban": 8386,
      "commission": 8387,
      "exclu": 8388,
      "workplace": 8389,
      "percy": 8390,
      "gotcha": 8391,
      "wouldnt": 8392,
      "frannie": 8393,
      "fuss": 8394,
      "johnathan": 8395,
      "spy": 8396,
      "spin": 8397,
      "spud": 8398,
      "betsy": 8399,
      "homeless": 8400,
      "everytime": 8401,
      "jelly": 8402,
      "matches": 8403,
      "paisley": 8404,
      "sammie": 8405,
      "fried": 8406,
      "patri": 8407,
      "maryam": 8408,
      "overreact": 8409,
      "moroc": 8410,
      "barba": 8411,
      "barnab": 8412,
      "disappo": 8413,
      "discover": 8414,
      "dalia": 8415,
      "apps": 8416,
      "madness": 8417,
      "bree": 8418,
      "diary": 8419,
      "freedom": 8420,
      "intrigu": 8421,
      "laurien": 8422,
      "lenna": 8423,
      "selfie": 8424,
      "trial": 8425,
      "pushed": 8426,
      "daniela": 8427,
      "corina": 8428,
      "davon": 8429,
      "jaca": 8430,
      "simona": 8431,
      "iola": 8432,
      "creating": 8433,
      "pays": 8434,
      "ronaldo": 8435,
      "walmart": 8436,
      "aaah": 8437,
      "everett": 8438,
      "casa": 8439,
      "foods": 8440,
      "blond": 8441,
      "lifestyle": 8442,
      "niece": 8443,
      "trek": 8444,
      "harder": 8445,
      "anabelle": 8446,
      "jaya": 8447,
      "licence": 8448,
      "resour": 8449,
      "concerts": 8450,
      "sisters": 8451,
      "expects": 8452,
      "dorothea": 8453,
      "dete": 8454,
      "vesna": 8455,
      "brothers": 8456,
      "promising": 8457,
      "crashed": 8458,
      "explore": 8459,
      "climate": 8460,
      "preferably": 8461,
      "accounting": 8462,
      "complex": 8463,
      "piyu": 8464,
      "sylve": 8465,
      "pricey": 8466,
      "theodore": 8467,
      "quicker": 8468,
      "celebration": 8469,
      "messy": 8470,
      "productive": 8471,
      "resume": 8472,
      "effective": 8473,
      "francisco": 8474,
      "browsing": 8475,
      "bananas": 8476,
      "gustav": 8477,
      "annoys": 8478,
      "complained": 8479,
      "brazi": 8480,
      "approved": 8481,
      "cameras": 8482,
      "balance": 8483,
      "writer": 8484,
      "writes": 8485,
      "examples": 8486,
      "sessions": 8487,
      "crowds": 8488,
      "sausages": 8489,
      "apologies": 8490,
      "slipped": 8491,
      "excuses": 8492,
      "avenue": 8493,
      "tracking": 8494,
      "mauricio": 8495,
      "constant": 8496,
      "circle": 8497,
      "bastards": 8498,
      "introduced": 8499,
      "embarras": 8500,
      "xdddd": 8501,
      "frost": 8502,
      "blanca": 8503,
      "pretending": 8504,
      "therapist": 8505,
      "relevant": 8506,
      "thriller": 8507,
      "pushing": 8508,
      "participants": 8509,
      "kendra": 8510,
      "kendrick": 8511,
      "encourage": 8512,
      "cigarett": 8513,
      "websites": 8514,
      "provided": 8515,
      "gathering": 8516,
      "gosia": 8517,
      "spoilers": 8518,
      "protect": 8519,
      "shakespe": 8520,
      "humour": 8521,
      "geography": 8522,
      "gisela": 8523,
      "champion": 8524,
      "bristol": 8525,
      "touched": 8526,
      "aquaman": 8527,
      "quote": 8528,
      "trinity": 8529,
      "challenging": 8530,
      "lifes": 8531,
      "translator": 8532,
      "finale": 8533,
      "junior": 8534,
      "tawny": 8535,
      "sheehan": 8536,
      "wagner": 8537,
      "pizzas": 8538,
      "bentley": 8539,
      "safety": 8540,
      "individ": 8541,
      "korean": 8542,
      "lavinia": 8543,
      "bologna": 8544,
      "barnaby": 8545,
      "disappointing": 8546,
      "piyush": 8547,
      "cigarettes": 8548,
      "abel": 8549,
      "bicy": 8550,
      "dag": 8551,
      "ghe": 8552,
      "gilda": 8553,
      "hous": 8554,
      "ium": 8555,
      "manda": 8556,
      "oly": 8557,
      "ovan": 8558,
      "pine": 8559,
      "pint": 8560,
      "rated": 8561,
      "scent": 8562,
      "scam": 8563,
      "tm": 8564,
      "ude": 8565,
      "vas": 8566,
      "vine": 8567,
      "xander": 8568,
      "yan": 8569,
      "zes": 8570,
      "zia": 8571,
      "‍♂": 8572,
      "reu": 8573,
      "required": 8574,
      "theories": 8575,
      "errand": 8576,
      "arre": 8577,
      "hea": 8578,
      "leaf": 8579,
      "habit": 8580,
      "beg": 8581,
      "solo": 8582,
      "rol": 8583,
      "romy": 8584,
      "rotf": 8585,
      "hops": 8586,
      "alma": 8587,
      "formu": 8588,
      "edia": 8589,
      "ids": 8590,
      "domi": 8591,
      "dolen": 8592,
      "amal": 8593,
      "colla": 8594,
      "colon": 8595,
      "butt": 8596,
      "marian": 8597,
      "donovan": 8598,
      "deed": 8599,
      "devices": 8600,
      "fees": 8601,
      "worn": 8602,
      "raf": 8603,
      "rafal": 8604,
      "peggie": 8605,
      "filly": 8606,
      "upon": 8607,
      "plate": 8608,
      "mild": 8609,
      "carib": 8610,
      "prom": 8611,
      "guill": 8612,
      "guide": 8613,
      "constan": 8614,
      "ruben": 8615,
      "chess": 8616,
      "venom": 8617,
      "prevent": 8618,
      "meets": 8619,
      "user": 8620,
      "monster": 8621,
      "redu": 8622,
      "frit": 8623,
      "avril": 8624,
      "spar": 8625,
      "johns": 8626,
      "jail": 8627,
      "steak": 8628,
      "lists": 8629,
      "mature": 8630,
      "cyber": 8631,
      "finals": 8632,
      "ersin": 8633,
      "stuart": 8634,
      "cling": 8635,
      "charming": 8636,
      "cury": 8637,
      "symp": 8638,
      "dawn": 8639,
      "maddison": 8640,
      "divid": 8641,
      "dizzy": 8642,
      "freel": 8643,
      "viol": 8644,
      "prick": 8645,
      "sham": 8646,
      "shaz": 8647,
      "renata": 8648,
      "pulled": 8649,
      "gggg": 8650,
      "corre": 8651,
      "masha": 8652,
      "schools": 8653,
      "closet": 8654,
      "underground": 8655,
      "supports": 8656,
      "darline": 8657,
      "ronic": 8658,
      "damar": 8659,
      "tress": 8660,
      "desi": 8661,
      "louisa": 8662,
      "mplo": 8663,
      "nette": 8664,
      "champa": 8665,
      "differently": 8666,
      "surprises": 8667,
      "mateo": 8668,
      "hungover": 8669,
      "realistic": 8670,
      "expenses": 8671,
      "sala": 8672,
      "halfway": 8673,
      "musical": 8674,
      "basil": 8675,
      "merida": 8676,
      "scow": 8677,
      "burgh": 8678,
      "rained": 8679,
      "yoghurt": 8680,
      "dropping": 8681,
      "adela": 8682,
      "branden": 8683,
      "hammond": 8684,
      "magical": 8685,
      "iii": 8686,
      "production": 8687,
      "fficient": 8688,
      "ibly": 8689,
      "secure": 8690,
      "purse": 8691,
      "violence": 8692,
      "wroclaw": 8693,
      "prescription": 8694,
      "ikr": 8695,
      "saul": 8696,
      "qualities": 8697,
      "scient": 8698,
      "sheri": 8699,
      "decoration": 8700,
      "downloaded": 8701,
      "flav": 8702,
      "equally": 8703,
      "hettie": 8704,
      "physical": 8705,
      "averi": 8706,
      "unemplo": 8707,
      "whisky": 8708,
      "peaceful": 8709,
      "provider": 8710,
      "rashid": 8711,
      "independence": 8712,
      "false": 8713,
      "jaden": 8714,
      "remote": 8715,
      "junk": 8716,
      "accused": 8717,
      "yikes": 8718,
      "overwhelmed": 8719,
      "corporate": 8720,
      "climbing": 8721,
      "giselle": 8722,
      "peanut": 8723,
      "motivated": 8724,
      "gallery": 8725,
      "dialogues": 8726,
      "sicily": 8727,
      "inspired": 8728,
      "philosophy": 8729,
      "lefto": 8730,
      "idiots": 8731,
      "fernando": 8732,
      "brazilian": 8733,
      "errands": 8734,
      "constanza": 8735,
      "symptoms": 8736,
      "ahahaha": 8737,
      "cly": 8738,
      "dwi": 8739,
      "dge": 8740,
      "ethe": 8741,
      "emm": 8742,
      "gareth": 8743,
      "hint": 8744,
      "jav": 8745,
      "lting": 8746,
      "obe": 8747,
      "pha": 8748,
      "phis": 8749,
      "slot": 8750,
      "scale": 8751,
      "tine": 8752,
      "tation": 8753,
      "taught": 8754,
      "ured": 8755,
      "yoh": 8756,
      "zed": 8757,
      "zza": 8758,
      "😃😃": 8759,
      "😠😠": 8760,
      "😮😮": 8761,
      "ination": 8762,
      "infin": 8763,
      "renew": 8764,
      "refund": 8765,
      "err": 8766,
      "meters": 8767,
      "isma": 8768,
      "ites": 8769,
      "helia": 8770,
      "stam": 8771,
      "leland": 8772,
      "haw": 8773,
      "ened": 8774,
      "envious": 8775,
      "noisy": 8776,
      "notific": 8777,
      "becomes": 8778,
      "icure": 8779,
      "esha": 8780,
      "hooked": 8781,
      "alisha": 8782,
      "aldona": 8783,
      "edin": 8784,
      "looo": 8785,
      "looooo": 8786,
      "doy": 8787,
      "arez": 8788,
      "arena": 8789,
      "amh": 8790,
      "amor": 8791,
      "rif": 8792,
      "aba": 8793,
      "tier": 8794,
      "canad": 8795,
      "jurek": 8796,
      "impatient": 8797,
      "moscow": 8798,
      "yelled": 8799,
      "nau": 8800,
      "herbs": 8801,
      "justice": 8802,
      "unable": 8803,
      "fered": 8804,
      "peach": 8805,
      "ppro": 8806,
      "tap": 8807,
      "cardiff": 8808,
      "prosec": 8809,
      "urgh": 8810,
      "explan": 8811,
      "extension": 8812,
      "exception": 8813,
      "checks": 8814,
      "lette": 8815,
      "niamh": 8816,
      "preg": 8817,
      "brace": 8818,
      "shouldnt": 8819,
      "inappro": 8820,
      "dani": 8821,
      "liest": 8822,
      "bettina": 8823,
      "stevie": 8824,
      "sorts": 8825,
      "jewell": 8826,
      "woo": 8827,
      "sample": 8828,
      "patsy": 8829,
      "tionary": 8830,
      "trau": 8831,
      "harley": 8832,
      "charging": 8833,
      "server": 8834,
      "sym": 8835,
      "firm": 8836,
      "bargain": 8837,
      "daw": 8838,
      "vinnie": 8839,
      "divide": 8840,
      "theirs": 8841,
      "intend": 8842,
      "penis": 8843,
      "timing": 8844,
      "kailey": 8845,
      "spell": 8846,
      "picks": 8847,
      "obhan": 8848,
      "remembers": 8849,
      "parano": 8850,
      "msg": 8851,
      "corbin": 8852,
      "dinah": 8853,
      "kiddin": 8854,
      "lorrie": 8855,
      "rental": 8856,
      "henriette": 8857,
      "nickolas": 8858,
      "certific": 8859,
      "fredrik": 8860,
      "larisa": 8861,
      "blouse": 8862,
      "ipedia": 8863,
      "fern": 8864,
      "planet": 8865,
      "differences": 8866,
      "ophelia": 8867,
      "movement": 8868,
      "richmond": 8869,
      "stretch": 8870,
      "sickness": 8871,
      "hmmmm": 8872,
      "giant": 8873,
      "blocking": 8874,
      "voting": 8875,
      "karan": 8876,
      "sigh": 8877,
      "siobhan": 8878,
      "brady": 8879,
      "calcu": 8880,
      "throughout": 8881,
      "highway": 8882,
      "sensible": 8883,
      "mercury": 8884,
      "cleaners": 8885,
      "bikes": 8886,
      "arette": 8887,
      "vanni": 8888,
      "vanilla": 8889,
      "drops": 8890,
      "messaged": 8891,
      "flatmate": 8892,
      "addition": 8893,
      "deadlines": 8894,
      "crimin": 8895,
      "panicking": 8896,
      "draft": 8897,
      "accounts": 8898,
      "kiko": 8899,
      "staring": 8900,
      "yucatan": 8901,
      "crista": 8902,
      "coping": 8903,
      "tanja": 8904,
      "producer": 8905,
      "bourg": 8906,
      "korea": 8907,
      "requests": 8908,
      "buildings": 8909,
      "hehehe": 8910,
      "aniel": 8911,
      "arium": 8912,
      "macbook": 8913,
      "explaining": 8914,
      "connections": 8915,
      "campbell": 8916,
      "apollo": 8917,
      "tourist": 8918,
      "conversations": 8919,
      "pinkie": 8920,
      "powerful": 8921,
      "kamren": 8922,
      "discounts": 8923,
      "pillow": 8924,
      "pillows": 8925,
      "confusing": 8926,
      "confidence": 8927,
      "whaaaa": 8928,
      "allergies": 8929,
      "particularly": 8930,
      "mellery": 8931,
      "rani": 8932,
      "apologise": 8933,
      "terrified": 8934,
      "cassandra": 8935,
      "membership": 8936,
      "appears": 8937,
      "status": 8938,
      "registered": 8939,
      "target": 8940,
      "incredibly": 8941,
      "basement": 8942,
      "critical": 8943,
      "allows": 8944,
      "beatriz": 8945,
      "activity": 8946,
      "approaching": 8947,
      "sheets": 8948,
      "sources": 8949,
      "familiar": 8950,
      "cigarette": 8951,
      "entertaining": 8952,
      "exhausting": 8953,
      "depressing": 8954,
      "hundreds": 8955,
      "pitt": 8956,
      "exaggerating": 8957,
      "frame": 8958,
      "inspiration": 8959,
      "predictable": 8960,
      "lasagne": 8961,
      "addicted": 8962,
      "hawaii": 8963,
      "thumbs": 8964,
      "mikaela": 8965,
      "mushroom": 8966,
      "alejandra": 8967,
      "havana": 8968,
      "circumstances": 8969,
      "glitter": 8970,
      "liliana": 8971,
      "tmrw": 8972,
      "conflict": 8973,
      "biscu": 8974,
      "increase": 8975,
      "recruit": 8976,
      "attempt": 8977,
      "alonzo": 8978,
      "edyta": 8979,
      "objects": 8980,
      "wikipedia": 8981,
      "morocco": 8982,
      "embarrassed": 8983,
      "shakespeare": 8984,
      "lifesaver": 8985,
      "rotfl": 8986,
      "champag": 8987,
      "unemployed": 8988,
      "dwight": 8989,
      "ethel": 8990,
      "prosecco": 8991,
      "biz": 8992,
      "cers": 8993,
      "elen": 8994,
      "ebay": 8995,
      "fala": 8996,
      "ix": 8997,
      "ipat": 8998,
      "jessa": 8999,
      "kac": 9000,
      "kry": 9001,
      "lk": 9002,
      "lty": 9003,
      "oti": 9004,
      "padd": 9005,
      "rah": 9006,
      "slip": 9007,
      "tas": 9008,
      "ulla": 9009,
      "xious": 9010,
      "yanny": 9011,
      "😀😀": 9012,
      "😩😩": 9013,
      "anto": 9014,
      "inn": 9015,
      "inconvenience": 9016,
      "revolu": 9017,
      "theless": 9018,
      "oni": 9019,
      "erm": 9020,
      "iser": 9021,
      "hamilton": 9022,
      "seaf": 9023,
      "asher": 9024,
      "asian": 9025,
      "aspect": 9026,
      "weir": 9027,
      "weap": 9028,
      "liber": 9029,
      "liking": 9030,
      "forgetting": 9031,
      "edition": 9032,
      "nellie": 9033,
      "allao": 9034,
      "loser": 9035,
      "lorela": 9036,
      "loreen": 9037,
      "aretha": 9038,
      "amon": 9039,
      "amie": 9040,
      "cocon": 9041,
      "adnan": 9042,
      "lyman": 9043,
      "tix": 9044,
      "outstanding": 9045,
      "ieva": 9046,
      "noted": 9047,
      "joint": 9048,
      "josi": 9049,
      "immi": 9050,
      "irina": 9051,
      "tex": 9052,
      "naked": 9053,
      "maine": 9054,
      "mauro": 9055,
      "shyann": 9056,
      "feb": 9057,
      "feyi": 9058,
      "raw": 9059,
      "rame": 9060,
      "raising": 9061,
      "raiola": 9062,
      "filling": 9063,
      "pple": 9064,
      "bobo": 9065,
      "boot": 9066,
      "tails": 9067,
      "saint": 9068,
      "cart": 9069,
      "carrots": 9070,
      "mud": 9071,
      "poz": 9072,
      "pole": 9073,
      "posh": 9074,
      "ssss": 9075,
      "conside": 9076,
      "consci": 9077,
      "berdie": 9078,
      "extend": 9079,
      "gaz": 9080,
      "histor": 9081,
      "monu": 9082,
      "monkey": 9083,
      "frann": 9084,
      "phra": 9085,
      "bleeding": 9086,
      "waking": 9087,
      "danial": 9088,
      "wherever": 9089,
      "jag": 9090,
      "jame": 9091,
      "woof": 9092,
      "katelin": 9093,
      "cycling": 9094,
      "cloud": 9095,
      "assment": 9096,
      "aggress": 9097,
      "tray": 9098,
      "charges": 9099,
      "serving": 9100,
      "civil": 9101,
      "cudd": 9102,
      "moris": 9103,
      "coup": 9104,
      "bark": 9105,
      "nerves": 9106,
      "tense": 9107,
      "trude": 9108,
      "length": 9109,
      "pron": 9110,
      "shadow": 9111,
      "selfish": 9112,
      "leather": 9113,
      "frankfur": 9114,
      "andres": 9115,
      "minds": 9116,
      "lorraine": 9117,
      "kinds": 9118,
      "clown": 9119,
      "underwear": 9120,
      "interests": 9121,
      "interior": 9122,
      "household": 9123,
      "nesses": 9124,
      "survi": 9125,
      "survey": 9126,
      "denny": 9127,
      "darwin": 9128,
      "aaat": 9129,
      "tub": 9130,
      "craving": 9131,
      "craft": 9132,
      "warn": 9133,
      "warrant": 9134,
      "warned": 9135,
      "streaming": 9136,
      "elegant": 9137,
      "understands": 9138,
      "lunchtime": 9139,
      "former": 9140,
      "giulia": 9141,
      "matej": 9142,
      "attach": 9143,
      "attacks": 9144,
      "attacked": 9145,
      "workshops": 9146,
      "couples": 9147,
      "childish": 9148,
      "hhhh": 9149,
      "muscles": 9150,
      "basia": 9151,
      "unique": 9152,
      "instit": 9153,
      "learnt": 9154,
      "kaya": 9155,
      "closest": 9156,
      "flattered": 9157,
      "malta": 9158,
      "specialist": 9159,
      "expans": 9160,
      "radcliff": 9161,
      "adrianne": 9162,
      "wwww": 9163,
      "legit": 9164,
      "crisps": 9165,
      "shari": 9166,
      "cutting": 9167,
      "fortunate": 9168,
      "generous": 9169,
      "fallows": 9170,
      "brows": 9171,
      "brownies": 9172,
      "property": 9173,
      "practically": 9174,
      "shipped": 9175,
      "convincing": 9176,
      "mbia": 9177,
      "museums": 9178,
      "graphs": 9179,
      "quitting": 9180,
      "stalker": 9181,
      "sausage": 9182,
      "titles": 9183,
      "drums": 9184,
      "machines": 9185,
      "tessie": 9186,
      "terrifying": 9187,
      "americans": 9188,
      "designed": 9189,
      "jumped": 9190,
      "defense": 9191,
      "bowl": 9192,
      "opportunities": 9193,
      "downloading": 9194,
      "directions": 9195,
      "cocoa": 9196,
      "keenan": 9197,
      "submitted": 9198,
      "ironing": 9199,
      "departing": 9200,
      "unavail": 9201,
      "bachel": 9202,
      "bacallao": 9203,
      "experiences": 9204,
      "massive": 9205,
      "supporting": 9206,
      "architect": 9207,
      "intention": 9208,
      "responsibilities": 9209,
      "pyjamas": 9210,
      "employee": 9211,
      "stroke": 9212,
      "gisele": 9213,
      "volume": 9214,
      "recognise": 9215,
      "mcdonalds": 9216,
      "religious": 9217,
      "lyrics": 9218,
      "encourages": 9219,
      "benefits": 9220,
      "dramatic": 9221,
      "compliment": 9222,
      "dumplings": 9223,
      "rejected": 9224,
      "comparison": 9225,
      "albania": 9226,
      "flirting": 9227,
      "rugby": 9228,
      "resources": 9229,
      "sylvester": 9230,
      "reuben": 9231,
      "deedee": 9232,
      "infinity": 9233,
      "edinburgh": 9234,
      "pregnancy": 9235,
      "jewellery": 9236,
      "paranoid": 9237,
      "champagne": 9238,
      "antoine": 9239,
      "lorelai": 9240,
      "coconut": 9241,
      "considered": 9242,
      "conscious": 9243,
      "frankfurt": 9244,
      "unavailable": 9245,
      "aay": 9246,
      "aliza": 9247,
      "bann": 9248,
      "bborn": 9249,
      "cc": 9250,
      "cs": 9251,
      "cah": 9252,
      "fry": 9253,
      "ffi": 9254,
      "gt": 9255,
      "gno": 9256,
      "hort": 9257,
      "itors": 9258,
      "jaron": 9259,
      "khand": 9260,
      "nation": 9261,
      "nala": 9262,
      "oon": 9263,
      "oter": 9264,
      "ood": 9265,
      "opr": 9266,
      "ology": 9267,
      "punch": 9268,
      "rin": 9269,
      "ration": 9270,
      "sas": 9271,
      "sia": 9272,
      "swo": 9273,
      "scri": 9274,
      "sized": 9275,
      "twi": 9276,
      "tish": 9277,
      "troll": 9278,
      "uing": 9279,
      "vr": 9280,
      "yen": 9281,
      "yves": 9282,
      "😔😔": 9283,
      "antony": 9284,
      "reo": 9285,
      "remy": 9286,
      "regan": 9287,
      "refer": 9288,
      "retired": 9289,
      "refresh": 9290,
      "thee": 9291,
      "onika": 9292,
      "youve": 9293,
      "argh": 9294,
      "army": 9295,
      "heck": 9296,
      "leona": 9297,
      "lebron": 9298,
      "nobu": 9299,
      "nomin": 9300,
      "beard": 9301,
      "semi": 9302,
      "aser": 9303,
      "roche": 9304,
      "roast": 9305,
      "esco": 9306,
      "lime": 9307,
      "liqu": 9308,
      "lilian": 9309,
      "goose": 9310,
      "etime": 9311,
      "logo": 9312,
      "login": 9313,
      "covers": 9314,
      "addy": 9315,
      "rix": 9316,
      "suite": 9317,
      "suki": 9318,
      "abble": 9319,
      "tilly": 9320,
      "whatsup": 9321,
      "canon": 9322,
      "cannab": 9323,
      "ryland": 9324,
      "joana": 9325,
      "marked": 9326,
      "mol": 9327,
      "tears": 9328,
      "terror": 9329,
      "dep": 9330,
      "defo": 9331,
      "device": 9332,
      "allyn": 9333,
      "unbearable": 9334,
      "audri": 9335,
      "peak": 9336,
      "howdy": 9337,
      "gette": 9338,
      "bosses": 9339,
      "tape": 9340,
      "carpet": 9341,
      "elvis": 9342,
      "ludo": 9343,
      "arts": 9344,
      "mums": 9345,
      "gum": 9346,
      "comics": 9347,
      "conso": 9348,
      "contri": 9349,
      "contest": 9350,
      "gael": 9351,
      "gaga": 9352,
      "hahaa": 9353,
      "annabel": 9354,
      "annabelle": 9355,
      "rowena": 9356,
      "rudy": 9357,
      "afric": 9358,
      "mono": 9359,
      "gras": 9360,
      "wai": 9361,
      "wakes": 9362,
      "spont": 9363,
      "waitress": 9364,
      "paolo": 9365,
      "cyril": 9366,
      "stubborn": 9367,
      "sonny": 9368,
      "mish": 9369,
      "services": 9370,
      "dust": 9371,
      "talkin": 9372,
      "couver": 9373,
      "tragic": 9374,
      "barbab": 9375,
      "barrie": 9376,
      "disser": 9377,
      "playlist": 9378,
      "dip": 9379,
      "evidence": 9380,
      "vitor": 9381,
      "guessing": 9382,
      "lennie": 9383,
      "bai": 9384,
      "pubs": 9385,
      "observe": 9386,
      "leaking": 9387,
      "bestie": 9388,
      "huda": 9389,
      "mattress": 9390,
      "dining": 9391,
      "fridays": 9392,
      "billie": 9393,
      "clothing": 9394,
      "crete": 9395,
      "freeze": 9396,
      "housewarming": 9397,
      "standards": 9398,
      "surinder": 9399,
      "fucker": 9400,
      "evelina": 9401,
      "andrews": 9402,
      "crappy": 9403,
      "damaged": 9404,
      "niew": 9405,
      "roseanne": 9406,
      "farrah": 9407,
      "flood": 9408,
      "floyd": 9409,
      "versial": 9410,
      "weronika": 9411,
      "eugen": 9412,
      "senior": 9413,
      "merri": 9414,
      "douche": 9415,
      "vancouver": 9416,
      "seconds": 9417,
      "kristle": 9418,
      "messaging": 9419,
      "cran": 9420,
      "rayburn": 9421,
      "midge": 9422,
      "garbage": 9423,
      "tuesdays": 9424,
      "preferred": 9425,
      "bonuses": 9426,
      "managing": 9427,
      "mags": 9428,
      "piet": 9429,
[...]
